__attribute__((section("network_model_sec"), aligned(16))) char model_pte[] = {
0x3c, 0x00, 0x00, 0x00, 0x45, 0x54, 0x31, 0x32, 0x65, 0x68, 0x30, 0x30, 0x18, 0x00, 0x00, 0x00, 0xf0, 0x12, 0x00, 0x00, 0x00, 0x00, 0x00, 0x00, 0x00, 0x13, 0x00, 0x00, 0x00, 0x00, 0x00, 0x00, 
0x00, 0x00, 0x00, 0x00, 0x00, 0x00, 0x00, 0x00, 0x00, 0x00, 0x00, 0x00, 0x10, 0x00, 0x18, 0x00, 0x00, 0x00, 0x04, 0x00, 0x08, 0x00, 0x0c, 0x00, 0x10, 0x00, 0x14, 0x00, 0x10, 0x00, 0x00, 0x00, 
0x74, 0x00, 0x00, 0x00, 0x6c, 0x00, 0x00, 0x00, 0x64, 0x00, 0x00, 0x00, 0x40, 0x00, 0x00, 0x00, 0x04, 0x00, 0x00, 0x00, 0x68, 0xfa, 0xff, 0xff, 0x04, 0x00, 0x00, 0x00, 0x05, 0x00, 0x00, 0x00, 
0x00, 0x00, 0x00, 0x00, 0x00, 0x00, 0x00, 0x00, 0x00, 0x00, 0x00, 0x00, 0x00, 0x00, 0x00, 0x00, 0x80, 0x01, 0x00, 0x00, 0x00, 0x00, 0x00, 0x00, 0x00, 0x02, 0x00, 0x00, 0x00, 0x00, 0x00, 0x00, 
0x00, 0x22, 0x00, 0x00, 0x00, 0x00, 0x00, 0x00, 0x00, 0x00, 0x00, 0x00, 0x01, 0x00, 0x00, 0x00, 0x0c, 0x00, 0x00, 0x00, 0x08, 0x00, 0x10, 0x00, 0x00, 0x00, 0x04, 0x00, 0x08, 0x00, 0x00, 0x00, 
0x00, 0x23, 0x00, 0x00, 0x00, 0x00, 0x00, 0x00, 0x00, 0x00, 0x00, 0x00, 0x00, 0x00, 0x00, 0x00, 0x00, 0x00, 0x00, 0x00, 0x01, 0x00, 0x00, 0x00, 0x1c, 0x00, 0x00, 0x00, 0x00, 0x00, 0x16, 0x00, 
0x28, 0x00, 0x04, 0x00, 0x08, 0x00, 0x0c, 0x00, 0x10, 0x00, 0x14, 0x00, 0x18, 0x00, 0x1c, 0x00, 0x20, 0x00, 0x24, 0x00, 0x16, 0x00, 0x00, 0x00, 0x0c, 0x12, 0x00, 0x00, 0xb8, 0x10, 0x00, 0x00, 
0x64, 0x05, 0x00, 0x00, 0x58, 0x05, 0x00, 0x00, 0x4c, 0x05, 0x00, 0x00, 0x10, 0x02, 0x00, 0x00, 0x28, 0x00, 0x00, 0x00, 0x20, 0x00, 0x00, 0x00, 0x04, 0x00, 0x00, 0x00, 0x02, 0x00, 0x00, 0x00, 
0x00, 0x00, 0x00, 0x00, 0x00, 0x00, 0x00, 0x00, 0x10, 0x83, 0x00, 0x00, 0x00, 0x00, 0x00, 0x00, 0x00, 0x00, 0x00, 0x00, 0x00, 0x00, 0x00, 0x00, 0x0a, 0x00, 0x00, 0x00, 0xb4, 0x01, 0x00, 0x00, 
0x8c, 0x01, 0x00, 0x00, 0x58, 0x01, 0x00, 0x00, 0x1c, 0x01, 0x00, 0x00, 0xe4, 0x00, 0x00, 0x00, 0xb4, 0x00, 0x00, 0x00, 0x80, 0x00, 0x00, 0x00, 0x58, 0x00, 0x00, 0x00, 0x30, 0x00, 0x00, 0x00, 
0x04, 0x00, 0x00, 0x00, 0xb8, 0xef, 0xff, 0xff, 0x10, 0x00, 0x00, 0x00, 0x04, 0x00, 0x00, 0x00, 0x03, 0x00, 0x00, 0x00, 0x6f, 0x75, 0x74, 0x00, 0x0e, 0x00, 0x00, 0x00, 0x61, 0x74, 0x65, 0x6e, 
0x3a, 0x3a, 0x5f, 0x73, 0x6f, 0x66, 0x74, 0x6d, 0x61, 0x78, 0x00, 0x00, 0xe0, 0xef, 0xff, 0xff, 0x10, 0x00, 0x00, 0x00, 0x04, 0x00, 0x00, 0x00, 0x03, 0x00, 0x00, 0x00, 0x6f, 0x75, 0x74, 0x00, 
0x08, 0x00, 0x00, 0x00, 0x61, 0x74, 0x65, 0x6e, 0x3a, 0x3a, 0x6d, 0x6d, 0x00, 0x00, 0x00, 0x00, 0x04, 0xf0, 0xff, 0xff, 0x10, 0x00, 0x00, 0x00, 0x04, 0x00, 0x00, 0x00, 0x03, 0x00, 0x00, 0x00, 
0x6f, 0x75, 0x74, 0x00, 0x09, 0x00, 0x00, 0x00, 0x61, 0x74, 0x65, 0x6e, 0x3a, 0x3a, 0x63, 0x61, 0x74, 0x00, 0x00, 0x00, 0x28, 0xf0, 0xff, 0xff, 0x14, 0x00, 0x00, 0x00, 0x04, 0x00, 0x00, 0x00, 
0x07, 0x00, 0x00, 0x00, 0x69, 0x6e, 0x74, 0x5f, 0x6f, 0x75, 0x74, 0x00, 0x11, 0x00, 0x00, 0x00, 0x61, 0x74, 0x65, 0x6e, 0x3a, 0x3a, 0x73, 0x65, 0x6c, 0x65, 0x63, 0x74, 0x5f, 0x63, 0x6f, 0x70, 
0x79, 0x00, 0x00, 0x00, 0x58, 0xf0, 0xff, 0xff, 0x10, 0x00, 0x00, 0x00, 0x04, 0x00, 0x00, 0x00, 0x03, 0x00, 0x00, 0x00, 0x6f, 0x75, 0x74, 0x00, 0x12, 0x00, 0x00, 0x00, 0x61, 0x74, 0x65, 0x6e, 
0x3a, 0x3a, 0x70, 0x65, 0x72, 0x6d, 0x75, 0x74, 0x65, 0x5f, 0x63, 0x6f, 0x70, 0x79, 0x00, 0x00, 0x84, 0xf0, 0xff, 0xff, 0x18, 0x00, 0x00, 0x00, 0x04, 0x00, 0x00, 0x00, 0x08, 0x00, 0x00, 0x00, 
0x64, 0x69, 0x6d, 0x73, 0x5f, 0x6f, 0x75, 0x74, 0x00, 0x00, 0x00, 0x00, 0x12, 0x00, 0x00, 0x00, 0x61, 0x74, 0x65, 0x6e, 0x3a, 0x3a, 0x73, 0x71, 0x75, 0x65, 0x65, 0x7a, 0x65, 0x5f, 0x63, 0x6f, 
0x70, 0x79, 0x00, 0x00, 0xb8, 0xf0, 0xff, 0xff, 0x10, 0x00, 0x00, 0x00, 0x04, 0x00, 0x00, 0x00, 0x03, 0x00, 0x00, 0x00, 0x6f, 0x75, 0x74, 0x00, 0x1d, 0x00, 0x00, 0x00, 0x61, 0x74, 0x65, 0x6e, 
0x3a, 0x3a, 0x6d, 0x61, 0x78, 0x5f, 0x70, 0x6f, 0x6f, 0x6c, 0x32, 0x64, 0x5f, 0x77, 0x69, 0x74, 0x68, 0x5f, 0x69, 0x6e, 0x64, 0x69, 0x63, 0x65, 0x73, 0x00, 0x00, 0x00, 0xf0, 0xf0, 0xff, 0xff, 
0x10, 0x00, 0x00, 0x00, 0x04, 0x00, 0x00, 0x00, 0x03, 0x00, 0x00, 0x00, 0x6f, 0x75, 0x74, 0x00, 0x14, 0x00, 0x00, 0x00, 0x61, 0x74, 0x65, 0x6e, 0x3a, 0x3a, 0x75, 0x6e, 0x73, 0x71, 0x75, 0x65, 
0x65, 0x7a, 0x65, 0x5f, 0x63, 0x6f, 0x70, 0x79, 0x00, 0x00, 0x00, 0x00, 0x20, 0xf1, 0xff, 0xff, 0x10, 0x00, 0x00, 0x00, 0x04, 0x00, 0x00, 0x00, 0x03, 0x00, 0x00, 0x00, 0x6f, 0x75, 0x74, 0x00, 
0x0a, 0x00, 0x00, 0x00, 0x61, 0x74, 0x65, 0x6e, 0x3a, 0x3a, 0x72, 0x65, 0x6c, 0x75, 0x00, 0x00, 0x44, 0xf1, 0xff, 0xff, 0x10, 0x00, 0x00, 0x00, 0x04, 0x00, 0x00, 0x00, 0x03, 0x00, 0x00, 0x00, 
0x6f, 0x75, 0x74, 0x00, 0x11, 0x00, 0x00, 0x00, 0x61, 0x74, 0x65, 0x6e, 0x3a, 0x3a, 0x63, 0x6f, 0x6e, 0x76, 0x6f, 0x6c, 0x75, 0x74, 0x69, 0x6f, 0x6e, 0x00, 0x00, 0x00, 0x01, 0x00, 0x00, 0x00, 
0x10, 0x00, 0x00, 0x00, 0x00, 0x00, 0x0a, 0x00, 0x10, 0x00, 0x04, 0x00, 0x08, 0x00, 0x0c, 0x00, 0x0a, 0x00, 0x00, 0x00, 0x1c, 0x03, 0x00, 0x00, 0x14, 0x03, 0x00, 0x00, 0x04, 0x00, 0x00, 0x00, 
0x0f, 0x00, 0x00, 0x00, 0xbc, 0x02, 0x00, 0x00, 0x90, 0x02, 0x00, 0x00, 0x60, 0x02, 0x00, 0x00, 0x1c, 0x02, 0x00, 0x00, 0xec, 0x01, 0x00, 0x00, 0xbc, 0x01, 0x00, 0x00, 0x88, 0x01, 0x00, 0x00, 
0x54, 0x01, 0x00, 0x00, 0x24, 0x01, 0x00, 0x00, 0xf4, 0x00, 0x00, 0x00, 0xc4, 0x00, 0x00, 0x00, 0x98, 0x00, 0x00, 0x00, 0x68, 0x00, 0x00, 0x00, 0x38, 0x00, 0x00, 0x00, 0x04, 0x00, 0x00, 0x00, 
0x24, 0xf2, 0xff, 0xff, 0x00, 0x00, 0x00, 0x01, 0x04, 0x00, 0x00, 0x00, 0xe0, 0xf1, 0xff, 0xff, 0x09, 0x00, 0x00, 0x00, 0x04, 0x00, 0x00, 0x00, 0x05, 0x00, 0x00, 0x00, 0x3e, 0x00, 0x00, 0x00, 
0x40, 0x00, 0x00, 0x00, 0x41, 0x00, 0x00, 0x00, 0x3f, 0x00, 0x00, 0x00, 0x3f, 0x00, 0x00, 0x00, 0x54, 0xf2, 0xff, 0xff, 0x00, 0x00, 0x00, 0x01, 0x04, 0x00, 0x00, 0x00, 0x10, 0xf2, 0xff, 0xff, 
0x08, 0x00, 0x00, 0x00, 0x04, 0x00, 0x00, 0x00, 0x04, 0x00, 0x00, 0x00, 0x39, 0x00, 0x00, 0x00, 0x3a, 0x00, 0x00, 0x00, 0x3e, 0x00, 0x00, 0x00, 0x3e, 0x00, 0x00, 0x00, 0x80, 0xf2, 0xff, 0xff, 
0x00, 0x00, 0x00, 0x01, 0x04, 0x00, 0x00, 0x00, 0x3c, 0xf2, 0xff, 0xff, 0x05, 0x00, 0x00, 0x00, 0x04, 0x00, 0x00, 0x00, 0x04, 0x00, 0x00, 0x00, 0x03, 0x00, 0x00, 0x00, 0x3d, 0x00, 0x00, 0x00, 
0x3a, 0x00, 0x00, 0x00, 0x3a, 0x00, 0x00, 0x00, 0xac, 0xf2, 0xff, 0xff, 0x00, 0x00, 0x00, 0x01, 0x04, 0x00, 0x00, 0x00, 0x68, 0xf2, 0xff, 0xff, 0x01, 0x00, 0x00, 0x00, 0x04, 0x00, 0x00, 0x00, 
0x03, 0x00, 0x00, 0x00, 0x38, 0x00, 0x00, 0x00, 0x39, 0x00, 0x00, 0x00, 0x39, 0x00, 0x00, 0x00, 0xd4, 0xf2, 0xff, 0xff, 0x00, 0x00, 0x00, 0x01, 0x04, 0x00, 0x00, 0x00, 0x90, 0xf2, 0xff, 0xff, 
0x08, 0x00, 0x00, 0x00, 0x04, 0x00, 0x00, 0x00, 0x04, 0x00, 0x00, 0x00, 0x31, 0x00, 0x00, 0x00, 0x34, 0x00, 0x00, 0x00, 0x38, 0x00, 0x00, 0x00, 0x38, 0x00, 0x00, 0x00, 0x00, 0xf3, 0xff, 0xff, 
0x00, 0x00, 0x00, 0x01, 0x04, 0x00, 0x00, 0x00, 0xbc, 0xf2, 0xff, 0xff, 0x05, 0x00, 0x00, 0x00, 0x04, 0x00, 0x00, 0x00, 0x04, 0x00, 0x00, 0x00, 0x02, 0x00, 0x00, 0x00, 0x37, 0x00, 0x00, 0x00, 
0x34, 0x00, 0x00, 0x00, 0x34, 0x00, 0x00, 0x00, 0x2c, 0xf3, 0xff, 0xff, 0x00, 0x00, 0x00, 0x01, 0x04, 0x00, 0x00, 0x00, 0xe8, 0xf2, 0xff, 0xff, 0x07, 0x00, 0x00, 0x00, 0x04, 0x00, 0x00, 0x00, 
0x04, 0x00, 0x00, 0x00, 0x32, 0x00, 0x00, 0x00, 0x33, 0x00, 0x00, 0x00, 0x31, 0x00, 0x00, 0x00, 0x31, 0x00, 0x00, 0x00, 0x58, 0xf3, 0xff, 0xff, 0x00, 0x00, 0x00, 0x01, 0x04, 0x00, 0x00, 0x00, 
0x14, 0xf3, 0xff, 0xff, 0x06, 0x00, 0x00, 0x00, 0x04, 0x00, 0x00, 0x00, 0x05, 0x00, 0x00, 0x00, 0x26, 0x00, 0x00, 0x00, 0x2f, 0x00, 0x00, 0x00, 0x30, 0x00, 0x00, 0x00, 0x2e, 0x00, 0x00, 0x00, 
0x2e, 0x00, 0x00, 0x00, 0x88, 0xf3, 0xff, 0xff, 0x00, 0x00, 0x00, 0x01, 0x04, 0x00, 0x00, 0x00, 0x44, 0xf3, 0xff, 0xff, 0x06, 0x00, 0x00, 0x00, 0x04, 0x00, 0x00, 0x00, 0x05, 0x00, 0x00, 0x00, 
0x26, 0x00, 0x00, 0x00, 0x2c, 0x00, 0x00, 0x00, 0x2d, 0x00, 0x00, 0x00, 0x2b, 0x00, 0x00, 0x00, 0x2b, 0x00, 0x00, 0x00, 0xb8, 0xf3, 0xff, 0xff, 0x00, 0x00, 0x00, 0x01, 0x04, 0x00, 0x00, 0x00, 
0x74, 0xf3, 0xff, 0xff, 0x05, 0x00, 0x00, 0x00, 0x04, 0x00, 0x00, 0x00, 0x04, 0x00, 0x00, 0x00, 0x23, 0x00, 0x00, 0x00, 0x2a, 0x00, 0x00, 0x00, 0x26, 0x00, 0x00, 0x00, 0x26, 0x00, 0x00, 0x00, 
0xe4, 0xf3, 0xff, 0xff, 0x00, 0x00, 0x00, 0x01, 0x04, 0x00, 0x00, 0x00, 0xa0, 0xf3, 0xff, 0xff, 0x04, 0x00, 0x00, 0x00, 0x04, 0x00, 0x00, 0x00, 0x04, 0x00, 0x00, 0x00, 0x13, 0x00, 0x00, 0x00, 
0x25, 0x00, 0x00, 0x00, 0x23, 0x00, 0x00, 0x00, 0x23, 0x00, 0x00, 0x00, 0x10, 0xf4, 0xff, 0xff, 0x00, 0x00, 0x00, 0x01, 0x04, 0x00, 0x00, 0x00, 0xcc, 0xf3, 0xff, 0xff, 0x03, 0x00, 0x00, 0x00, 
0x04, 0x00, 0x00, 0x00, 0x09, 0x00, 0x00, 0x00, 0x11, 0x00, 0x00, 0x00, 0x17, 0x00, 0x00, 0x00, 0x1a, 0x00, 0x00, 0x00, 0x1d, 0x00, 0x00, 0x00, 0x20, 0x00, 0x00, 0x00, 0x21, 0x00, 0x00, 0x00, 
0x13, 0x00, 0x00, 0x00, 0x14, 0x00, 0x00, 0x00, 0x22, 0x00, 0x00, 0x00, 0x50, 0xf4, 0xff, 0xff, 0x00, 0x00, 0x00, 0x01, 0x04, 0x00, 0x00, 0x00, 0x0c, 0xf4, 0xff, 0xff, 0x02, 0x00, 0x00, 0x00, 
0x04, 0x00, 0x00, 0x00, 0x04, 0x00, 0x00, 0x00, 0x10, 0x00, 0x00, 0x00, 0x12, 0x00, 0x00, 0x00, 0x11, 0x00, 0x00, 0x00, 0x11, 0x00, 0x00, 0x00, 0x7c, 0xf4, 0xff, 0xff, 0x00, 0x00, 0x00, 0x01, 
0x04, 0x00, 0x00, 0x00, 0x38, 0xf4, 0xff, 0xff, 0x01, 0x00, 0x00, 0x00, 0x04, 0x00, 0x00, 0x00, 0x03, 0x00, 0x00, 0x00, 0x05, 0x00, 0x00, 0x00, 0x10, 0x00, 0x00, 0x00, 0x10, 0x00, 0x00, 0x00, 
0xa4, 0xf4, 0xff, 0xff, 0x00, 0x00, 0x00, 0x01, 0x0c, 0x00, 0x00, 0x00, 0x08, 0x00, 0x08, 0x00, 0x00, 0x00, 0x04, 0x00, 0x08, 0x00, 0x00, 0x00, 0x04, 0x00, 0x00, 0x00, 0x0b, 0x00, 0x00, 0x00, 
0x04, 0x00, 0x00, 0x00, 0x00, 0x00, 0x00, 0x00, 0x01, 0x00, 0x00, 0x00, 0x07, 0x00, 0x00, 0x00, 0x09, 0x00, 0x00, 0x00, 0x0b, 0x00, 0x00, 0x00, 0x0c, 0x00, 0x00, 0x00, 0x0e, 0x00, 0x00, 0x00, 
0x0f, 0x00, 0x00, 0x00, 0x05, 0x00, 0x00, 0x00, 0x05, 0x00, 0x00, 0x00, 0x00, 0x00, 0x00, 0x00, 0x00, 0x00, 0x00, 0x00, 0x01, 0x00, 0x00, 0x00, 0x3f, 0x00, 0x00, 0x00, 0x01, 0x00, 0x00, 0x00, 
0x04, 0x00, 0x00, 0x00, 0x42, 0x00, 0x00, 0x00, 0xfc, 0x0a, 0x00, 0x00, 0xc0, 0x0a, 0x00, 0x00, 0x88, 0x0a, 0x00, 0x00, 0x50, 0x0a, 0x00, 0x00, 0xf0, 0x09, 0x00, 0x00, 0x8c, 0x09, 0x00, 0x00, 
0x68, 0x09, 0x00, 0x00, 0x44, 0x09, 0x00, 0x00, 0x2c, 0x09, 0x00, 0x00, 0x04, 0x09, 0x00, 0x00, 0xe8, 0x08, 0x00, 0x00, 0xc4, 0x08, 0x00, 0x00, 0xb0, 0x08, 0x00, 0x00, 0x9c, 0x08, 0x00, 0x00, 
0x78, 0x08, 0x00, 0x00, 0x5c, 0x08, 0x00, 0x00, 0x18, 0x08, 0x00, 0x00, 0xcc, 0x07, 0x00, 0x00, 0xb0, 0x07, 0x00, 0x00, 0x68, 0x07, 0x00, 0x00, 0x08, 0x07, 0x00, 0x00, 0xec, 0x06, 0x00, 0x00, 
0xd0, 0x06, 0x00, 0x00, 0xa4, 0x06, 0x00, 0x00, 0x88, 0x06, 0x00, 0x00, 0x6c, 0x06, 0x00, 0x00, 0x40, 0x06, 0x00, 0x00, 0x2c, 0x06, 0x00, 0x00, 0x18, 0x06, 0x00, 0x00, 0xec, 0x05, 0x00, 0x00, 
0xd0, 0x05, 0x00, 0x00, 0xb4, 0x05, 0x00, 0x00, 0x88, 0x05, 0x00, 0x00, 0x74, 0x05, 0x00, 0x00, 0x50, 0x05, 0x00, 0x00, 0x08, 0x05, 0x00, 0x00, 0xe0, 0x04, 0x00, 0x00, 0xbc, 0x04, 0x00, 0x00, 
0x78, 0x04, 0x00, 0x00, 0x64, 0x04, 0x00, 0x00, 0x48, 0x04, 0x00, 0x00, 0x2c, 0x04, 0x00, 0x00, 0xf8, 0x03, 0x00, 0x00, 0xb4, 0x03, 0x00, 0x00, 0x98, 0x03, 0x00, 0x00, 0x84, 0x03, 0x00, 0x00, 
0x40, 0x03, 0x00, 0x00, 0x24, 0x03, 0x00, 0x00, 0x08, 0x03, 0x00, 0x00, 0xc8, 0x02, 0x00, 0x00, 0xa4, 0x02, 0x00, 0x00, 0x84, 0x02, 0x00, 0x00, 0x40, 0x02, 0x00, 0x00, 0x24, 0x02, 0x00, 0x00, 
0x10, 0x02, 0x00, 0x00, 0xe4, 0x01, 0x00, 0x00, 0xa0, 0x01, 0x00, 0x00, 0x5c, 0x01, 0x00, 0x00, 0x18, 0x01, 0x00, 0x00, 0xfc, 0x00, 0x00, 0x00, 0xe8, 0x00, 0x00, 0x00, 0xbc, 0x00, 0x00, 0x00, 
0x78, 0x00, 0x00, 0x00, 0x34, 0x00, 0x00, 0x00, 0x18, 0x00, 0x00, 0x00, 0x04, 0x00, 0x00, 0x00, 0x14, 0xf6, 0xff, 0xff, 0x00, 0x00, 0x00, 0x03, 0x04, 0x00, 0x00, 0x00, 0xbc, 0xf7, 0xff, 0xff, 
0x24, 0xf6, 0xff, 0xff, 0x00, 0x00, 0x00, 0x02, 0x04, 0x00, 0x00, 0x00, 0x96, 0xf7, 0xff, 0xff, 0x01, 0x00, 0x00, 0x00, 0x00, 0x00, 0x00, 0x00, 0x3c, 0xf6, 0xff, 0xff, 0x00, 0x00, 0x00, 0x05, 
0x04, 0x00, 0x00, 0x00, 0x8e, 0xf7, 0xff, 0xff, 0x00, 0x00, 0x06, 0x01, 0x20, 0x00, 0x00, 0x00, 0x14, 0x00, 0x00, 0x00, 0x04, 0x00, 0x00, 0x00, 0x0c, 0xf6, 0xff, 0xff, 0x01, 0x00, 0x00, 0x00, 
0x00, 0x82, 0x00, 0x00, 0x02, 0x00, 0x00, 0x00, 0x00, 0x01, 0x00, 0x00, 0x02, 0x00, 0x00, 0x00, 0x01, 0x00, 0x00, 0x00, 0x02, 0x00, 0x00, 0x00, 0x7c, 0xf6, 0xff, 0xff, 0x00, 0x00, 0x00, 0x05, 
0x04, 0x00, 0x00, 0x00, 0xce, 0xf7, 0xff, 0xff, 0x00, 0x00, 0x06, 0x01, 0x20, 0x00, 0x00, 0x00, 0x14, 0x00, 0x00, 0x00, 0x04, 0x00, 0x00, 0x00, 0x4c, 0xf6, 0xff, 0xff, 0x01, 0x00, 0x00, 0x00, 
0x00, 0x83, 0x00, 0x00, 0x02, 0x00, 0x00, 0x00, 0x00, 0x01, 0x00, 0x00, 0x02, 0x00, 0x00, 0x00, 0x01, 0x00, 0x00, 0x00, 0x02, 0x00, 0x00, 0x00, 0xbc, 0xf6, 0xff, 0xff, 0x00, 0x00, 0x00, 0x07, 
0x04, 0x00, 0x00, 0x00, 0x86, 0xf7, 0xff, 0xff, 0x04, 0x00, 0x00, 0x00, 0x02, 0x00, 0x00, 0x00, 0x3b, 0x00, 0x00, 0x00, 0x00, 0x00, 0x00, 0x00, 0x3c, 0x00, 0x00, 0x00, 0x00, 0x00, 0x00, 0x00, 
0xe4, 0xf6, 0xff, 0xff, 0x00, 0x00, 0x00, 0x02, 0x04, 0x00, 0x00, 0x00, 0x8c, 0xf8, 0xff, 0xff, 0xf4, 0xf6, 0xff, 0xff, 0x00, 0x00, 0x00, 0x02, 0x04, 0x00, 0x00, 0x00, 0x66, 0xf8, 0xff, 0xff, 
0x01, 0x00, 0x00, 0x00, 0x00, 0x00, 0x00, 0x00, 0x0c, 0xf7, 0xff, 0xff, 0x00, 0x00, 0x00, 0x05, 0x04, 0x00, 0x00, 0x00, 0x5e, 0xf8, 0xff, 0xff, 0x00, 0x00, 0x06, 0x01, 0x20, 0x00, 0x00, 0x00, 
0x14, 0x00, 0x00, 0x00, 0x04, 0x00, 0x00, 0x00, 0xdc, 0xf6, 0xff, 0xff, 0x01, 0x00, 0x00, 0x00, 0x00, 0x82, 0x00, 0x00, 0x02, 0x00, 0x00, 0x00, 0x00, 0x01, 0x00, 0x00, 0x02, 0x00, 0x00, 0x00, 
0x20, 0x00, 0x00, 0x00, 0x02, 0x00, 0x00, 0x00, 0x4c, 0xf7, 0xff, 0xff, 0x00, 0x00, 0x00, 0x05, 0x04, 0x00, 0x00, 0x00, 0x9e, 0xf8, 0xff, 0xff, 0x00, 0x00, 0x06, 0x01, 0x20, 0x00, 0x00, 0x00, 
0x14, 0x00, 0x00, 0x00, 0x04, 0x00, 0x00, 0x00, 0x1c, 0xf7, 0xff, 0xff, 0x01, 0x00, 0x00, 0x00, 0x00, 0x62, 0x00, 0x00, 0x02, 0x00, 0x00, 0x00, 0x00, 0x01, 0x00, 0x00, 0x02, 0x00, 0x00, 0x00, 
0x01, 0x00, 0x00, 0x00, 0x20, 0x00, 0x00, 0x00, 0x8c, 0xf7, 0xff, 0xff, 0x00, 0x00, 0x00, 0x05, 0x04, 0x00, 0x00, 0x00, 0xde, 0xf8, 0xff, 0xff, 0x00, 0x00, 0x06, 0x01, 0x20, 0x00, 0x00, 0x00, 
0x14, 0x00, 0x00, 0x00, 0x04, 0x00, 0x00, 0x00, 0x5c, 0xf7, 0xff, 0xff, 0x01, 0x00, 0x00, 0x00, 0x00, 0x82, 0x00, 0x00, 0x02, 0x00, 0x00, 0x00, 0x00, 0x01, 0x00, 0x00, 0x02, 0x00, 0x00, 0x00, 
0x01, 0x00, 0x00, 0x00, 0x20, 0x00, 0x00, 0x00, 0xcc, 0xf7, 0xff, 0xff, 0x00, 0x00, 0x00, 0x07, 0x04, 0x00, 0x00, 0x00, 0x96, 0xf8, 0xff, 0xff, 0x04, 0x00, 0x00, 0x00, 0x02, 0x00, 0x00, 0x00, 
0x35, 0x00, 0x00, 0x00, 0x00, 0x00, 0x00, 0x00, 0x36, 0x00, 0x00, 0x00, 0x00, 0x00, 0x00, 0x00, 0xf4, 0xf7, 0xff, 0xff, 0x00, 0x00, 0x00, 0x02, 0x04, 0x00, 0x00, 0x00, 0x9c, 0xf9, 0xff, 0xff, 
0x04, 0xf8, 0xff, 0xff, 0x00, 0x00, 0x00, 0x02, 0x04, 0x00, 0x00, 0x00, 0x76, 0xf9, 0xff, 0xff, 0x01, 0x00, 0x00, 0x00, 0x00, 0x00, 0x00, 0x00, 0x1c, 0xf8, 0xff, 0xff, 0x00, 0x00, 0x00, 0x05, 
0x04, 0x00, 0x00, 0x00, 0x6e, 0xf9, 0xff, 0xff, 0x00, 0x00, 0x06, 0x01, 0x20, 0x00, 0x00, 0x00, 0x14, 0x00, 0x00, 0x00, 0x04, 0x00, 0x00, 0x00, 0xec, 0xf7, 0xff, 0xff, 0x01, 0x00, 0x00, 0x00, 
0x00, 0x62, 0x00, 0x00, 0x02, 0x00, 0x00, 0x00, 0x00, 0x01, 0x00, 0x00, 0x02, 0x00, 0x00, 0x00, 0x40, 0x00, 0x00, 0x00, 0x20, 0x00, 0x00, 0x00, 0x5c, 0xf8, 0xff, 0xff, 0x00, 0x00, 0x00, 0x02, 
0x04, 0x00, 0x00, 0x00, 0xde, 0xfd, 0xff, 0xff, 0x01, 0x00, 0x00, 0x00, 0x00, 0x00, 0x00, 0x00, 0x00, 0x00, 0x00, 0x00, 0x78, 0xf8, 0xff, 0xff, 0x00, 0x00, 0x00, 0x0a, 0x04, 0x00, 0x00, 0x00, 
0x42, 0xf9, 0xff, 0xff, 0x04, 0x00, 0x00, 0x00, 0x02, 0x00, 0x00, 0x00, 0x2b, 0x00, 0x00, 0x00, 0x2e, 0x00, 0x00, 0x00, 0x98, 0xf8, 0xff, 0xff, 0x00, 0x00, 0x00, 0x05, 0x04, 0x00, 0x00, 0x00, 
0xea, 0xf9, 0xff, 0xff, 0x00, 0x00, 0x06, 0x01, 0x1c, 0x00, 0x00, 0x00, 0x10, 0x00, 0x00, 0x00, 0x04, 0x00, 0x00, 0x00, 0x76, 0xf9, 0xff, 0xff, 0x01, 0x00, 0x00, 0x00, 0x02, 0x00, 0x00, 0x00, 
0x00, 0x01, 0x00, 0x00, 0x02, 0x00, 0x00, 0x00, 0x01, 0x00, 0x00, 0x00, 0x40, 0x00, 0x00, 0x00, 0xd4, 0xf8, 0xff, 0xff, 0x00, 0x00, 0x00, 0x02, 0x04, 0x00, 0x00, 0x00, 0x46, 0xfa, 0xff, 0xff, 
0x01, 0x00, 0x00, 0x00, 0x00, 0x00, 0x00, 0x00, 0xec, 0xf8, 0xff, 0xff, 0x00, 0x00, 0x00, 0x02, 0x04, 0x00, 0x00, 0x00, 0x5e, 0xfa, 0xff, 0xff, 0x02, 0x00, 0x00, 0x00, 0x00, 0x00, 0x00, 0x00, 
0x04, 0xf9, 0xff, 0xff, 0x00, 0x00, 0x00, 0x05, 0x04, 0x00, 0x00, 0x00, 0x56, 0xfa, 0xff, 0xff, 0x00, 0x00, 0x06, 0x01, 0x20, 0x00, 0x00, 0x00, 0x14, 0x00, 0x00, 0x00, 0x04, 0x00, 0x00, 0x00, 
0xd4, 0xf8, 0xff, 0xff, 0x01, 0x00, 0x00, 0x00, 0x00, 0x82, 0x00, 0x00, 0x02, 0x00, 0x00, 0x00, 0x00, 0x01, 0x00, 0x00, 0x02, 0x00, 0x00, 0x00, 0x01, 0x00, 0x00, 0x00, 0x20, 0x00, 0x00, 0x00, 
0x44, 0xf9, 0xff, 0xff, 0x00, 0x00, 0x00, 0x02, 0x04, 0x00, 0x00, 0x00, 0xec, 0xfa, 0xff, 0xff, 0x54, 0xf9, 0xff, 0xff, 0x00, 0x00, 0x00, 0x02, 0x04, 0x00, 0x00, 0x00, 0xc6, 0xfa, 0xff, 0xff, 
0x02, 0x00, 0x00, 0x00, 0x00, 0x00, 0x00, 0x00, 0x6c, 0xf9, 0xff, 0xff, 0x00, 0x00, 0x00, 0x05, 0x04, 0x00, 0x00, 0x00, 0xbe, 0xfa, 0xff, 0xff, 0x00, 0x00, 0x06, 0x01, 0x20, 0x00, 0x00, 0x00, 
0x14, 0x00, 0x00, 0x00, 0x04, 0x00, 0x00, 0x00, 0x3c, 0xf9, 0xff, 0xff, 0x01, 0x00, 0x00, 0x00, 0x00, 0x62, 0x00, 0x00, 0x02, 0x00, 0x00, 0x00, 0x00, 0x01, 0x00, 0x00, 0x02, 0x00, 0x00, 0x00, 
0x01, 0x00, 0x00, 0x00, 0x20, 0x00, 0x00, 0x00, 0xac, 0xf9, 0xff, 0xff, 0x00, 0x00, 0x00, 0x07, 0x04, 0x00, 0x00, 0x00, 0x76, 0xfa, 0xff, 0xff, 0x04, 0x00, 0x00, 0x00, 0x03, 0x00, 0x00, 0x00, 
0x27, 0x00, 0x00, 0x00, 0x00, 0x00, 0x00, 0x00, 0x28, 0x00, 0x00, 0x00, 0x00, 0x00, 0x00, 0x00, 0x29, 0x00, 0x00, 0x00, 0x00, 0x00, 0x00, 0x00, 0xdc, 0xf9, 0xff, 0xff, 0x00, 0x00, 0x00, 0x02, 
0x04, 0x00, 0x00, 0x00, 0x4e, 0xfb, 0xff, 0xff, 0x01, 0x00, 0x00, 0x00, 0x00, 0x00, 0x00, 0x00, 0xf4, 0xf9, 0xff, 0xff, 0x00, 0x00, 0x00, 0x02, 0x04, 0x00, 0x00, 0x00, 0x66, 0xfb, 0xff, 0xff, 
0x02, 0x00, 0x00, 0x00, 0x00, 0x00, 0x00, 0x00, 0x0c, 0xfa, 0xff, 0xff, 0x00, 0x00, 0x00, 0x02, 0x04, 0x00, 0x00, 0x00, 0xb4, 0xfb, 0xff, 0xff, 0x1c, 0xfa, 0xff, 0xff, 0x00, 0x00, 0x00, 0x05, 
0x04, 0x00, 0x00, 0x00, 0x6e, 0xfb, 0xff, 0xff, 0x00, 0x00, 0x06, 0x01, 0x1c, 0x00, 0x00, 0x00, 0x10, 0x00, 0x00, 0x00, 0x04, 0x00, 0x00, 0x00, 0xfa, 0xfa, 0xff, 0xff, 0x01, 0x00, 0x00, 0x00, 
0x03, 0x00, 0x00, 0x00, 0x00, 0x01, 0x02, 0x00, 0x03, 0x00, 0x00, 0x00, 0x01, 0x00, 0x00, 0x00, 0x20, 0x00, 0x00, 0x00, 0x20, 0x00, 0x00, 0x00, 0x5c, 0xfa, 0xff, 0xff, 0x00, 0x00, 0x00, 0x07, 
0x04, 0x00, 0x00, 0x00, 0x26, 0xfb, 0xff, 0xff, 0x04, 0x00, 0x00, 0x00, 0x01, 0x00, 0x00, 0x00, 0x24, 0x00, 0x00, 0x00, 0x00, 0x00, 0x00, 0x00, 0x78, 0xfb, 0xff, 0xff, 0x00, 0x00, 0x00, 0x02, 
0x0c, 0x00, 0x00, 0x00, 0x00, 0x00, 0x06, 0x00, 0x10, 0x00, 0x04, 0x00, 0x06, 0x00, 0x00, 0x00, 0xfe, 0xff, 0xff, 0xff, 0xff, 0xff, 0xff, 0xff, 0x00, 0x00, 0x00, 0x00, 0xa0, 0xfa, 0xff, 0xff, 
0x00, 0x00, 0x00, 0x05, 0x04, 0x00, 0x00, 0x00, 0xf2, 0xfb, 0xff, 0xff, 0x00, 0x00, 0x06, 0x01, 0x20, 0x00, 0x00, 0x00, 0x14, 0x00, 0x00, 0x00, 0x04, 0x00, 0x00, 0x00, 0x70, 0xfa, 0xff, 0xff, 
0x01, 0x00, 0x00, 0x00, 0x00, 0x62, 0x00, 0x00, 0x03, 0x00, 0x00, 0x00, 0x00, 0x01, 0x02, 0x00, 0x03, 0x00, 0x00, 0x00, 0x01, 0x00, 0x00, 0x00, 0x20, 0x00, 0x00, 0x00, 0x20, 0x00, 0x00, 0x00, 
0xe4, 0xfa, 0xff, 0xff, 0x00, 0x00, 0x00, 0x0a, 0x04, 0x00, 0x00, 0x00, 0xae, 0xfb, 0xff, 0xff, 0x04, 0x00, 0x00, 0x00, 0x02, 0x00, 0x00, 0x00, 0x13, 0x00, 0x00, 0x00, 0x14, 0x00, 0x00, 0x00, 
0x04, 0xfb, 0xff, 0xff, 0x00, 0x00, 0x00, 0x03, 0x04, 0x00, 0x00, 0x00, 0xac, 0xfc, 0xff, 0xff, 0x14, 0xfb, 0xff, 0xff, 0x00, 0x00, 0x00, 0x07, 0x04, 0x00, 0x00, 0x00, 0xde, 0xfb, 0xff, 0xff, 
0x04, 0x00, 0x00, 0x00, 0x02, 0x00, 0x00, 0x00, 0x1e, 0x00, 0x00, 0x00, 0x00, 0x00, 0x00, 0x00, 0x1f, 0x00, 0x00, 0x00, 0x00, 0x00, 0x00, 0x00, 0x3c, 0xfb, 0xff, 0xff, 0x00, 0x00, 0x00, 0x02, 
0x04, 0x00, 0x00, 0x00, 0xae, 0xfc, 0xff, 0xff, 0x01, 0x00, 0x00, 0x00, 0x00, 0x00, 0x00, 0x00, 0x54, 0xfb, 0xff, 0xff, 0x00, 0x00, 0x00, 0x02, 0x04, 0x00, 0x00, 0x00, 0xc6, 0xfc, 0xff, 0xff, 
0x01, 0x00, 0x00, 0x00, 0x00, 0x00, 0x00, 0x00, 0x6c, 0xfb, 0xff, 0xff, 0x00, 0x00, 0x00, 0x07, 0x04, 0x00, 0x00, 0x00, 0x36, 0xfc, 0xff, 0xff, 0x04, 0x00, 0x00, 0x00, 0x02, 0x00, 0x00, 0x00, 
0x1b, 0x00, 0x00, 0x00, 0x00, 0x00, 0x00, 0x00, 0x1c, 0x00, 0x00, 0x00, 0x00, 0x00, 0x00, 0x00, 0x94, 0xfb, 0xff, 0xff, 0x00, 0x00, 0x00, 0x02, 0x04, 0x00, 0x00, 0x00, 0x3c, 0xfd, 0xff, 0xff, 
0xa4, 0xfb, 0xff, 0xff, 0x00, 0x00, 0x00, 0x02, 0x04, 0x00, 0x00, 0x00, 0x4c, 0xfd, 0xff, 0xff, 0xb4, 0xfb, 0xff, 0xff, 0x00, 0x00, 0x00, 0x07, 0x04, 0x00, 0x00, 0x00, 0x7e, 0xfc, 0xff, 0xff, 
0x04, 0x00, 0x00, 0x00, 0x02, 0x00, 0x00, 0x00, 0x18, 0x00, 0x00, 0x00, 0x00, 0x00, 0x00, 0x00, 0x19, 0x00, 0x00, 0x00, 0x00, 0x00, 0x00, 0x00, 0xdc, 0xfb, 0xff, 0xff, 0x00, 0x00, 0x00, 0x02, 
0x04, 0x00, 0x00, 0x00, 0x4e, 0xfd, 0xff, 0xff, 0x03, 0x00, 0x00, 0x00, 0x00, 0x00, 0x00, 0x00, 0xf4, 0xfb, 0xff, 0xff, 0x00, 0x00, 0x00, 0x02, 0x04, 0x00, 0x00, 0x00, 0x66, 0xfd, 0xff, 0xff, 
0x01, 0x00, 0x00, 0x00, 0x00, 0x00, 0x00, 0x00, 0x0c, 0xfc, 0xff, 0xff, 0x00, 0x00, 0x00, 0x07, 0x04, 0x00, 0x00, 0x00, 0xd6, 0xfc, 0xff, 0xff, 0x04, 0x00, 0x00, 0x00, 0x02, 0x00, 0x00, 0x00, 
0x15, 0x00, 0x00, 0x00, 0x00, 0x00, 0x00, 0x00, 0x16, 0x00, 0x00, 0x00, 0x00, 0x00, 0x00, 0x00, 0x34, 0xfc, 0xff, 0xff, 0x00, 0x00, 0x00, 0x02, 0x04, 0x00, 0x00, 0x00, 0xa6, 0xfd, 0xff, 0xff, 
0x03, 0x00, 0x00, 0x00, 0x00, 0x00, 0x00, 0x00, 0x4c, 0xfc, 0xff, 0xff, 0x00, 0x00, 0x00, 0x02, 0x04, 0x00, 0x00, 0x00, 0xbe, 0xfd, 0xff, 0xff, 0x01, 0x00, 0x00, 0x00, 0x00, 0x00, 0x00, 0x00, 
0x60, 0xfd, 0xff, 0xff, 0x00, 0x00, 0x00, 0x05, 0x18, 0x00, 0x00, 0x00, 0x00, 0x00, 0x12, 0x00, 0x14, 0x00, 0x07, 0x00, 0x00, 0x00, 0x08, 0x00, 0x0c, 0x00, 0x00, 0x00, 0x00, 0x00, 0x10, 0x00, 
0x12, 0x00, 0x00, 0x00, 0x00, 0x00, 0x00, 0x04, 0x20, 0x00, 0x00, 0x00, 0x14, 0x00, 0x00, 0x00, 0x04, 0x00, 0x00, 0x00, 0x48, 0xfc, 0xff, 0xff, 0x01, 0x00, 0x00, 0x00, 0x00, 0x62, 0x00, 0x00, 
0x04, 0x00, 0x00, 0x00, 0x00, 0x01, 0x02, 0x03, 0x04, 0x00, 0x00, 0x00, 0x01, 0x00, 0x00, 0x00, 0x20, 0x00, 0x00, 0x00, 0x01, 0x00, 0x00, 0x00, 0x20, 0x00, 0x00, 0x00, 0xc0, 0xfc, 0xff, 0xff, 
0x00, 0x00, 0x00, 0x05, 0x04, 0x00, 0x00, 0x00, 0x12, 0xfe, 0xff, 0xff, 0x00, 0x00, 0x06, 0x01, 0x1c, 0x00, 0x00, 0x00, 0x10, 0x00, 0x00, 0x00, 0x04, 0x00, 0x00, 0x00, 0x9e, 0xfd, 0xff, 0xff, 
0x01, 0x00, 0x00, 0x00, 0x04, 0x00, 0x00, 0x00, 0x00, 0x01, 0x02, 0x03, 0x04, 0x00, 0x00, 0x00, 0x01, 0x00, 0x00, 0x00, 0x20, 0x00, 0x00, 0x00, 0x01, 0x00, 0x00, 0x00, 0x20, 0x00, 0x00, 0x00, 
0x04, 0xfd, 0xff, 0xff, 0x00, 0x00, 0x00, 0x02, 0x04, 0x00, 0x00, 0x00, 0x76, 0xfe, 0xff, 0xff, 0xfe, 0xff, 0xff, 0xff, 0xff, 0xff, 0xff, 0xff, 0x1c, 0xfd, 0xff, 0xff, 0x00, 0x00, 0x00, 0x05, 
0x04, 0x00, 0x00, 0x00, 0x6e, 0xfe, 0xff, 0xff, 0x00, 0x00, 0x06, 0x01, 0x20, 0x00, 0x00, 0x00, 0x14, 0x00, 0x00, 0x00, 0x04, 0x00, 0x00, 0x00, 0xec, 0xfc, 0xff, 0xff, 0x01, 0x00, 0x00, 0x00, 
0x00, 0x31, 0x00, 0x00, 0x04, 0x00, 0x00, 0x00, 0x00, 0x01, 0x02, 0x03, 0x04, 0x00, 0x00, 0x00, 0x01, 0x00, 0x00, 0x00, 0x20, 0x00, 0x00, 0x00, 0x01, 0x00, 0x00, 0x00, 0x62, 0x00, 0x00, 0x00, 
0x64, 0xfd, 0xff, 0xff, 0x00, 0x00, 0x00, 0x05, 0x04, 0x00, 0x00, 0x00, 0xb6, 0xfe, 0xff, 0xff, 0x00, 0x00, 0x06, 0x01, 0x1c, 0x00, 0x00, 0x00, 0x10, 0x00, 0x00, 0x00, 0x04, 0x00, 0x00, 0x00, 
0x42, 0xfe, 0xff, 0xff, 0x01, 0x00, 0x00, 0x00, 0x03, 0x00, 0x00, 0x00, 0x00, 0x01, 0x02, 0x00, 0x03, 0x00, 0x00, 0x00, 0x01, 0x00, 0x00, 0x00, 0x20, 0x00, 0x00, 0x00, 0x62, 0x00, 0x00, 0x00, 
0xa4, 0xfd, 0xff, 0xff, 0x00, 0x00, 0x00, 0x02, 0x04, 0x00, 0x00, 0x00, 0x16, 0xff, 0xff, 0xff, 0x01, 0x00, 0x00, 0x00, 0x00, 0x00, 0x00, 0x00, 0xbc, 0xfd, 0xff, 0xff, 0x00, 0x00, 0x00, 0x07, 
0x04, 0x00, 0x00, 0x00, 0x86, 0xfe, 0xff, 0xff, 0x04, 0x00, 0x00, 0x00, 0x01, 0x00, 0x00, 0x00, 0x0d, 0x00, 0x00, 0x00, 0x00, 0x00, 0x00, 0x00, 0xdc, 0xfd, 0xff, 0xff, 0x00, 0x00, 0x00, 0x02, 
0x04, 0x00, 0x00, 0x00, 0x84, 0xff, 0xff, 0xff, 0xec, 0xfd, 0xff, 0xff, 0x00, 0x00, 0x00, 0x03, 0x04, 0x00, 0x00, 0x00, 0x94, 0xff, 0xff, 0xff, 0xfc, 0xfd, 0xff, 0xff, 0x00, 0x00, 0x00, 0x07, 
0x04, 0x00, 0x00, 0x00, 0xc6, 0xfe, 0xff, 0xff, 0x04, 0x00, 0x00, 0x00, 0x01, 0x00, 0x00, 0x00, 0x0a, 0x00, 0x00, 0x00, 0x00, 0x00, 0x00, 0x00, 0x1c, 0xfe, 0xff, 0xff, 0x00, 0x00, 0x00, 0x02, 
0x04, 0x00, 0x00, 0x00, 0x8e, 0xff, 0xff, 0xff, 0x01, 0x00, 0x00, 0x00, 0x00, 0x00, 0x00, 0x00, 0x34, 0xfe, 0xff, 0xff, 0x00, 0x00, 0x00, 0x07, 0x04, 0x00, 0x00, 0x00, 0xfe, 0xfe, 0xff, 0xff, 
0x04, 0x00, 0x00, 0x00, 0x01, 0x00, 0x00, 0x00, 0x08, 0x00, 0x00, 0x00, 0x00, 0x00, 0x00, 0x00, 0x00, 0x00, 0x00, 0x00, 0x58, 0xfe, 0xff, 0xff, 0x00, 0x00, 0x00, 0x02, 0x08, 0x00, 0x00, 0x00, 
0x04, 0x00, 0x04, 0x00, 0x04, 0x00, 0x00, 0x00, 0x6c, 0xfe, 0xff, 0xff, 0x00, 0x00, 0x00, 0x07, 0x04, 0x00, 0x00, 0x00, 0x36, 0xff, 0xff, 0xff, 0x04, 0x00, 0x00, 0x00, 0x01, 0x00, 0x00, 0x00, 
0x06, 0x00, 0x00, 0x00, 0x00, 0x00, 0x00, 0x00, 0x88, 0xff, 0xff, 0xff, 0x00, 0x00, 0x00, 0x02, 0x0c, 0x00, 0x00, 0x00, 0x00, 0x00, 0x06, 0x00, 0x0c, 0x00, 0x04, 0x00, 0x06, 0x00, 0x00, 0x00, 
0x01, 0x00, 0x00, 0x00, 0x00, 0x00, 0x00, 0x00, 0xa8, 0xff, 0xff, 0xff, 0x00, 0x00, 0x00, 0x05, 0x18, 0x00, 0x00, 0x00, 0x00, 0x00, 0x12, 0x00, 0x14, 0x00, 0x06, 0x00, 0x00, 0x00, 0x08, 0x00, 
0x0c, 0x00, 0x07, 0x00, 0x00, 0x00, 0x10, 0x00, 0x12, 0x00, 0x00, 0x00, 0x00, 0x00, 0x06, 0x01, 0x20, 0x00, 0x00, 0x00, 0x14, 0x00, 0x00, 0x00, 0x04, 0x00, 0x00, 0x00, 0x90, 0xfe, 0xff, 0xff, 
0x01, 0x00, 0x00, 0x00, 0x00, 0x31, 0x00, 0x00, 0x03, 0x00, 0x00, 0x00, 0x00, 0x01, 0x02, 0x00, 0x03, 0x00, 0x00, 0x00, 0x01, 0x00, 0x00, 0x00, 0x20, 0x00, 0x00, 0x00, 0x62, 0x00, 0x00, 0x00, 
0x08, 0x00, 0x0e, 0x00, 0x07, 0x00, 0x08, 0x00, 0x08, 0x00, 0x00, 0x00, 0x00, 0x00, 0x00, 0x05, 0x18, 0x00, 0x00, 0x00, 0x00, 0x00, 0x12, 0x00, 0x16, 0x00, 0x07, 0x00, 0x00, 0x00, 0x08, 0x00, 
0x0c, 0x00, 0x00, 0x00, 0x00, 0x00, 0x10, 0x00, 0x12, 0x00, 0x00, 0x00, 0x00, 0x00, 0x00, 0x06, 0x24, 0x00, 0x00, 0x00, 0x18, 0x00, 0x00, 0x00, 0x0c, 0x00, 0x00, 0x00, 0x00, 0x00, 0x06, 0x00, 
0x08, 0x00, 0x04, 0x00, 0x06, 0x00, 0x00, 0x00, 0x01, 0x00, 0x00, 0x00, 0x03, 0x00, 0x00, 0x00, 0x00, 0x01, 0x02, 0x00, 0x03, 0x00, 0x00, 0x00, 0x01, 0x00, 0x00, 0x00, 0x01, 0x00, 0x00, 0x00, 
0x64, 0x00, 0x00, 0x00, 0x68, 0xff, 0xff, 0xff, 0x00, 0x00, 0x00, 0x05, 0x04, 0x00, 0x00, 0x00, 0x60, 0xff, 0xff, 0xff, 0x00, 0x00, 0x06, 0x01, 0x14, 0x00, 0x00, 0x00, 0x08, 0x00, 0x00, 0x00, 
0x04, 0x00, 0x00, 0x00, 0x02, 0x00, 0x00, 0x00, 0x00, 0x01, 0x00, 0x00, 0x02, 0x00, 0x00, 0x00, 0x02, 0x00, 0x00, 0x00, 0x20, 0x00, 0x00, 0x00, 0x9c, 0xff, 0xff, 0xff, 0x00, 0x00, 0x00, 0x05, 
0x04, 0x00, 0x00, 0x00, 0x94, 0xff, 0xff, 0xff, 0x00, 0x00, 0x06, 0x01, 0x14, 0x00, 0x00, 0x00, 0x08, 0x00, 0x00, 0x00, 0x03, 0x00, 0x00, 0x00, 0x02, 0x00, 0x00, 0x00, 0x00, 0x01, 0x00, 0x00, 
0x02, 0x00, 0x00, 0x00, 0x20, 0x00, 0x00, 0x00, 0x40, 0x00, 0x00, 0x00, 0xd0, 0xff, 0xff, 0xff, 0x00, 0x00, 0x00, 0x05, 0x04, 0x00, 0x00, 0x00, 0xc8, 0xff, 0xff, 0xff, 0x00, 0x00, 0x06, 0x01, 
0x14, 0x00, 0x00, 0x00, 0x08, 0x00, 0x00, 0x00, 0x02, 0x00, 0x00, 0x00, 0x01, 0x00, 0x00, 0x00, 0x00, 0x00, 0x00, 0x00, 0x01, 0x00, 0x00, 0x00, 0x20, 0x00, 0x00, 0x00, 0x08, 0x00, 0x0c, 0x00, 
0x07, 0x00, 0x08, 0x00, 0x08, 0x00, 0x00, 0x00, 0x00, 0x00, 0x00, 0x05, 0x14, 0x00, 0x00, 0x00, 0x10, 0x00, 0x14, 0x00, 0x06, 0x00, 0x00, 0x00, 0x08, 0x00, 0x0c, 0x00, 0x07, 0x00, 0x10, 0x00, 
0x10, 0x00, 0x00, 0x00, 0x00, 0x00, 0x06, 0x01, 0x14, 0x00, 0x00, 0x00, 0x08, 0x00, 0x00, 0x00, 0x01, 0x00, 0x00, 0x00, 0x03, 0x00, 0x00, 0x00, 0x00, 0x01, 0x02, 0x00, 0x03, 0x00, 0x00, 0x00, 
0x20, 0x00, 0x00, 0x00, 0x01, 0x00, 0x00, 0x00, 0x03, 0x00, 0x00, 0x00, 0x08, 0x00, 0x0c, 0x00, 0x04, 0x00, 0x08, 0x00, 0x08, 0x00, 0x00, 0x00, 0x48, 0x00, 0x00, 0x00, 0x04, 0x00, 0x00, 0x00, 
0x39, 0x00, 0x00, 0x00, 0x5b, 0x31, 0x2c, 0x20, 0x7b, 0x22, 0x74, 0x79, 0x70, 0x65, 0x22, 0x3a, 0x20, 0x6e, 0x75, 0x6c, 0x6c, 0x2c, 0x20, 0x22, 0x63, 0x6f, 0x6e, 0x74, 0x65, 0x78, 0x74, 0x22, 
0x3a, 0x20, 0x6e, 0x75, 0x6c, 0x6c, 0x2c, 0x20, 0x22, 0x63, 0x68, 0x69, 0x6c, 0x64, 0x72, 0x65, 0x6e, 0x5f, 0x73, 0x70, 0x65, 0x63, 0x22, 0x3a, 0x20, 0x5b, 0x5d, 0x7d, 0x5d, 0x00, 0x00, 0x00, 
0xfe, 0x00, 0x00, 0x00, 0x5b, 0x31, 0x2c, 0x20, 0x7b, 0x22, 0x74, 0x79, 0x70, 0x65, 0x22, 0x3a, 0x20, 0x22, 0x62, 0x75, 0x69, 0x6c, 0x74, 0x69, 0x6e, 0x73, 0x2e, 0x74, 0x75, 0x70, 0x6c, 0x65, 
0x22, 0x2c, 0x20, 0x22, 0x63, 0x6f, 0x6e, 0x74, 0x65, 0x78, 0x74, 0x22, 0x3a, 0x20, 0x22, 0x6e, 0x75, 0x6c, 0x6c, 0x22, 0x2c, 0x20, 0x22, 0x63, 0x68, 0x69, 0x6c, 0x64, 0x72, 0x65, 0x6e, 0x5f, 
0x73, 0x70, 0x65, 0x63, 0x22, 0x3a, 0x20, 0x5b, 0x7b, 0x22, 0x74, 0x79, 0x70, 0x65, 0x22, 0x3a, 0x20, 0x22, 0x62, 0x75, 0x69, 0x6c, 0x74, 0x69, 0x6e, 0x73, 0x2e, 0x74, 0x75, 0x70, 0x6c, 0x65, 
0x22, 0x2c, 0x20, 0x22, 0x63, 0x6f, 0x6e, 0x74, 0x65, 0x78, 0x74, 0x22, 0x3a, 0x20, 0x22, 0x6e, 0x75, 0x6c, 0x6c, 0x22, 0x2c, 0x20, 0x22, 0x63, 0x68, 0x69, 0x6c, 0x64, 0x72, 0x65, 0x6e, 0x5f, 
0x73, 0x70, 0x65, 0x63, 0x22, 0x3a, 0x20, 0x5b, 0x7b, 0x22, 0x74, 0x79, 0x70, 0x65, 0x22, 0x3a, 0x20, 0x6e, 0x75, 0x6c, 0x6c, 0x2c, 0x20, 0x22, 0x63, 0x6f, 0x6e, 0x74, 0x65, 0x78, 0x74, 0x22, 
0x3a, 0x20, 0x6e, 0x75, 0x6c, 0x6c, 0x2c, 0x20, 0x22, 0x63, 0x68, 0x69, 0x6c, 0x64, 0x72, 0x65, 0x6e, 0x5f, 0x73, 0x70, 0x65, 0x63, 0x22, 0x3a, 0x20, 0x5b, 0x5d, 0x7d, 0x5d, 0x7d, 0x2c, 0x20, 
0x7b, 0x22, 0x74, 0x79, 0x70, 0x65, 0x22, 0x3a, 0x20, 0x22, 0x62, 0x75, 0x69, 0x6c, 0x74, 0x69, 0x6e, 0x73, 0x2e, 0x64, 0x69, 0x63, 0x74, 0x22, 0x2c, 0x20, 0x22, 0x63, 0x6f, 0x6e, 0x74, 0x65, 
0x78, 0x74, 0x22, 0x3a, 0x20, 0x22, 0x5b, 0x5d, 0x22, 0x2c, 0x20, 0x22, 0x63, 0x68, 0x69, 0x6c, 0x64, 0x72, 0x65, 0x6e, 0x5f, 0x73, 0x70, 0x65, 0x63, 0x22, 0x3a, 0x20, 0x5b, 0x5d, 0x7d, 0x5d, 
0x7d, 0x5d, 0x00, 0x00, 0x07, 0x00, 0x00, 0x00, 0x66, 0x6f, 0x72, 0x77, 0x61, 0x72, 0x64, 0x00, 0x00, 0x00, 0x00, 0x00, 0x00, 0x00, 0x00, 0x00, 0x00, 0x00, 0x00, 0x00, 0x00, 0x00, 0x00, 0x00, 
0x66, 0x45, 0x76, 0xbe, 0xae, 0xeb, 0xb8, 0x3e, 0xf6, 0xcb, 0xfe, 0xbd, 0xc5, 0x5d, 0x42, 0xbd, 0x29, 0x46, 0x8e, 0xbe, 0xd9, 0xc5, 0x70, 0x3e, 0x0d, 0xed, 0xe8, 0x3e, 0xb5, 0xb0, 0x81, 0x3d, 
0x58, 0x19, 0x43, 0x3e, 0x0d, 0xf1, 0xe2, 0xbe, 0x3c, 0xec, 0x8b, 0x3e, 0x58, 0x19, 0xe7, 0x3e, 0xaa, 0x5f, 0x82, 0x3e, 0x6f, 0x38, 0x61, 0xbd, 0xf3, 0xf4, 0xb0, 0x3e, 0x5e, 0x50, 0x23, 0x3e, 
0x27, 0x97, 0x09, 0x3f, 0x88, 0xd0, 0xa2, 0x3e, 0x14, 0xa4, 0x06, 0x3f, 0x76, 0x23, 0x99, 0x3e, 0x42, 0xa8, 0xad, 0xbc, 0x80, 0xa0, 0x11, 0x3f, 0x04, 0xcc, 0xe7, 0x3e, 0x88, 0x7a, 0xa0, 0x3e, 
0x83, 0x5c, 0x99, 0x3e, 0x6b, 0xdf, 0x4d, 0xbe, 0x56, 0x36, 0xf4, 0x3e, 0x8b, 0x4d, 0x96, 0x3e, 0xfd, 0x45, 0xcd, 0x3c, 0x69, 0x5e, 0x2a, 0x3d, 0x2c, 0x94, 0x0a, 0xbf, 0xaf, 0x39, 0x65, 0x3e, 
0x7c, 0x59, 0xf5, 0x3e, 0x9f, 0x69, 0x7f, 0x3e, 0x61, 0x8f, 0xfb, 0xbb, 0x98, 0xb8, 0x0b, 0x3f, 0x2e, 0x24, 0xe9, 0xbe, 0xe5, 0xf2, 0x72, 0x3e, 0xe7, 0x8c, 0xa5, 0xbd, 0x05, 0xfd, 0x01, 0x3f, 
0x78, 0x65, 0x16, 0xbc, 0x93, 0x2f, 0xd3, 0xbe, 0xa5, 0x83, 0xc9, 0x3e, 0xb0, 0x76, 0x37, 0xbe, 0x80, 0x97, 0xff, 0xbd, 0x14, 0xf1, 0xbd, 0x3e, 0xf8, 0x20, 0xb9, 0x3e, 0x6e, 0xda, 0x99, 0xbe, 
0xb8, 0xf6, 0xd8, 0x3d, 0x57, 0xf0, 0xca, 0x3e, 0x2f, 0xee, 0x96, 0xbe, 0xa2, 0x4a, 0x26, 0x3e, 0xaf, 0x7d, 0x4f, 0x3e, 0xe3, 0xe3, 0xf6, 0xbe, 0x94, 0xcc, 0x16, 0x3e, 0x90, 0x4a, 0x83, 0xbe, 
0xf8, 0xe6, 0xd9, 0xbd, 0x26, 0x21, 0x20, 0xbe, 0x2d, 0xfa, 0xcc, 0xbe, 0xe1, 0x90, 0x7c, 0xbe, 0x8a, 0xaf, 0x6c, 0x3d, 0x90, 0x37, 0x81, 0xbe, 0x5b, 0xf2, 0xf7, 0x3d, 0xbd, 0x5e, 0x32, 0xbe, 
0x31, 0x01, 0x16, 0xbe, 0xed, 0x5e, 0xf9, 0x3e, 0x04, 0x4c, 0x0a, 0x3f, 0x1f, 0x45, 0x33, 0x3e, 0x15, 0x97, 0xd1, 0xbe, 0xdc, 0xae, 0x5d, 0xbd, 0x58, 0x4c, 0xa3, 0xbc, 0x10, 0xf6, 0x1b, 0xbe, 
0xe0, 0x6b, 0x33, 0xbe, 0xbb, 0x56, 0xf1, 0x3e, 0x59, 0xa0, 0x53, 0x3e, 0x26, 0x10, 0x81, 0xbe, 0xf9, 0x4e, 0xd9, 0x3e, 0x92, 0x72, 0x8d, 0xbe, 0xae, 0x70, 0x53, 0xbd, 0xc6, 0x2d, 0xa6, 0x3e, 
0xd6, 0x2e, 0xd7, 0xbe, 0xa0, 0x55, 0xaf, 0xbe, 0x0a, 0xa4, 0x2f, 0x3c, 0x7d, 0x25, 0x12, 0xbe, 0x8c, 0xce, 0x4c, 0x3d, 0xae, 0xbb, 0xc2, 0x3e, 0xaf, 0xf8, 0xbc, 0x3e, 0xdc, 0x9d, 0x0a, 0xbe, 
0xe9, 0x8d, 0xe4, 0x3e, 0x14, 0xa1, 0x92, 0xbd, 0x0b, 0xae, 0xed, 0xbd, 0xa5, 0x94, 0xb8, 0xbe, 0x1f, 0x19, 0x95, 0xbe, 0x78, 0x24, 0x0c, 0x3f, 0xf2, 0xcd, 0x0f, 0xbe, 0x1d, 0xf9, 0xb8, 0x3b, 
0x91, 0x00, 0xd7, 0x3d, 0x21, 0x79, 0x41, 0xbe, 0xbf, 0xa6, 0x16, 0x3e, 0x42, 0x7c, 0xf3, 0xbe, 0xbf, 0xc0, 0xff, 0xbd, 0xe3, 0x2b, 0xe5, 0x3e, 0x66, 0x6a, 0x08, 0xbf, 0x46, 0x0b, 0x86, 0xbe, 
0x3c, 0xca, 0x63, 0xbe, 0x66, 0x51, 0x0d, 0x3e, 0x8e, 0x52, 0x72, 0xbc, 0x22, 0xa4, 0x1b, 0x3e, 0x23, 0xb9, 0x6e, 0x3e, 0xde, 0x32, 0x10, 0xbf, 0xa2, 0xd1, 0x8e, 0x3e, 0xac, 0xdf, 0xe8, 0xbd, 
0xf2, 0x9b, 0x0e, 0xbf, 0xc8, 0xe9, 0x00, 0xbf, 0x1d, 0x57, 0xe9, 0xbe, 0xac, 0x07, 0x6b, 0xbe, 0x29, 0x3c, 0x02, 0x3f, 0x91, 0xb2, 0x84, 0xbd, 0x25, 0x13, 0x9b, 0x3d, 0xf3, 0x6d, 0xe6, 0x3e, 
0x98, 0x29, 0xa1, 0xbd, 0x4a, 0xd0, 0xe7, 0xbe, 0xf6, 0xf4, 0x32, 0x3e, 0xbd, 0x24, 0x87, 0x3e, 0xa7, 0xe0, 0xd9, 0x39, 0x50, 0x1e, 0x1a, 0xbe, 0xd5, 0x07, 0x03, 0x3e, 0x8f, 0xf3, 0x0a, 0xbf, 
0x96, 0xa4, 0xca, 0xbd, 0x29, 0xaf, 0x64, 0xbe, 0x2d, 0x40, 0x9a, 0xbd, 0x10, 0x15, 0x05, 0xbe, 0x6f, 0x6a, 0x1d, 0xbd, 0x74, 0x26, 0x96, 0x3c, 0xb8, 0x32, 0x2f, 0x3d, 0x16, 0xb2, 0x30, 0xbe, 
0x1d, 0x9a, 0x18, 0xbd, 0x22, 0xa3, 0x8b, 0x3c, 0x2b, 0xd1, 0xac, 0x3d, 0xc3, 0x6d, 0x45, 0x3e, 0x11, 0x78, 0xfe, 0x3c, 0x76, 0x4b, 0x00, 0x3e, 0x57, 0x6e, 0x7f, 0xbd, 0x06, 0xd0, 0x9c, 0xbd, 
0xe8, 0x70, 0x0a, 0x3d, 0x41, 0x4e, 0x40, 0xbe, 0x26, 0x7f, 0xda, 0x3d, 0x7e, 0x9c, 0xee, 0x3c, 0x85, 0xe6, 0xaf, 0x3c, 0xba, 0xc2, 0x39, 0x3e, 0x41, 0x91, 0xd8, 0xbd, 0x7d, 0x18, 0x97, 0xbc, 
0xa4, 0x88, 0x93, 0xbe, 0xc5, 0xc4, 0xb4, 0xbc, 0xca, 0xb3, 0xde, 0x3d, 0xce, 0x67, 0x93, 0x3d, 0x64, 0xcf, 0xaf, 0x3b, 0xcd, 0x74, 0x43, 0xbe, 0xd3, 0x88, 0x9b, 0x3d, 0xc2, 0x51, 0x57, 0x3d, 
0xd2, 0xd9, 0x00, 0xbe, 0xf9, 0x6d, 0x52, 0x3d, 0x6b, 0x15, 0x15, 0x3e, 0xa7, 0xf3, 0x01, 0x3d, 0x37, 0xd0, 0xb8, 0x3c, 0xbb, 0x50, 0xd8, 0xbd, 0x45, 0xa3, 0x36, 0xbe, 0xc1, 0x7f, 0xc1, 0xbd, 
0x93, 0xd2, 0xd4, 0x3d, 0x3d, 0xa3, 0x32, 0x3d, 0x3b, 0x4c, 0xd7, 0x3d, 0x93, 0x13, 0x42, 0x3d, 0x77, 0x02, 0x08, 0xbd, 0x54, 0xde, 0xac, 0xbb, 0x6c, 0x2b, 0x85, 0x3d, 0x88, 0x80, 0xb8, 0xbd, 
0x1a, 0xfa, 0xdd, 0xbb, 0xd6, 0x8b, 0x42, 0xbc, 0x99, 0x8b, 0xfb, 0x3d, 0x8d, 0x00, 0xbc, 0x3d, 0xbb, 0x23, 0x58, 0x3d, 0xbb, 0xa0, 0xcb, 0xbd, 0x51, 0xc2, 0x16, 0xbe, 0xda, 0x3e, 0x3f, 0xbe, 
0x38, 0xa4, 0x0c, 0x3e, 0x1b, 0x80, 0xb0, 0x3d, 0x1b, 0x67, 0x93, 0x3d, 0x95, 0xd5, 0xe7, 0xbd, 0x5a, 0xea, 0xb7, 0x3c, 0xd7, 0x8c, 0xe3, 0xbd, 0x1f, 0x4e, 0x47, 0x3e, 0x7a, 0xb8, 0xa6, 0xbd, 
0x9b, 0x43, 0x36, 0xbe, 0x9a, 0x07, 0x33, 0xbe, 0x35, 0x36, 0x7f, 0xbe, 0x06, 0x13, 0xe4, 0xbc, 0x2f, 0xeb, 0xa2, 0xbd, 0xbe, 0xe4, 0xf6, 0xbc, 0x91, 0xb2, 0x8f, 0xbb, 0x5f, 0x02, 0x0e, 0xbe, 
0x83, 0x94, 0xec, 0xbd, 0xb5, 0x6c, 0x85, 0xbd, 0x41, 0x92, 0x9e, 0x3c, 0x16, 0xdb, 0xd3, 0xbd, 0x19, 0x00, 0x98, 0xbe, 0x5c, 0x45, 0x02, 0xbe, 0x85, 0xca, 0x2c, 0xbe, 0x83, 0xcd, 0x47, 0xbe, 
0xad, 0x3c, 0xf8, 0x3c, 0x0d, 0x48, 0x94, 0xbd, 0x5e, 0xf3, 0x97, 0xbe, 0x35, 0xd3, 0x88, 0xbe, 0x47, 0x1b, 0x48, 0xbe, 0x58, 0x12, 0xe7, 0xbc, 0x8d, 0x86, 0x63, 0xbe, 0xce, 0xe5, 0xb8, 0xbd, 
0xf5, 0xa8, 0xb2, 0x3d, 0x38, 0xb1, 0x40, 0xbe, 0x87, 0xdf, 0x10, 0xbe, 0x80, 0xe2, 0x6a, 0xbe, 0xb1, 0xb9, 0x19, 0xbd, 0xa8, 0x52, 0xb8, 0x3d, 0x8c, 0x14, 0x69, 0xbd, 0x64, 0x8d, 0x69, 0xbe, 
0xf8, 0xed, 0x05, 0xbd, 0x75, 0x8f, 0xb7, 0x3b, 0xe6, 0x53, 0x0e, 0xbc, 0x9a, 0xeb, 0x0e, 0x3e, 0xe3, 0x9e, 0x1c, 0xbc, 0xef, 0x23, 0xb5, 0x3d, 0xb5, 0xe4, 0x1f, 0x3e, 0xfb, 0x6c, 0x98, 0x3c, 
0xfa, 0xf6, 0xea, 0xba, 0x0c, 0x1c, 0x84, 0x3d, 0x5b, 0x8a, 0x8b, 0xbd, 0x8f, 0x63, 0xdd, 0xbd, 0x4a, 0x84, 0x65, 0xbc, 0x35, 0xc6, 0xde, 0xbc, 0x9a, 0xbd, 0x8f, 0x3d, 0x92, 0x93, 0x29, 0x3d, 
0x94, 0x29, 0xfa, 0x3d, 0xa5, 0x6a, 0x2f, 0xbe, 0x2e, 0x9f, 0x7e, 0xbe, 0x29, 0x4e, 0xec, 0xbd, 0xe1, 0xbb, 0xc6, 0xbc, 0x62, 0x4f, 0x9a, 0x3c, 0x24, 0x17, 0x2e, 0xbd, 0x78, 0x58, 0xfe, 0xbd, 
0x93, 0x0d, 0x17, 0xbe, 0x52, 0xb6, 0xf0, 0x3d, 0xb3, 0x64, 0x55, 0x3e, 0xf9, 0xea, 0x92, 0x3d, 0xb4, 0xf3, 0x47, 0x3c, 0x99, 0xcc, 0xca, 0x3d, 0xd0, 0xbd, 0x13, 0xbc, 0xe5, 0x1b, 0x64, 0xbc, 
0xff, 0x6a, 0xa1, 0xbd, 0xc8, 0xf8, 0x10, 0xbe, 0x42, 0x37, 0xf8, 0xbd, 0xb5, 0x5b, 0x94, 0x3d, 0x88, 0x84, 0x64, 0x3e, 0x22, 0x97, 0x98, 0xbd, 0x54, 0xa1, 0x9f, 0x3c, 0x50, 0x50, 0x32, 0xbe, 
0x85, 0x02, 0x47, 0xbe, 0x45, 0x26, 0xc0, 0x3d, 0x4a, 0xd8, 0x45, 0x3d, 0x58, 0x30, 0x60, 0xbd, 0xa3, 0xc5, 0x49, 0xbc, 0xaf, 0x13, 0x9a, 0x3d, 0x94, 0x12, 0x63, 0xbe, 0x76, 0xe6, 0x6a, 0x3d, 
0xf9, 0xd6, 0x14, 0x3e, 0x9e, 0x77, 0x06, 0x3d, 0xb3, 0xbb, 0x80, 0x3c, 0x9d, 0x07, 0xac, 0xbd, 0xe6, 0x7a, 0x0b, 0xbe, 0x05, 0x51, 0x0f, 0xbe, 0x3c, 0xa9, 0x09, 0x3e, 0xc6, 0xac, 0x23, 0x3e, 
0x32, 0xdc, 0x0c, 0x3e, 0xed, 0x0e, 0xa2, 0xbd, 0x96, 0xcc, 0x55, 0xbe, 0x72, 0x68, 0x9c, 0xbd, 0xe5, 0xc0, 0xa6, 0x3d, 0x83, 0x0e, 0xab, 0xbb, 0x90, 0xa7, 0x07, 0xbd, 0x85, 0x49, 0x62, 0x3d, 
0x82, 0xaa, 0x39, 0xbd, 0x63, 0x88, 0x44, 0xbc, 0x83, 0xdf, 0x85, 0xbd, 0x59, 0xbc, 0x11, 0x3e, 0xd6, 0xae, 0x4a, 0x3d, 0xc6, 0x68, 0xa5, 0xbd, 0x6b, 0x4d, 0x4a, 0x39, 0x7f, 0x54, 0xa1, 0x3b, 
0xec, 0x8d, 0x6a, 0x3d, 0x8b, 0xa3, 0x94, 0x3d, 0x16, 0xee, 0x26, 0xbe, 0xcc, 0x96, 0xcb, 0x3b, 0x9e, 0xee, 0x12, 0xbe, 0xc3, 0xe1, 0x96, 0xbd, 0xa3, 0x49, 0x1a, 0x3e, 0x60, 0x3f, 0x7c, 0x3d, 
0xbb, 0x3c, 0x12, 0x3e, 0x12, 0xe4, 0x95, 0x3d, 0xd9, 0xde, 0x01, 0xbe, 0x17, 0xf5, 0x11, 0xbe, 0x51, 0x1a, 0xe1, 0x3d, 0x4b, 0x90, 0xff, 0x3d, 0x5d, 0x69, 0x62, 0x3d, 0x57, 0xb8, 0x61, 0x3d, 
0xc1, 0x13, 0x62, 0xbe, 0xd1, 0x5d, 0x02, 0xbd, 0xd3, 0x04, 0x72, 0xbd, 0xdd, 0xf8, 0x02, 0x3d, 0xff, 0xfc, 0xe3, 0x3d, 0x13, 0xc6, 0xf1, 0x3b, 0x1d, 0x57, 0xc4, 0x3c, 0xb9, 0x4e, 0x04, 0xbe, 
0x23, 0x3b, 0xb6, 0x3d, 0x8a, 0xd5, 0x19, 0xbd, 0xab, 0x83, 0x94, 0x3d, 0xc7, 0xc0, 0x55, 0x3e, 0x1a, 0x6f, 0x98, 0x3d, 0xca, 0x53, 0x16, 0xbd, 0x3c, 0x54, 0x0e, 0x3e, 0xe8, 0xb3, 0xd1, 0x3b, 
0xe8, 0x81, 0x23, 0x3e, 0x05, 0x97, 0x0d, 0x3d, 0x65, 0xf5, 0x2e, 0x3d, 0xec, 0x11, 0xdf, 0x3d, 0x0f, 0x27, 0x6e, 0xbd, 0x2e, 0x7e, 0x41, 0x3d, 0x57, 0xeb, 0x04, 0xbe, 0x4b, 0xda, 0xc8, 0xbd, 
0xd9, 0x04, 0x55, 0xbd, 0x8c, 0xa1, 0x1e, 0x3e, 0x54, 0x74, 0xf1, 0x3d, 0x50, 0x88, 0xc8, 0x3d, 0x47, 0x87, 0xef, 0x3c, 0xb7, 0x1a, 0xdf, 0xbd, 0xbc, 0x5a, 0x1c, 0xbe, 0x73, 0x33, 0x03, 0xbe, 
0xc5, 0xbc, 0x39, 0xbd, 0x8a, 0x81, 0x96, 0x3d, 0x06, 0x3c, 0x1c, 0xbc, 0x2e, 0x5a, 0xe7, 0xbd, 0xde, 0xdd, 0xe0, 0x3d, 0x16, 0x5c, 0xc4, 0xbd, 0x64, 0xc8, 0x68, 0x3d, 0x87, 0xac, 0x06, 0x3d, 
0x75, 0xbb, 0x86, 0xbd, 0xce, 0xba, 0xfa, 0xbd, 0xe1, 0xa0, 0x1c, 0xbe, 0x08, 0x90, 0x11, 0xbe, 0x1c, 0x26, 0x23, 0xbe, 0x1a, 0xe0, 0x8c, 0xbd, 0xd2, 0x3c, 0x38, 0x3d, 0xdd, 0xb6, 0x84, 0xbd, 
0x48, 0x9a, 0x9d, 0x3c, 0x62, 0x95, 0xb5, 0x3d, 0xe8, 0x7f, 0x22, 0xbb, 0x1c, 0x22, 0x45, 0xbe, 0xfd, 0x50, 0x3f, 0xbe, 0x5a, 0xbc, 0x47, 0xbe, 0x86, 0xbd, 0x5f, 0xbe, 0x8c, 0xd0, 0x38, 0xbe, 
0xea, 0x1d, 0xfc, 0xbd, 0xc7, 0xc5, 0x1b, 0xbe, 0xbf, 0x49, 0x94, 0xbe, 0x1a, 0x08, 0xdb, 0xbd, 0x1a, 0x5d, 0xf1, 0xbd, 0x6a, 0x24, 0x2e, 0xbe, 0x0d, 0x21, 0xe4, 0x3d, 0xac, 0x5b, 0xa1, 0xb9, 
0x43, 0xc2, 0x26, 0x3d, 0x06, 0x9f, 0xab, 0x3d, 0x6d, 0x0e, 0x6a, 0x3d, 0x56, 0xbc, 0xcf, 0x3c, 0x1b, 0x53, 0xd0, 0x3d, 0x9d, 0x1b, 0xb7, 0xbd, 0x3d, 0xfe, 0xbc, 0x3d, 0xc3, 0x23, 0xa8, 0x3d, 
0xa7, 0xed, 0xe5, 0xbd, 0x2a, 0x72, 0x0e, 0x3e, 0x7f, 0xbd, 0xe1, 0xbc, 0x5b, 0xae, 0x49, 0x3c, 0xa2, 0xeb, 0x87, 0x3d, 0x7d, 0xc1, 0xde, 0xbd, 0xc4, 0x8b, 0x82, 0xbd, 0x0f, 0xc3, 0xd6, 0x3c, 
0xfa, 0x24, 0x74, 0xbd, 0x2f, 0x76, 0x0c, 0xbe, 0xed, 0x23, 0x42, 0xbe, 0x5b, 0x0a, 0x14, 0xbd, 0x0d, 0xe4, 0xd7, 0xbd, 0x44, 0xb8, 0xeb, 0xbd, 0xde, 0xf8, 0xb2, 0xbd, 0xc7, 0x61, 0xbe, 0xbc, 
0x49, 0xa5, 0x84, 0x3b, 0x1c, 0xb6, 0xc4, 0xbd, 0x5b, 0x87, 0x2e, 0xbe, 0x2a, 0xaa, 0x59, 0xbd, 0x42, 0xc0, 0xa8, 0xbd, 0x30, 0x5b, 0x99, 0x3c, 0x47, 0xbb, 0x79, 0x3d, 0xef, 0x5c, 0x00, 0x3d, 
0x69, 0x8b, 0x61, 0xbc, 0xd6, 0xe5, 0x2c, 0xbe, 0x1f, 0xa0, 0x98, 0xbd, 0x42, 0x0b, 0x02, 0xbd, 0x11, 0x18, 0xe7, 0x3a, 0x14, 0x3e, 0xfe, 0x3c, 0xa5, 0x6c, 0x74, 0x3c, 0x45, 0x94, 0x36, 0xbc, 
0xc7, 0xc2, 0x0d, 0xb9, 0x9d, 0xdd, 0xf5, 0xbd, 0x49, 0x17, 0x08, 0xbe, 0x64, 0x98, 0xb0, 0xbd, 0x04, 0xc8, 0xc0, 0x3d, 0xdf, 0xf5, 0xdc, 0x3d, 0x5a, 0x67, 0x9c, 0x3d, 0x52, 0xde, 0x17, 0x3e, 
0xc7, 0xa2, 0xcd, 0xbd, 0xcc, 0x06, 0x46, 0xbd, 0xb0, 0x48, 0xe8, 0xbd, 0x55, 0xbf, 0xce, 0xbc, 0xe6, 0xf4, 0xe3, 0x3d, 0x3c, 0x7d, 0x31, 0x3e, 0x61, 0xb3, 0xd4, 0x3d, 0xd4, 0xe6, 0x99, 0xbd, 
0x72, 0x56, 0x89, 0x3d, 0x81, 0x3a, 0x2b, 0xbe, 0xf4, 0x56, 0x9e, 0x3b, 0xfb, 0x17, 0x3f, 0x3e, 0xfb, 0x69, 0x17, 0xbc, 0xc9, 0x74, 0xf1, 0x3d, 0xe0, 0x6b, 0x21, 0x3e, 0x2b, 0xe6, 0x6f, 0xbd, 
0x5e, 0x78, 0x2b, 0xbe, 0xfb, 0xf7, 0x76, 0x3d, 0x26, 0x88, 0xe0, 0xbc, 0x06, 0x6a, 0x36, 0x3e, 0x99, 0xf5, 0x10, 0xbd, 0x7b, 0x17, 0xb5, 0xbc, 0x4a, 0xf4, 0xc2, 0x3c, 0xb0, 0x1c, 0xba, 0xbd, 
0xc9, 0x4f, 0xf1, 0xbd, 0x58, 0x57, 0xff, 0x3d, 0x57, 0x69, 0x46, 0xbe, 0x04, 0x35, 0x46, 0xbe, 0x19, 0x31, 0xa3, 0x3d, 0xde, 0xb4, 0xb0, 0x3d, 0x28, 0xcc, 0xac, 0x3d, 0x63, 0xd2, 0x82, 0x3d, 
0xe8, 0x3a, 0x01, 0x3e, 0x3b, 0x97, 0xd6, 0xbd, 0x31, 0xb5, 0xa8, 0x3d, 0x42, 0x10, 0x29, 0xbc, 0x85, 0xe7, 0xd0, 0xbd, 0x0a, 0x01, 0x0d, 0xbe, 0x15, 0x09, 0x74, 0xbd, 0xd7, 0x37, 0xd0, 0x3d, 
0x0b, 0xe6, 0x02, 0x3d, 0x2b, 0x9c, 0x06, 0xbe, 0xdd, 0xad, 0x63, 0xbd, 0x06, 0x41, 0x43, 0xbd, 0xb9, 0xbb, 0xc6, 0x3d, 0xc1, 0xa5, 0x50, 0xbb, 0x1c, 0xed, 0x51, 0xbd, 0x05, 0x3f, 0x67, 0xbe, 
0x2e, 0x1f, 0x97, 0x3b, 0x9a, 0x2a, 0x2b, 0x3d, 0x04, 0xe9, 0x06, 0x3d, 0xd5, 0xc1, 0x4b, 0x3d, 0xe9, 0xca, 0x4f, 0xbe, 0xd4, 0xf4, 0xac, 0xbd, 0xdb, 0x04, 0x2f, 0x3e, 0x9d, 0xff, 0x1d, 0xbe, 
0x60, 0xd6, 0x16, 0x3d, 0x29, 0xf5, 0x18, 0x3d, 0xb7, 0xd7, 0xfe, 0xbd, 0x13, 0xdb, 0x17, 0x3e, 0xd2, 0xd1, 0x83, 0x3c, 0x01, 0xcc, 0x0c, 0xbc, 0x07, 0x01, 0x3d, 0xbd, 0xa1, 0xcc, 0xb3, 0xbc, 
0xd7, 0x9c, 0x38, 0xbe, 0x10, 0x32, 0x56, 0xbe, 0xd8, 0x9b, 0x26, 0xbe, 0x6d, 0x3b, 0x25, 0xbd, 0x71, 0x87, 0xee, 0x3c, 0x6c, 0xbc, 0x33, 0x3e, 0x3b, 0x6e, 0x86, 0x3d, 0xa2, 0x5d, 0x6a, 0x3d, 
0xf0, 0xd3, 0xea, 0xbd, 0x7f, 0x1f, 0xa9, 0xbd, 0xed, 0x30, 0x66, 0xbe, 0x21, 0x39, 0x8d, 0x3c, 0x3f, 0x7d, 0xbc, 0xbd, 0x44, 0xe7, 0x7d, 0xbd, 0x0b, 0x07, 0x64, 0x3c, 0x36, 0x1f, 0x84, 0x3d, 
0x73, 0x81, 0xfc, 0x3d, 0x94, 0x6d, 0xb8, 0xbc, 0x5e, 0x56, 0xf4, 0x3d, 0x2c, 0xb9, 0xc1, 0xbd, 0xb0, 0x01, 0xee, 0xbd, 0x28, 0x98, 0x53, 0x3d, 0xc3, 0x65, 0x34, 0xbd, 0x20, 0x64, 0x24, 0x3e, 
0x19, 0x8d, 0x74, 0xbc, 0x97, 0x49, 0xbf, 0x3d, 0xd8, 0xcb, 0x03, 0x3c, 0x3d, 0xbc, 0xef, 0xbd, 0xbc, 0xb5, 0xdb, 0xbd, 0x1d, 0x48, 0x9e, 0x3d, 0xaf, 0x81, 0xb7, 0x3d, 0x01, 0x4c, 0xe8, 0xbd, 
0xc3, 0xf6, 0x50, 0x3d, 0x22, 0x6c, 0xe2, 0xbd, 0x22, 0x75, 0xd7, 0xbd, 0x26, 0xa0, 0xb8, 0x3b, 0x54, 0x0e, 0x49, 0x3d, 0x1e, 0xcb, 0x40, 0x3d, 0x7c, 0x41, 0xb1, 0x3d, 0x4d, 0x83, 0x9f, 0x3b, 
0x5c, 0xa5, 0x3b, 0xbd, 0xf8, 0x82, 0xfd, 0x3c, 0x92, 0x2a, 0x2e, 0xbe, 0xbc, 0x41, 0x50, 0xbb, 0x36, 0x6a, 0xaa, 0xbd, 0x03, 0x6f, 0x82, 0xbc, 0x52, 0xbf, 0xc5, 0xbc, 0x26, 0xbe, 0x8c, 0x3d, 
0x65, 0xd1, 0x82, 0xbc, 0x47, 0x72, 0x7f, 0x3d, 0x1f, 0x91, 0xd5, 0xbd, 0x82, 0x44, 0x42, 0xbe, 0xf4, 0xed, 0x20, 0xbd, 0x7a, 0x3a, 0x2d, 0xbd, 0xc3, 0x76, 0x89, 0x3c, 0x20, 0x04, 0x9d, 0xbd, 
0x69, 0xa0, 0xf7, 0x3d, 0xed, 0xb6, 0xc6, 0x3d, 0x6d, 0x21, 0xe6, 0xbd, 0x97, 0xe9, 0x6f, 0xbc, 0x27, 0xed, 0x0d, 0xbd, 0xda, 0x5f, 0xba, 0xbc, 0x51, 0xa6, 0xe9, 0x3c, 0x52, 0x86, 0x02, 0xbc, 
0x2e, 0xf0, 0x70, 0xbd, 0x87, 0xda, 0xc8, 0xbd, 0x90, 0xec, 0x9b, 0xbc, 0x0d, 0x5a, 0x35, 0x3e, 0x3c, 0x55, 0x14, 0x3d, 0x1c, 0x18, 0x8b, 0x3c, 0xfb, 0x00, 0xe9, 0x3c, 0x8c, 0xf2, 0x92, 0xbe, 
0xe1, 0xd5, 0x90, 0xbe, 0x11, 0xd9, 0x79, 0x3d, 0x58, 0xbe, 0x6c, 0xbd, 0xc3, 0x03, 0x8a, 0xbb, 0x8d, 0xa6, 0xd4, 0xbc, 0xf6, 0xb5, 0x8a, 0x3d, 0x32, 0x51, 0x77, 0x3d, 0x54, 0xf8, 0x64, 0x3d, 
0x08, 0x00, 0xfc, 0xbd, 0xdd, 0xfa, 0x8b, 0xbd, 0x16, 0xa7, 0x3b, 0xbe, 0x6a, 0xab, 0x43, 0xbe, 0x4b, 0x6d, 0x11, 0xbe, 0x90, 0x47, 0x96, 0x3d, 0xca, 0x0c, 0x8c, 0x3d, 0xf8, 0x6e, 0x39, 0xbd, 
0x16, 0x33, 0xb3, 0xbd, 0x84, 0x20, 0x28, 0x3c, 0x62, 0x25, 0x80, 0x3e, 0x43, 0x3c, 0x49, 0x3d, 0xf9, 0x37, 0xf9, 0xbd, 0x58, 0xce, 0x31, 0xbe, 0x88, 0xbc, 0x35, 0xbe, 0xc5, 0xab, 0xe0, 0xbd, 
0xdc, 0xc5, 0x7f, 0xbc, 0xac, 0xbe, 0x75, 0xbd, 0xfc, 0x2a, 0xe2, 0x3d, 0xe0, 0x20, 0x4b, 0x3c, 0x6b, 0x67, 0x89, 0x3d, 0xe8, 0x84, 0xbf, 0xbc, 0x15, 0xaf, 0x33, 0xbe, 0xdb, 0x3e, 0xb4, 0xbc, 
0x8f, 0x0e, 0xf3, 0x3b, 0x45, 0x4b, 0xad, 0xbd, 0x6b, 0x49, 0x82, 0xbd, 0xcf, 0x21, 0x8d, 0x3d, 0xd8, 0xac, 0xac, 0xbd, 0x09, 0xb6, 0x17, 0x3d, 0x8d, 0xe2, 0x54, 0xbe, 0x9b, 0xd0, 0xbf, 0xbd, 
0xac, 0x4b, 0x92, 0x3d, 0xf3, 0x85, 0x69, 0x3d, 0xd8, 0x86, 0x22, 0x3c, 0xb7, 0x7a, 0x0f, 0xbc, 0xef, 0x0c, 0x7f, 0xbd, 0xb3, 0x5e, 0x88, 0xbb, 0x87, 0xc8, 0x3a, 0x3c, 0x93, 0x8a, 0xda, 0x3c, 
0x1d, 0x47, 0xa1, 0x3d, 0x3f, 0x98, 0xa7, 0x3d, 0xa6, 0xf6, 0x01, 0x3e, 0x78, 0x55, 0x3f, 0xbd, 0xa4, 0x0b, 0x86, 0xbe, 0x45, 0x21, 0x2f, 0xbe, 0xa1, 0x7f, 0x80, 0x3c, 0x45, 0xc6, 0xe3, 0x3c, 
0x64, 0x86, 0x99, 0x3d, 0x0f, 0xb6, 0x03, 0x3d, 0x80, 0xd9, 0x8f, 0x3a, 0xfe, 0xb9, 0x95, 0xbc, 0x09, 0xd5, 0xee, 0x3c, 0x7e, 0x09, 0x74, 0x3d, 0x68, 0xb5, 0x95, 0xbd, 0xb5, 0x14, 0xac, 0xbc, 
0xf7, 0x6c, 0x8d, 0x3c, 0x64, 0xd6, 0x8f, 0x3d, 0x6c, 0xe7, 0xf9, 0x3d, 0x06, 0x83, 0x03, 0xbd, 0x35, 0x7d, 0xe0, 0x3c, 0x15, 0x99, 0x21, 0x3d, 0xe2, 0x86, 0x9d, 0xbc, 0xda, 0xc4, 0xf5, 0xbd, 
0x92, 0x6b, 0x85, 0xbd, 0x8f, 0xae, 0xcf, 0xbc, 0x1f, 0x6d, 0xf9, 0xbc, 0x7c, 0x4e, 0xac, 0xbd, 0x3b, 0x28, 0x28, 0xbd, 0x32, 0xaf, 0x09, 0x3c, 0xa9, 0x17, 0x46, 0x3d, 0x92, 0xeb, 0x56, 0xbd, 
0xed, 0x46, 0x15, 0x3e, 0x01, 0x4e, 0x01, 0x3e, 0xe9, 0xc4, 0x4b, 0x3c, 0x15, 0xdc, 0x0d, 0xbe, 0x35, 0x24, 0x63, 0xbe, 0xf0, 0x45, 0xb3, 0xbd, 0xcb, 0x97, 0x4c, 0xbd, 0xcb, 0x37, 0x6b, 0x3d, 
0x2e, 0xbd, 0x12, 0xbd, 0xa6, 0xe6, 0xee, 0xbc, 0x6d, 0xa4, 0x58, 0xbd, 0x34, 0x4e, 0x8f, 0x3d, 0x69, 0x2b, 0xcb, 0xbc, 0xad, 0x3b, 0xbd, 0x3d, 0xf9, 0xe1, 0xac, 0x3d, 0x18, 0xb7, 0x80, 0xbd, 
0xdc, 0x4e, 0xbc, 0xbd, 0x7e, 0x0a, 0x26, 0xbe, 0xc7, 0x7a, 0x90, 0xbe, 0xf1, 0xea, 0x1b, 0x3d, 0x76, 0x8c, 0xe0, 0xbc, 0x21, 0xe7, 0xa1, 0xbd, 0xcd, 0xfc, 0x09, 0x3e, 0x32, 0x88, 0xd8, 0xbd, 
0x1a, 0x9e, 0x06, 0x3d, 0x17, 0x26, 0xc1, 0x3d, 0x22, 0xd7, 0xf1, 0xbc, 0x08, 0xaf, 0x91, 0xbd, 0xe6, 0x98, 0x0e, 0x3e, 0xc3, 0xd7, 0xb2, 0xbd, 0x03, 0x2b, 0x22, 0xbe, 0xdd, 0x8e, 0xbc, 0xbb, 
0x0b, 0xe8, 0xd7, 0x3d, 0x1e, 0x28, 0x80, 0xbd, 0x20, 0x68, 0x56, 0xbd, 0x12, 0xf1, 0xf8, 0x3c, 0x1e, 0x5f, 0x0b, 0xbe, 0x45, 0x0d, 0xd4, 0x3d, 0x86, 0xb4, 0x7b, 0xbd, 0xc6, 0x9f, 0x23, 0xbc, 
0xf1, 0x5b, 0xf0, 0x3d, 0x3a, 0x76, 0x9d, 0x3d, 0x4c, 0x9d, 0x8d, 0xbd, 0xb8, 0x61, 0x95, 0x3b, 0x5e, 0xd9, 0x09, 0x3d, 0xb9, 0x9c, 0x79, 0x3d, 0xbf, 0x42, 0x67, 0xbe, 0x69, 0x36, 0x98, 0xbd, 
0xdb, 0x2c, 0x31, 0xbd, 0xf0, 0x96, 0xef, 0xbd, 0x5c, 0x8b, 0xef, 0xbd, 0x2d, 0x02, 0x43, 0xbc, 0xc9, 0x11, 0xf1, 0xbd, 0x1b, 0x0d, 0x2d, 0x3c, 0xde, 0x78, 0x4a, 0x3c, 0x51, 0xdf, 0xbf, 0xbd, 
0x31, 0xca, 0x10, 0x3e, 0xc4, 0x69, 0x66, 0xbd, 0xdd, 0xde, 0xec, 0x3b, 0x60, 0x96, 0x30, 0xbe, 0xfc, 0x2b, 0x94, 0x3d, 0xd5, 0x6a, 0x00, 0xbe, 0xec, 0xfa, 0xfb, 0xbd, 0xa8, 0xd2, 0xe0, 0xbd, 
0x20, 0x11, 0xc0, 0x3d, 0xeb, 0x01, 0x22, 0xbd, 0x73, 0x22, 0xdb, 0xbb, 0xb4, 0x1c, 0x1f, 0x3e, 0x7d, 0x19, 0x3b, 0x3d, 0x45, 0xaa, 0x84, 0xbb, 0xf5, 0x25, 0x03, 0xbe, 0x1d, 0xfe, 0x03, 0x3e, 
0x51, 0x47, 0x91, 0xbd, 0x78, 0xa8, 0xdc, 0x3c, 0x10, 0x99, 0xa0, 0x3d, 0x83, 0x56, 0x41, 0xbb, 0xe3, 0x17, 0x54, 0xbc, 0x3a, 0x3c, 0x46, 0x3d, 0x5f, 0x63, 0x56, 0xbd, 0xbc, 0xdb, 0x65, 0x3e, 
0xcb, 0x4d, 0x1f, 0x3e, 0x3f, 0xef, 0x4b, 0x3d, 0xf4, 0x3b, 0x60, 0x3e, 0x4e, 0xc2, 0xd4, 0xbc, 0x0e, 0x90, 0xf3, 0x3d, 0x6f, 0xf7, 0x95, 0x3d, 0x65, 0xf1, 0xfc, 0x3d, 0x10, 0x8f, 0x0b, 0x3e, 
0xd1, 0x32, 0x38, 0x3e, 0xab, 0x32, 0xd8, 0xbc, 0x0b, 0xf3, 0x1e, 0x3e, 0xa8, 0x69, 0xc9, 0x3d, 0xe0, 0x7d, 0xab, 0x3d, 0x52, 0x5d, 0x67, 0x3c, 0xaa, 0x22, 0x08, 0x3d, 0xb1, 0xbe, 0xdc, 0x3c, 
0x35, 0x7a, 0x50, 0xbd, 0x57, 0xf0, 0x94, 0x3d, 0xaa, 0x31, 0x17, 0xbb, 0xc0, 0x62, 0x4f, 0x3d, 0xfa, 0xb6, 0xa0, 0xbd, 0x7e, 0x10, 0x85, 0x3c, 0x0b, 0x5e, 0x29, 0x3b, 0xc7, 0xf9, 0xaf, 0x3d, 
0x04, 0xea, 0x07, 0x3e, 0xbb, 0x58, 0x45, 0xbd, 0x59, 0x54, 0x05, 0x3e, 0xec, 0x93, 0x93, 0xbc, 0xc3, 0x23, 0x8d, 0xbd, 0xb0, 0x35, 0x00, 0xbe, 0x50, 0x39, 0x86, 0xbd, 0xdd, 0x26, 0x6e, 0x3d, 
0xc5, 0x19, 0xc6, 0xbd, 0x3e, 0xac, 0xcd, 0x3d, 0x17, 0xb0, 0x74, 0x3d, 0x57, 0xe5, 0xe1, 0xbc, 0xf2, 0x34, 0xe9, 0x3c, 0xa7, 0xd9, 0x7e, 0x3c, 0xbb, 0x4d, 0x6e, 0x3b, 0x98, 0xdd, 0xe5, 0xbd, 
0xdb, 0x2f, 0x82, 0xbd, 0x98, 0x8a, 0x71, 0x3d, 0x15, 0x61, 0x15, 0xbc, 0x26, 0xdd, 0x31, 0x3d, 0x71, 0x19, 0x1a, 0xbd, 0x8c, 0xb7, 0x38, 0x3d, 0x48, 0x0c, 0xd8, 0xbd, 0xc3, 0xec, 0x9e, 0x3d, 
0xe6, 0x2e, 0xd4, 0x3d, 0xf5, 0xa6, 0x2b, 0x3e, 0x08, 0x5f, 0xe4, 0xbd, 0x2f, 0x5c, 0xf8, 0x3d, 0xcd, 0x86, 0xc3, 0x3c, 0x0e, 0x1e, 0xcf, 0x3b, 0x59, 0x49, 0xba, 0x3b, 0x23, 0xd4, 0x69, 0xbe, 
0x6c, 0x3d, 0x48, 0xbb, 0x39, 0xdd, 0x9f, 0xbd, 0x20, 0xa6, 0x3a, 0x3d, 0x8a, 0x67, 0xb7, 0x3c, 0x35, 0xe6, 0xbb, 0xbd, 0x4e, 0xe4, 0xa5, 0xbd, 0xf1, 0x49, 0x0a, 0xbd, 0xd6, 0x10, 0xfb, 0x3c, 
0x6a, 0x16, 0xd7, 0x3d, 0x5d, 0x8a, 0xf7, 0xbd, 0x4e, 0x1b, 0x31, 0xbd, 0x5f, 0xfa, 0x3a, 0x3d, 0x58, 0x5d, 0x1e, 0xbe, 0x43, 0x1e, 0x86, 0x3c, 0x62, 0x09, 0x8e, 0x3d, 0xc1, 0xcd, 0x68, 0x3b, 
0x2f, 0x3e, 0xb3, 0xbd, 0xf0, 0x02, 0x5a, 0x3e, 0x93, 0xf5, 0xb3, 0xbd, 0x39, 0x66, 0x23, 0xbe, 0x2e, 0x06, 0x86, 0xbd, 0xd6, 0x1e, 0x75, 0x3d, 0x17, 0xd2, 0xb9, 0x3d, 0x70, 0x48, 0x68, 0xbd, 
0x56, 0xf7, 0x1f, 0x3e, 0x68, 0xaf, 0xd1, 0x3a, 0x9a, 0x68, 0xf9, 0xbc, 0xf3, 0x18, 0x05, 0xbe, 0x49, 0xda, 0x83, 0xbd, 0x4c, 0xb3, 0x30, 0xbe, 0x1b, 0x19, 0x04, 0x3d, 0x02, 0x64, 0x96, 0x3d, 
0xcb, 0x46, 0x70, 0x3d, 0x68, 0x51, 0xba, 0x3d, 0xbb, 0xd7, 0x16, 0xbd, 0xb0, 0x2e, 0x02, 0x3d, 0x79, 0x5c, 0xe4, 0xbc, 0x5c, 0x69, 0xc0, 0xbd, 0x88, 0x13, 0xd2, 0xbd, 0x2f, 0x7e, 0x2d, 0x3e, 
0x64, 0x49, 0xe8, 0xbd, 0xf2, 0xb3, 0xc8, 0x3c, 0xb6, 0xa1, 0xc1, 0xbc, 0x9a, 0x6e, 0x98, 0xbd, 0x58, 0xfd, 0x81, 0xbd, 0x6a, 0xa1, 0x15, 0xbe, 0x1f, 0x35, 0x64, 0xbd, 0x65, 0x1d, 0xa9, 0xbb, 
0x1d, 0x62, 0x01, 0x3d, 0x48, 0xbb, 0x08, 0xbe, 0x52, 0x18, 0xbb, 0xbd, 0x6f, 0x75, 0x2d, 0xbc, 0x3c, 0x7f, 0x10, 0xbe, 0x89, 0x03, 0xeb, 0xbc, 0x92, 0x2f, 0x2f, 0xbd, 0x9d, 0x6d, 0x53, 0xbe, 
0x44, 0xf5, 0x56, 0xbd, 0xa6, 0x72, 0x34, 0xbd, 0xa3, 0x02, 0x7c, 0x3d, 0xec, 0xa6, 0x1d, 0xbe, 0x81, 0x96, 0x65, 0x3c, 0xb6, 0xa4, 0x18, 0xbe, 0xd9, 0x49, 0x3a, 0x3d, 0xc0, 0xcd, 0x3a, 0xbd, 
0x3c, 0xcc, 0x0d, 0xbe, 0x4c, 0x07, 0xf2, 0xbd, 0xa0, 0xbe, 0x52, 0xbe, 0x28, 0x89, 0x48, 0xbe, 0x11, 0xc5, 0xfb, 0x3c, 0x13, 0x03, 0x76, 0x3d, 0xcf, 0x37, 0x90, 0xbd, 0x41, 0xa4, 0x53, 0xbe, 
0x2d, 0x93, 0xaa, 0xbe, 0x83, 0xb9, 0x2a, 0xbe, 0x3c, 0x00, 0x2b, 0xbd, 0x2e, 0xbe, 0xf3, 0x3c, 0x1d, 0xc4, 0xd8, 0xbd, 0xc2, 0xd5, 0x03, 0xbe, 0xa6, 0x37, 0x04, 0xbd, 0x71, 0xcd, 0x82, 0xbe, 
0x8d, 0xed, 0xb1, 0xbd, 0x3d, 0x22, 0x26, 0x3d, 0xf4, 0x72, 0xa0, 0xbd, 0x3e, 0x57, 0xb2, 0xbd, 0x06, 0x54, 0x92, 0x3c, 0x42, 0x45, 0x6b, 0xbe, 0x92, 0x04, 0xef, 0xbd, 0xaa, 0x64, 0x07, 0xbe, 
0x30, 0xfc, 0x00, 0x3e, 0xdd, 0x6e, 0xa8, 0xbd, 0x54, 0xba, 0xa6, 0xbd, 0x1a, 0xe5, 0x29, 0xbe, 0x9c, 0x1c, 0xd5, 0x3d, 0x13, 0x99, 0x7c, 0x3d, 0xc9, 0x21, 0x39, 0x3d, 0x2e, 0x15, 0x0f, 0xbb, 
0xf4, 0x8c, 0x69, 0x3d, 0xb5, 0x89, 0x98, 0x3c, 0xa8, 0x6e, 0xf9, 0x3d, 0xb9, 0x07, 0x9d, 0x3d, 0x9a, 0x84, 0x1a, 0x3e, 0x8f, 0x9b, 0xb6, 0xbd, 0x5c, 0xb4, 0xf2, 0x3a, 0x20, 0xb6, 0xa7, 0xbd, 
0xd1, 0x27, 0x11, 0x3e, 0xb4, 0x29, 0xd3, 0x3d, 0x99, 0x38, 0x53, 0x3e, 0x5e, 0xb4, 0x0a, 0xbd, 0x57, 0xc4, 0x97, 0xbd, 0xc9, 0x3d, 0xcd, 0xbd, 0xa3, 0x22, 0x83, 0x3d, 0xcc, 0x97, 0x2c, 0xbc, 
0x0f, 0x85, 0x50, 0xbc, 0xfa, 0x69, 0xaa, 0xbc, 0x7e, 0x97, 0x78, 0x3d, 0x44, 0xfe, 0x03, 0xbe, 0x63, 0x45, 0xe1, 0x3d, 0x6e, 0x01, 0x71, 0xbc, 0xc4, 0x24, 0x8f, 0xbd, 0x83, 0x2c, 0x2e, 0xbd, 
0x50, 0x99, 0x5d, 0xbd, 0xa8, 0xeb, 0x1e, 0xbe, 0x8b, 0xac, 0x06, 0x3e, 0xc7, 0xc8, 0xca, 0xbc, 0x75, 0x29, 0x11, 0x3c, 0xfe, 0x6f, 0xd1, 0xbd, 0xe9, 0x31, 0x38, 0xbe, 0x39, 0xf9, 0x1d, 0xbe, 
0xfb, 0xc8, 0x25, 0xbe, 0x4d, 0xb8, 0x9e, 0xbc, 0xc7, 0xa9, 0x61, 0xbd, 0xb5, 0x5d, 0x3e, 0xbb, 0xf4, 0x3e, 0x0d, 0xbe, 0xf4, 0x44, 0x7c, 0xbc, 0x8c, 0xa8, 0xba, 0xbd, 0x8e, 0x18, 0xde, 0xbb, 
0x3f, 0xce, 0x45, 0xbe, 0x65, 0x64, 0x30, 0xbd, 0x9d, 0x37, 0x96, 0xbe, 0x13, 0xe5, 0x52, 0xbe, 0x05, 0xfa, 0x84, 0xbe, 0xc8, 0x32, 0x71, 0x3d, 0x33, 0x82, 0x8a, 0x3c, 0x05, 0xfd, 0xd2, 0xbd, 
0x3b, 0x56, 0x95, 0x3d, 0xee, 0xed, 0xfc, 0xbd, 0xcb, 0x77, 0x57, 0xbe, 0xb6, 0xd6, 0xa8, 0xbe, 0xc9, 0x38, 0x2e, 0x3d, 0xd2, 0x51, 0xd8, 0x3d, 0x69, 0x81, 0x84, 0x3d, 0xc6, 0xf4, 0x62, 0xbe, 
0x3f, 0x9b, 0x90, 0x3b, 0x50, 0x2d, 0x09, 0x3e, 0xdd, 0x04, 0x02, 0x3e, 0xfc, 0x8b, 0x44, 0x3e, 0x56, 0x76, 0xb0, 0xbc, 0x41, 0x4a, 0x91, 0x3c, 0x87, 0x87, 0x28, 0xbd, 0x37, 0x0e, 0x96, 0xbd, 
0xd9, 0x9b, 0x0a, 0xbd, 0x1b, 0x67, 0x92, 0xbd, 0x4b, 0xb1, 0x9c, 0xbc, 0x2d, 0x47, 0x0b, 0xbd, 0xf2, 0x8d, 0x32, 0xbe, 0x7e, 0xc3, 0x26, 0xbd, 0xd2, 0x1c, 0xcc, 0xbd, 0x6d, 0x10, 0x53, 0x3d, 
0xfc, 0x0e, 0xb6, 0x3d, 0xda, 0xbf, 0x48, 0x3e, 0xb2, 0x3f, 0x16, 0xbe, 0x90, 0xb7, 0xdd, 0xbd, 0x5e, 0xed, 0xf8, 0xbd, 0x4c, 0x2d, 0x00, 0x3d, 0xfa, 0xb1, 0x5b, 0xbd, 0x9a, 0x0c, 0x21, 0x3d, 
0x8e, 0xd5, 0x5b, 0xbe, 0xdc, 0xed, 0xd2, 0xbd, 0x6f, 0xbc, 0xa7, 0xbb, 0x5c, 0xa1, 0x39, 0x3d, 0xd0, 0xa4, 0xa5, 0xbd, 0x58, 0x4c, 0xc9, 0x3d, 0x4c, 0x16, 0x27, 0xbd, 0x27, 0xff, 0x2e, 0xbd, 
0x03, 0xba, 0x3f, 0x3e, 0x2d, 0x19, 0xbc, 0xbc, 0x86, 0x5c, 0xc6, 0x3d, 0xef, 0xe9, 0xa3, 0x3d, 0x0f, 0x2c, 0xf6, 0xbc, 0xb8, 0x3d, 0x93, 0x3b, 0x16, 0x0c, 0xb1, 0xbd, 0xcc, 0x21, 0xbb, 0x3b, 
0xbf, 0x92, 0xae, 0xbd, 0x3a, 0xe4, 0x30, 0x3d, 0x68, 0xd4, 0xac, 0x3d, 0x36, 0x06, 0xf6, 0x3d, 0x46, 0x2c, 0xad, 0xbd, 0x3d, 0xe9, 0x71, 0xbc, 0x0b, 0x7c, 0x85, 0x3d, 0x0d, 0x48, 0x38, 0x3e, 
0xc5, 0xa6, 0x2a, 0x3d, 0xa3, 0x1b, 0xff, 0xbd, 0xca, 0xaf, 0xa1, 0x3e, 0xfb, 0xea, 0x00, 0x3e, 0x76, 0xb6, 0xca, 0x3d, 0xd7, 0x5e, 0x83, 0xbd, 0x69, 0xe6, 0x44, 0x3e, 0x9e, 0x0b, 0x98, 0x3d, 
0x8d, 0x7f, 0x37, 0x3d, 0x84, 0x88, 0x08, 0x3e, 0xc8, 0xdc, 0x99, 0x3d, 0xae, 0x19, 0xba, 0x3d, 0xec, 0x97, 0xd7, 0x3d, 0xd6, 0x1c, 0xd9, 0x3d, 0xbf, 0x39, 0xc5, 0x3c, 0x0d, 0x78, 0x05, 0xbd, 
0xd4, 0xc6, 0xf9, 0x3c, 0x63, 0x72, 0x86, 0xbd, 0x21, 0xb2, 0x2e, 0xbb, 0xf6, 0x5a, 0x3b, 0xbc, 0xfe, 0xcc, 0xe5, 0xbc, 0x49, 0x17, 0x07, 0xbb, 0xd3, 0xca, 0x01, 0xbe, 0x78, 0x5d, 0x8c, 0xbd, 
0xeb, 0x46, 0xc5, 0xbd, 0x34, 0x86, 0xf0, 0x3c, 0x5c, 0x84, 0x87, 0xbd, 0x39, 0xdc, 0xae, 0xbc, 0x67, 0x5a, 0x14, 0x3d, 0xb2, 0x4d, 0x36, 0xbe, 0xf2, 0x2d, 0x2f, 0x3d, 0x77, 0x0a, 0xef, 0x3d, 
0x9c, 0x1e, 0xd8, 0xbd, 0x36, 0x8c, 0xbc, 0xbd, 0xeb, 0x96, 0xbd, 0x3d, 0x5d, 0xc2, 0xfb, 0x3b, 0x60, 0x93, 0xd9, 0xbc, 0xa3, 0x28, 0xbb, 0x3c, 0x2c, 0xb9, 0xcc, 0x3b, 0x2d, 0x6d, 0x13, 0xbe, 
0xff, 0x35, 0x28, 0xbe, 0xbd, 0x44, 0xc1, 0xbd, 0xc1, 0x03, 0x60, 0x3d, 0x1b, 0x3c, 0xa7, 0x3c, 0x66, 0x73, 0xb7, 0xbd, 0xc8, 0x63, 0x37, 0x3d, 0xa5, 0xee, 0x92, 0xbd, 0xb4, 0x17, 0xf8, 0x3c, 
0x3a, 0xd1, 0xa6, 0x3a, 0xf8, 0x7e, 0x0f, 0x3e, 0xd6, 0x81, 0xc1, 0x3d, 0x4a, 0xdf, 0x7f, 0xbc, 0xea, 0x3f, 0x39, 0x3d, 0x6e, 0x6b, 0x65, 0xbd, 0x71, 0xcb, 0x97, 0x3d, 0xc2, 0x77, 0xc2, 0xbc, 
0x7a, 0x07, 0xc2, 0xbd, 0x60, 0xc1, 0x69, 0xbd, 0xad, 0xeb, 0xac, 0xbd, 0x4e, 0xd0, 0xda, 0xbc, 0xcb, 0x71, 0x9a, 0xbc, 0x9c, 0x21, 0x3f, 0xbd, 0xb6, 0x4e, 0x45, 0xbd, 0x56, 0x8b, 0x2e, 0x3d, 
0x4f, 0x6a, 0x96, 0x3d, 0x28, 0x6d, 0xd9, 0xbb, 0x1c, 0x3d, 0xe7, 0x3d, 0xd8, 0x95, 0x45, 0x39, 0x25, 0x85, 0xef, 0x3d, 0x73, 0x87, 0xa4, 0x3d, 0x1b, 0xbd, 0x65, 0x3e, 0xfc, 0x49, 0x3d, 0xbe, 
0xc4, 0x1b, 0x2f, 0x3e, 0x59, 0xdd, 0x3d, 0x3d, 0xa1, 0x58, 0x0a, 0x3d, 0xa8, 0x95, 0x44, 0xbe, 0xa4, 0xdb, 0x04, 0x3d, 0xc0, 0xfe, 0xa9, 0x3d, 0x4a, 0x0a, 0x29, 0xbe, 0x51, 0x6b, 0xdb, 0x3d, 
0xc6, 0x6e, 0xae, 0x3a, 0x76, 0xbc, 0xc0, 0xbc, 0x18, 0x94, 0x7c, 0x3d, 0x56, 0xcb, 0x8f, 0xbd, 0xea, 0xb8, 0x15, 0xbe, 0x5e, 0x90, 0x72, 0xbd, 0xc9, 0x7f, 0xc3, 0xbb, 0x1d, 0xb0, 0x06, 0x3d, 
0xa4, 0xe0, 0x83, 0xbd, 0x15, 0x56, 0xaf, 0xbd, 0x27, 0x48, 0x14, 0x3e, 0x11, 0x37, 0x49, 0xbd, 0x4d, 0x6b, 0x6d, 0x3a, 0xaf, 0x93, 0xfb, 0xbc, 0xda, 0x69, 0x9f, 0xbd, 0xbc, 0x7f, 0x2d, 0x3d, 
0x0b, 0x47, 0xdd, 0x3d, 0x34, 0xe1, 0xda, 0xbd, 0x7f, 0x8a, 0x3f, 0xbe, 0xd7, 0xe5, 0x10, 0xbe, 0x95, 0x9d, 0x3a, 0x3c, 0x91, 0x8c, 0xc3, 0x3c, 0x51, 0xe3, 0xae, 0xbe, 0xd7, 0xb2, 0x38, 0xbe, 
0xd8, 0x00, 0x54, 0xbe, 0xc0, 0x17, 0x80, 0xbd, 0x0f, 0x04, 0xe8, 0xbd, 0x7d, 0x74, 0x3f, 0xbc, 0x00, 0x15, 0x29, 0x3d, 0x39, 0xaa, 0x93, 0x3d, 0x6c, 0x13, 0xd2, 0x3d, 0xa3, 0x7a, 0xfe, 0x3c, 
0x6a, 0xdf, 0x38, 0x3e, 0x19, 0x93, 0x26, 0xbe, 0xa5, 0xa8, 0xbe, 0x3d, 0x7c, 0x71, 0xc2, 0x3d, 0x31, 0x6e, 0x78, 0x3d, 0x9c, 0xd9, 0x0d, 0x3e, 0xb7, 0x6b, 0x91, 0x3b, 0x02, 0xfc, 0xe4, 0x3d, 
0x60, 0xc6, 0x62, 0xbb, 0xdd, 0x74, 0x23, 0xbc, 0xd9, 0x36, 0x66, 0x3d, 0xd6, 0x86, 0xdb, 0x3c, 0xfa, 0x11, 0x77, 0x3d, 0x3f, 0x0b, 0xf2, 0xbd, 0xba, 0x12, 0x44, 0xbd, 0xcf, 0xe2, 0x40, 0x3e, 
0x88, 0x8e, 0xbe, 0xbd, 0xb0, 0xfa, 0x76, 0x3d, 0xc2, 0x7e, 0xea, 0x3d, 0x84, 0x05, 0x01, 0x3e, 0x52, 0xf6, 0x81, 0x3e, 0x46, 0xf1, 0x97, 0x3c, 0x65, 0xd2, 0x05, 0x3e, 0x5d, 0xa7, 0xf8, 0x3d, 
0x01, 0xdd, 0x02, 0x3e, 0x85, 0xa9, 0x7b, 0xbe, 0xd6, 0xba, 0x92, 0xbd, 0x7f, 0x47, 0x5b, 0x3e, 0x89, 0x09, 0x18, 0xbc, 0x63, 0x77, 0x5d, 0xbc, 0x94, 0x1b, 0x01, 0x3d, 0xc1, 0x95, 0x8a, 0xbd, 
0xc2, 0x8c, 0x2d, 0x3c, 0x85, 0x61, 0x95, 0x3d, 0x68, 0x32, 0xec, 0xbd, 0x0e, 0xf5, 0xb5, 0x3d, 0x14, 0x62, 0x32, 0x3d, 0x9a, 0xe7, 0xcb, 0xbd, 0x58, 0xf4, 0x47, 0xbd, 0xfc, 0x90, 0x30, 0xbd, 
0x1b, 0xfe, 0xf3, 0x3d, 0x1b, 0xfc, 0x90, 0xbd, 0xbf, 0x68, 0xd3, 0xbc, 0x86, 0xf4, 0x8a, 0x3b, 0xed, 0x77, 0x79, 0x3d, 0x0e, 0xdf, 0x1e, 0x3e, 0x13, 0xbb, 0x16, 0x3e, 0x37, 0x30, 0x2e, 0x3d, 
0x8d, 0xab, 0x95, 0x3d, 0xd8, 0xea, 0xa3, 0xbd, 0x7f, 0xd2, 0x15, 0xbc, 0x63, 0x21, 0x64, 0xbd, 0x8d, 0x60, 0x98, 0xbd, 0x25, 0x53, 0x39, 0xbe, 0xc1, 0x33, 0x39, 0xbe, 0xd5, 0x19, 0x0a, 0xbd, 
0x4a, 0x0d, 0x50, 0xbe, 0xa7, 0xf4, 0x06, 0xbe, 0x70, 0x54, 0x91, 0xbd, 0x75, 0x21, 0x42, 0xbe, 0x8c, 0x9c, 0x60, 0xbc, 0x2a, 0xf4, 0x33, 0xbe, 0x57, 0x79, 0x0c, 0xbd, 0x22, 0x00, 0x78, 0xbc, 
0xf8, 0x76, 0x57, 0x3d, 0x6d, 0xc1, 0x6c, 0x3c, 0xa5, 0xf6, 0x1c, 0x3e, 0xfe, 0x11, 0x01, 0x3e, 0x5a, 0x06, 0x19, 0x3d, 0x54, 0xb9, 0xd3, 0x3d, 0x31, 0x71, 0xca, 0x3a, 0x0a, 0xa8, 0xb7, 0xbd, 
0x74, 0xc2, 0x3d, 0x3e, 0xe2, 0x4c, 0xc4, 0x3d, 0x0f, 0xee, 0x86, 0xbd, 0x8e, 0x3b, 0xf4, 0x3d, 0x3f, 0xcb, 0x32, 0x3e, 0xf9, 0x64, 0xee, 0x3d, 0x6c, 0x9d, 0x3c, 0xbe, 0xfc, 0x16, 0xbf, 0x3c, 
0xee, 0x58, 0xd8, 0xbd, 0xb6, 0x09, 0x09, 0x3e, 0xec, 0x06, 0xad, 0x3c, 0xaa, 0x8e, 0x52, 0x3d, 0x63, 0xa6, 0x3d, 0x3d, 0x29, 0xed, 0x6c, 0xbd, 0xae, 0xcb, 0xa9, 0x3d, 0xe1, 0x75, 0xf6, 0xbd, 
0x9f, 0x5c, 0x56, 0x3d, 0x80, 0x40, 0x22, 0x3e, 0xd2, 0x65, 0x42, 0x3e, 0x04, 0x82, 0x62, 0xbc, 0x96, 0x53, 0xc0, 0x3d, 0x9b, 0x7a, 0x42, 0x3e, 0xb5, 0xa0, 0x0c, 0x3e, 0xd8, 0xed, 0x2d, 0x3e, 
0x9e, 0x2f, 0x55, 0xbc, 0xd8, 0x87, 0x01, 0x3d, 0x10, 0x68, 0x15, 0xbd, 0x9b, 0xf2, 0x8f, 0xbd, 0xce, 0xe7, 0xe1, 0x3d, 0x66, 0xb0, 0x73, 0x3d, 0xbb, 0x6f, 0x0a, 0x3d, 0x8d, 0x53, 0xe1, 0x3d, 
0xdb, 0x39, 0x41, 0x3c, 0x86, 0xe4, 0xbb, 0x3d, 0x53, 0x9b, 0x85, 0xbd, 0x8d, 0x28, 0x02, 0x3c, 0xa9, 0x85, 0x8c, 0xbd, 0xcb, 0xc4, 0x2c, 0xbe, 0x9f, 0x0d, 0x09, 0xbe, 0x8a, 0x75, 0xdd, 0xbd, 
0x97, 0x77, 0x59, 0xbe, 0x1c, 0xf3, 0x3b, 0xbe, 0xb0, 0x85, 0xe0, 0xbd, 0xc6, 0x37, 0x6b, 0x3d, 0xa3, 0x73, 0xad, 0x3d, 0xf5, 0xdf, 0x13, 0x3d, 0xb4, 0xaf, 0xae, 0x3d, 0xd9, 0x3c, 0x19, 0x3e, 
0x9c, 0x57, 0x81, 0x3c, 0x3e, 0x96, 0x85, 0x3d, 0x7a, 0x8d, 0x56, 0x3d, 0x7e, 0x7c, 0x82, 0x3d, 0xbc, 0x91, 0xfd, 0xbd, 0x16, 0xc2, 0x83, 0xbd, 0xc2, 0x0e, 0xbc, 0xbd, 0xe7, 0x71, 0x5e, 0xbe, 
0xbd, 0x6d, 0xa8, 0xbe, 0xf3, 0xbe, 0x07, 0xbe, 0x5e, 0x15, 0x9c, 0xbc, 0xc3, 0xef, 0xd7, 0x3c, 0x30, 0x3b, 0x5d, 0xbd, 0x74, 0x94, 0x5c, 0xbd, 0xf1, 0x9e, 0x09, 0xbc, 0x1e, 0x99, 0x90, 0x3d, 
0xf6, 0x15, 0x1b, 0x3d, 0x22, 0xd7, 0x05, 0x3e, 0xc6, 0x6b, 0xa0, 0x3d, 0x16, 0x54, 0x58, 0xbd, 0x7c, 0x5f, 0x55, 0xbd, 0x83, 0x71, 0x99, 0xbc, 0x6d, 0x2b, 0x5b, 0xbe, 0x47, 0xf1, 0xac, 0x3d, 
0xcd, 0x12, 0xdb, 0xbd, 0xcb, 0x0c, 0x67, 0xbe, 0x1e, 0x79, 0x9c, 0xbe, 0x53, 0x37, 0x04, 0xbe, 0x52, 0x37, 0x9e, 0xbd, 0xaf, 0x60, 0x17, 0x3e, 0xa5, 0x6a, 0x0a, 0xbd, 0xd4, 0x71, 0x3e, 0x3e, 
0x33, 0xbf, 0x01, 0xbd, 0x85, 0xec, 0x7c, 0xbe, 0xbd, 0x53, 0x23, 0xbe, 0xa7, 0x3d, 0x4b, 0xbe, 0xbc, 0xa0, 0xfa, 0xbd, 0xd4, 0x28, 0x8a, 0xbd, 0xb6, 0xbc, 0xb6, 0x3d, 0x7e, 0x51, 0x3d, 0x3c, 
0x91, 0xfc, 0x82, 0xbd, 0xd4, 0x89, 0x48, 0x3d, 0x0f, 0xe8, 0xbf, 0x3d, 0xf9, 0x56, 0x17, 0x3e, 0x54, 0x76, 0xc4, 0xbd, 0x86, 0x0e, 0x0b, 0xbe, 0x7e, 0xa9, 0xec, 0xbd, 0xdc, 0x9c, 0xae, 0x3c, 
0xb9, 0x8f, 0xce, 0xbc, 0xbd, 0xf8, 0x44, 0x3c, 0x8d, 0x5c, 0xe5, 0xbd, 0xb3, 0xb2, 0x0a, 0x3e, 0x65, 0x29, 0xb5, 0xbc, 0x78, 0x4c, 0x82, 0x3e, 0xba, 0x67, 0x34, 0x3c, 0x64, 0x1d, 0x02, 0x3d, 
0x35, 0x14, 0x13, 0xbe, 0xad, 0xa6, 0xaa, 0xbd, 0x22, 0x5a, 0x51, 0xbc, 0xcd, 0xed, 0x60, 0x3e, 0xe9, 0x95, 0x33, 0x3e, 0x3e, 0x4f, 0xed, 0x3b, 0x04, 0x0b, 0xb1, 0xbd, 0x1f, 0x9f, 0x10, 0xbe, 
0xc7, 0x42, 0x6f, 0xbd, 0x1e, 0xc3, 0xe5, 0x3d, 0xf1, 0xd5, 0xfc, 0x3d, 0xde, 0x31, 0x7b, 0x3c, 0x13, 0x5c, 0xdd, 0x3d, 0x4e, 0x97, 0xd9, 0xbc, 0xe9, 0xfa, 0x40, 0xbc, 0x53, 0x28, 0x1c, 0xbc, 
0x84, 0x51, 0x70, 0x3e, 0x2e, 0x6d, 0xa0, 0xbd, 0xb9, 0xe1, 0x8c, 0x3d, 0xf0, 0x36, 0x78, 0xbd, 0x56, 0x80, 0xa2, 0xbd, 0x9b, 0xad, 0x9f, 0x3d, 0xe6, 0x12, 0x60, 0x3c, 0xe4, 0xd4, 0xd3, 0xbc, 
0x08, 0xb4, 0x57, 0xbc, 0xeb, 0x0c, 0xc3, 0x3c, 0x9d, 0x9a, 0xac, 0x3d, 0xf5, 0x4f, 0x1d, 0xbe, 0xb3, 0x60, 0xb3, 0xbd, 0xc6, 0x0b, 0x05, 0x3e, 0xc7, 0x13, 0x80, 0xbd, 0x68, 0x9d, 0x8c, 0x3c, 
0x53, 0xd4, 0x4a, 0xbd, 0x80, 0x6c, 0x0e, 0x3e, 0xac, 0x1d, 0x27, 0x3c, 0x7d, 0x4d, 0x1f, 0xbe, 0x65, 0x5a, 0xae, 0xbb, 0x37, 0x4a, 0x6a, 0xbd, 0x57, 0x9c, 0x3d, 0x3e, 0x1b, 0x0f, 0x03, 0x3e, 
0xd5, 0x84, 0x25, 0x3e, 0xac, 0x75, 0x36, 0xbd, 0x3e, 0xcd, 0xa2, 0xbd, 0x59, 0x46, 0x27, 0x3e, 0x9a, 0xab, 0x10, 0x3d, 0xa9, 0x5d, 0x0f, 0x3e, 0x89, 0x05, 0x53, 0xbc, 0x7c, 0xae, 0x4f, 0xbd, 
0xd7, 0x82, 0x22, 0xbd, 0x16, 0x70, 0xb2, 0x3c, 0x35, 0x01, 0x25, 0x3c, 0x93, 0xf1, 0xf4, 0xbd, 0x42, 0x79, 0x1b, 0xbd, 0x52, 0x57, 0x64, 0xbd, 0x83, 0x8f, 0x1b, 0xbe, 0xb2, 0x19, 0x00, 0xbe, 
0xf3, 0x0f, 0x13, 0x3c, 0x7b, 0x3a, 0xd0, 0x3d, 0x1d, 0xd3, 0x69, 0x3d, 0x66, 0x1d, 0x3f, 0x3d, 0xca, 0x1e, 0x5b, 0x3d, 0xa6, 0x13, 0xdf, 0x3d, 0x55, 0x90, 0x04, 0x3c, 0x30, 0xf5, 0x34, 0x3e, 
0x0e, 0x6a, 0xfb, 0xbb, 0x27, 0x68, 0x51, 0x3d, 0x32, 0x3c, 0x0c, 0x3e, 0x20, 0x3c, 0xae, 0x3d, 0x4a, 0x9e, 0xfd, 0x3d, 0x7b, 0x82, 0x2a, 0x3e, 0xba, 0x98, 0xd2, 0x3d, 0xda, 0x8e, 0xb0, 0xbd, 
0xd9, 0xfc, 0x64, 0xbc, 0xd6, 0x7d, 0x84, 0xbd, 0xe8, 0xf7, 0x6d, 0xbd, 0x3e, 0x1e, 0x58, 0xbe, 0xde, 0xf0, 0xb7, 0xbd, 0x56, 0xb4, 0xd2, 0xbd, 0x32, 0xd7, 0x76, 0xbd, 0x67, 0x74, 0xcd, 0xbd, 
0x20, 0xf8, 0x80, 0x3d, 0xe3, 0x0f, 0xea, 0x3d, 0x96, 0x50, 0x00, 0x3e, 0x66, 0xe6, 0xed, 0xbd, 0xdb, 0xff, 0x68, 0xbd, 0x99, 0x07, 0x19, 0x3e, 0x60, 0xd1, 0xc3, 0x3d, 0xf2, 0xdf, 0x61, 0xbc, 
0x70, 0xcf, 0xbc, 0x3d, 0xa1, 0x2e, 0xbe, 0x3d, 0x2a, 0xad, 0x9b, 0xbd, 0x57, 0xd9, 0x88, 0xbd, 0x41, 0xa1, 0x33, 0x3d, 0xb7, 0xc0, 0x06, 0x3e, 0x59, 0xf0, 0x9c, 0x3d, 0x8a, 0x75, 0xe0, 0xbd, 
0xb0, 0xdd, 0x06, 0x3e, 0x17, 0xc0, 0x36, 0x3e, 0x1d, 0xb2, 0x01, 0xbe, 0xcc, 0x87, 0x91, 0xbd, 0x06, 0x88, 0x45, 0xbe, 0x44, 0x0c, 0x1e, 0x3c, 0x3b, 0xe5, 0x26, 0x3c, 0xcf, 0x6f, 0x81, 0xbd, 
0x1a, 0x43, 0xde, 0xbc, 0x78, 0x46, 0xf0, 0xbd, 0xf0, 0xf6, 0x19, 0xbc, 0x11, 0x72, 0xba, 0x3d, 0xb1, 0xee, 0x32, 0x3d, 0xd2, 0x22, 0x0a, 0x3e, 0x2f, 0x31, 0xca, 0x3d, 0x0f, 0x87, 0x35, 0x3d, 
0xa6, 0xcb, 0xf3, 0xbb, 0x16, 0x6e, 0xd8, 0x3b, 0x3f, 0x93, 0xc9, 0x3d, 0x70, 0x2e, 0xf8, 0xbd, 0x04, 0xbe, 0x88, 0xbc, 0xc3, 0xfe, 0x7c, 0x3d, 0x27, 0xdb, 0x8a, 0x3c, 0x79, 0x77, 0x09, 0xbe, 
0x1a, 0xb1, 0x4c, 0xbd, 0xd9, 0x16, 0xa0, 0xbd, 0x18, 0x2e, 0xa3, 0xbb, 0x52, 0x5b, 0x09, 0xbc, 0xb7, 0x01, 0xf8, 0xbd, 0xa5, 0xe1, 0x5a, 0xbe, 0x06, 0x85, 0xe8, 0xbd, 0x34, 0xee, 0x22, 0xbe, 
0xee, 0x14, 0x96, 0xbd, 0x2e, 0xd4, 0xed, 0xbc, 0x01, 0xa1, 0x66, 0x3d, 0xa9, 0x97, 0x9d, 0x3d, 0xd7, 0x5f, 0x74, 0x3d, 0x79, 0x28, 0xec, 0x3c, 0x90, 0x21, 0xc7, 0x3d, 0x89, 0x77, 0x94, 0x3d, 
0xb7, 0xbe, 0xc7, 0x3c, 0x03, 0x0e, 0xbe, 0x3c, 0xaa, 0xd5, 0x4f, 0xbb, 0x7f, 0xbb, 0xd7, 0xbd, 0x5c, 0x52, 0x24, 0x3c, 0x24, 0xd4, 0x85, 0xbc, 0x0c, 0xea, 0xcf, 0xbd, 0x9b, 0x49, 0x76, 0xbe, 
0x37, 0xc0, 0x2f, 0x3e, 0xe8, 0xaa, 0xd3, 0x3c, 0xfb, 0x9a, 0x5d, 0xbd, 0x2c, 0xf0, 0x14, 0x3b, 0xf6, 0x19, 0x13, 0xbe, 0x53, 0x8f, 0xdb, 0x3d, 0x73, 0x10, 0xcb, 0x3d, 0xed, 0x3a, 0xac, 0xbd, 
0x76, 0x60, 0x81, 0x3d, 0x45, 0xbc, 0x2d, 0x3e, 0xd6, 0x94, 0x41, 0x3e, 0x6b, 0x0b, 0x04, 0xbe, 0x39, 0xbc, 0x0b, 0x3e, 0xe5, 0x87, 0xcd, 0xbd, 0xd1, 0x8a, 0x69, 0x3d, 0xd1, 0x9a, 0x74, 0x3d, 
0x53, 0x4c, 0xb8, 0xbd, 0x46, 0xb1, 0x3c, 0x3c, 0x07, 0x47, 0x2f, 0x3e, 0x88, 0x90, 0x5b, 0x3c, 0x05, 0x6f, 0xad, 0x3d, 0xba, 0x82, 0x3c, 0xbb, 0x1a, 0xb3, 0x1b, 0x3d, 0x9d, 0xc8, 0xed, 0x3d, 
0xfa, 0x2c, 0x27, 0xbd, 0xe6, 0xcb, 0x03, 0xbc, 0x23, 0xbd, 0x14, 0x3d, 0x44, 0x12, 0x32, 0x3e, 0xd8, 0xec, 0x14, 0x3e, 0x0b, 0x52, 0x24, 0x3e, 0x50, 0x1d, 0xd7, 0xbd, 0x34, 0x82, 0x12, 0x3e, 
0x8d, 0xde, 0x6a, 0xbd, 0xb3, 0x89, 0x68, 0x3d, 0x3d, 0x82, 0x97, 0x3c, 0xea, 0x88, 0x17, 0xbc, 0xe6, 0x00, 0x1e, 0x3d, 0x7b, 0xd2, 0xd1, 0xbc, 0x2e, 0x63, 0xcf, 0xbd, 0x2e, 0x92, 0x9c, 0xba, 
0xca, 0xb0, 0xdc, 0xbd, 0x20, 0x62, 0x58, 0x3c, 0xe1, 0xe5, 0xce, 0xbc, 0xae, 0x65, 0x53, 0xbd, 0x4a, 0x2b, 0x68, 0xbc, 0xdd, 0x70, 0x95, 0x3c, 0xcb, 0x3e, 0x85, 0x3d, 0x74, 0xba, 0x93, 0xbd, 
0xc4, 0xe1, 0x11, 0x3d, 0x06, 0xde, 0x56, 0xbc, 0x6a, 0xd8, 0x6d, 0x3c, 0x48, 0x19, 0x3b, 0x3d, 0x10, 0x85, 0x78, 0x3d, 0xda, 0x2a, 0x83, 0x3d, 0x4d, 0x3c, 0x09, 0x3e, 0x12, 0x6f, 0x4a, 0xbd, 
0x6c, 0xb0, 0xc9, 0xbc, 0xc7, 0x47, 0x1c, 0x3d, 0xdc, 0x6f, 0xd7, 0xbd, 0xcf, 0x8d, 0x07, 0xbe, 0x03, 0xd2, 0x6a, 0xbe, 0x1a, 0x78, 0x1f, 0xbe, 0xff, 0x7e, 0x55, 0xbd, 0x4b, 0x98, 0x80, 0xbe, 
0xf4, 0x76, 0xe2, 0x3b, 0xcb, 0x65, 0xa6, 0x3c, 0x50, 0x06, 0xe4, 0xbd, 0xc6, 0xb2, 0x82, 0xbc, 0x69, 0x6f, 0xa2, 0xbe, 0x41, 0x2c, 0xde, 0x3d, 0xed, 0x3a, 0x6f, 0xbe, 0xcb, 0x47, 0xc9, 0xbc, 
0x58, 0x80, 0x9b, 0x3d, 0x08, 0xec, 0x21, 0x3d, 0x4d, 0x9d, 0xe1, 0xbc, 0x34, 0x97, 0x55, 0xbd, 0xd2, 0x6d, 0x5c, 0xbe, 0x96, 0x4f, 0xdb, 0x3c, 0x73, 0x7f, 0x57, 0xbd, 0x24, 0x02, 0x32, 0xbe, 
0xcc, 0x33, 0xdc, 0xbc, 0x5b, 0x3d, 0x28, 0xbc, 0x06, 0xbf, 0x80, 0x3d, 0x58, 0xcf, 0x04, 0xbe, 0xd4, 0x24, 0x13, 0xbd, 0xac, 0x02, 0x8c, 0xbc, 0x5e, 0xa8, 0x4c, 0x3c, 0xfc, 0xaa, 0xff, 0x39, 
0xa5, 0x7d, 0x0b, 0x3c, 0x56, 0x27, 0xe0, 0x3d, 0x11, 0x2d, 0x1e, 0x3d, 0x46, 0xa5, 0x14, 0xbe, 0xa3, 0x70, 0xe9, 0x3d, 0xd9, 0x69, 0x38, 0xbe, 0x0c, 0xea, 0x13, 0xbe, 0xcd, 0xce, 0x51, 0xbe, 
0xaa, 0xbd, 0x4a, 0xbd, 0xf1, 0x03, 0x13, 0xbe, 0xfc, 0xae, 0xa2, 0xbd, 0xf1, 0x76, 0xdd, 0xb9, 0x14, 0x25, 0x60, 0x3d, 0xec, 0x65, 0x05, 0x3e, 0xfa, 0x65, 0xc5, 0x3d, 0x07, 0xfb, 0x01, 0x3e, 
0x96, 0x07, 0xbd, 0x3d, 0x65, 0xcb, 0x02, 0x3e, 0x67, 0xbb, 0xd3, 0xbd, 0xad, 0xdd, 0x31, 0xbd, 0x10, 0xc7, 0x90, 0x3d, 0x13, 0x85, 0xb8, 0xbd, 0x19, 0xf8, 0xa7, 0x3d, 0x9f, 0xb2, 0x80, 0xbc, 
0x42, 0x17, 0xab, 0xbc, 0x41, 0x13, 0x20, 0xbe, 0x8a, 0x61, 0xa0, 0xbc, 0x6f, 0x81, 0x0e, 0xbe, 0x8b, 0xb7, 0xa7, 0x3d, 0xa2, 0xda, 0xc2, 0xbd, 0x1d, 0x2b, 0x5e, 0x3d, 0x04, 0x84, 0x0d, 0xbe, 
0x2c, 0xd3, 0x90, 0xbc, 0xaf, 0xb8, 0x03, 0x3d, 0xb4, 0xe8, 0x25, 0xbe, 0xbd, 0x3d, 0x0b, 0xbe, 0x14, 0x22, 0x42, 0xbe, 0xa5, 0xd9, 0x3f, 0xbe, 0xa0, 0xb6, 0x48, 0xbe, 0x9b, 0x8e, 0x15, 0xbd, 
0x7a, 0x69, 0x1b, 0x3d, 0x13, 0x04, 0x1d, 0xbd, 0x7b, 0x80, 0xab, 0xbb, 0xb8, 0x76, 0xbe, 0xbb, 0x80, 0xe4, 0xf1, 0xbd, 0x26, 0xc6, 0x85, 0x3d, 0x2a, 0x80, 0x95, 0x3d, 0xdd, 0xb5, 0x8d, 0xbd, 
0xc1, 0xce, 0xeb, 0xbd, 0xe6, 0x17, 0x14, 0x3e, 0xec, 0x99, 0xf3, 0x3d, 0x46, 0x56, 0x44, 0x3d, 0x81, 0x67, 0xc8, 0x3d, 0x31, 0x16, 0x4a, 0xbd, 0x67, 0xdd, 0xa9, 0xbe, 0x0f, 0x27, 0x68, 0xbe, 
0xc4, 0x30, 0x0d, 0xbe, 0x1d, 0xaf, 0x19, 0xbe, 0xac, 0xa4, 0x20, 0x3c, 0xc5, 0x4c, 0x1b, 0x3e, 0xef, 0x9a, 0xe7, 0xbd, 0x79, 0x8e, 0xa8, 0xbe, 0x6c, 0x30, 0xf7, 0xbd, 0x35, 0x06, 0x90, 0x3d, 
0x9d, 0xbd, 0xdf, 0xbd, 0xb8, 0x9c, 0xb5, 0x3c, 0x23, 0x53, 0xfa, 0xbd, 0xc2, 0x58, 0x8e, 0x3c, 0x69, 0x49, 0xd4, 0xbd, 0x33, 0xd7, 0xaa, 0x3d, 0x6c, 0x88, 0x88, 0x3d, 0xee, 0x02, 0x0e, 0xbe, 
0x4c, 0x16, 0xe2, 0x3d, 0xcd, 0x4a, 0xc0, 0xbc, 0x9c, 0xac, 0xa3, 0xbc, 0x12, 0x5b, 0x43, 0x3c, 0x32, 0x54, 0xfe, 0xbc, 0xf8, 0x50, 0x63, 0xbd, 0x32, 0x14, 0x24, 0x3d, 0xec, 0x90, 0x44, 0xbb, 
0xb7, 0xb1, 0x87, 0xbc, 0x18, 0xbb, 0xf6, 0x3d, 0xcd, 0xdc, 0x4c, 0x3b, 0x14, 0x9a, 0xb3, 0xbd, 0xfa, 0x16, 0x85, 0xbd, 0x5a, 0x4b, 0x83, 0xbc, 0x9e, 0x64, 0xfb, 0xbd, 0x3f, 0x87, 0x6f, 0x3e, 
0x4d, 0xce, 0x49, 0x3e, 0x70, 0xbd, 0x6f, 0x3e, 0x89, 0xf7, 0xa8, 0x3d, 0xd7, 0x3f, 0x39, 0xbe, 0xc1, 0x6d, 0x82, 0xbe, 0x6d, 0x2b, 0x14, 0xbe, 0xed, 0x0a, 0x9e, 0x3d, 0x27, 0x9f, 0x24, 0x3e, 
0xd2, 0xef, 0x87, 0x3d, 0x10, 0x0a, 0x33, 0xbc, 0x38, 0x16, 0x2f, 0x3d, 0x09, 0x33, 0xe2, 0xbd, 0x64, 0xbb, 0x8d, 0x3d, 0xd1, 0x41, 0xfc, 0xbc, 0xb7, 0xdd, 0x63, 0x3d, 0xeb, 0x09, 0xfb, 0x3c, 
0x3c, 0x43, 0x99, 0x3d, 0x4a, 0x15, 0x26, 0xbe, 0x23, 0x7d, 0xa2, 0xbd, 0xee, 0xac, 0x36, 0x3d, 0x1b, 0x99, 0xa6, 0x3d, 0x7e, 0x52, 0xfe, 0x3c, 0xc6, 0xb8, 0xfb, 0x3c, 0x48, 0x14, 0xe4, 0x3d, 
0x64, 0x7e, 0xb4, 0xbc, 0x83, 0x8f, 0x96, 0xbc, 0xd2, 0xc7, 0x94, 0xbc, 0x69, 0xcd, 0x7b, 0x3a, 0x64, 0x75, 0x28, 0xbd, 0x36, 0x81, 0x91, 0xbd, 0x8b, 0x56, 0x47, 0x3d, 0x91, 0x73, 0x05, 0xbe, 
0x35, 0xfe, 0x0b, 0xbe, 0x79, 0xff, 0x02, 0x3e, 0x54, 0xd0, 0x88, 0x3d, 0x31, 0x2c, 0x36, 0xbe, 0x46, 0x78, 0x81, 0xbe, 0xbc, 0xa8, 0xc2, 0xbd, 0xd1, 0xf9, 0xb6, 0xbc, 0xc0, 0x49, 0x4e, 0x3d, 
0x27, 0x41, 0x8e, 0x3d, 0x98, 0x4f, 0x18, 0xbc, 0x8f, 0xc7, 0x4d, 0xbd, 0xa0, 0x65, 0xdd, 0xbd, 0x2a, 0xb3, 0x8b, 0xbc, 0xf5, 0xb8, 0xa9, 0xbc, 0xab, 0xc7, 0x2e, 0xbd, 0xd6, 0x76, 0x47, 0x3e, 
0xa5, 0xe5, 0xfb, 0xbc, 0x87, 0xe0, 0x90, 0xbd, 0x09, 0x69, 0x86, 0xbd, 0x47, 0x8a, 0x3c, 0x3e, 0x1e, 0x2b, 0xc0, 0x3d, 0xe5, 0x49, 0x6b, 0x3d, 0x4e, 0x3e, 0xe0, 0x3c, 0x89, 0x77, 0xac, 0xbd, 
0xcc, 0xcd, 0x8a, 0xbc, 0xda, 0x74, 0x2e, 0xbd, 0x8b, 0xca, 0xcf, 0xbb, 0x71, 0x24, 0xba, 0xbd, 0xdb, 0xa9, 0x20, 0xbe, 0x77, 0xc4, 0xb7, 0x3d, 0x59, 0x2f, 0x27, 0x3e, 0xc9, 0xa3, 0x0f, 0x3d, 
0xe7, 0x39, 0x11, 0x3e, 0x0b, 0xf7, 0x7a, 0xbc, 0xdd, 0x2f, 0xa4, 0xbe, 0x5b, 0x52, 0xb2, 0xbe, 0xc1, 0xd6, 0x55, 0xbe, 0x56, 0x95, 0xb8, 0xbc, 0x78, 0x85, 0x8e, 0x3d, 0x79, 0x92, 0x10, 0x3e, 
0xf9, 0x98, 0x4a, 0x3d, 0x2b, 0xd7, 0xc5, 0xbd, 0x2e, 0xa1, 0xc3, 0xbc, 0x13, 0x10, 0x07, 0xbe, 0x7d, 0x4c, 0x71, 0xbd, 0x6f, 0x21, 0x52, 0xbb, 0xe9, 0x65, 0xaa, 0xbc, 0x87, 0x9f, 0xd8, 0xbd, 
0x06, 0x03, 0xd7, 0xbd, 0x08, 0xbf, 0x91, 0xbd, 0xac, 0xdf, 0xfb, 0xbd, 0x93, 0x0f, 0x41, 0xbd, 0xfb, 0x5f, 0xcf, 0x3d, 0x75, 0xa5, 0x1a, 0xbe, 0xd4, 0xf1, 0x1a, 0xbe, 0xc1, 0x68, 0x01, 0xbe, 
0x5a, 0x3f, 0xf1, 0xbd, 0xd3, 0x12, 0x42, 0xbc, 0x60, 0x16, 0xeb, 0xbd, 0x8a, 0x3f, 0xcf, 0x3a, 0x28, 0x37, 0x9b, 0x3d, 0x1e, 0xfc, 0x9e, 0xbd, 0xaa, 0x42, 0x68, 0xbd, 0x79, 0x5e, 0x39, 0xbe, 
0xb6, 0xd7, 0x38, 0xbe, 0x68, 0xa1, 0x07, 0xbe, 0xae, 0xf2, 0x18, 0xbe, 0x9b, 0x06, 0x07, 0x3d, 0x5c, 0x37, 0x06, 0xbe, 0xba, 0x57, 0x59, 0x3d, 0xd3, 0x31, 0xcc, 0x3d, 0x9a, 0xbe, 0x1a, 0xbe, 
0xb9, 0x25, 0x96, 0xbd, 0x81, 0xbb, 0xe0, 0xbd, 0xe0, 0x17, 0x47, 0xbe, 0x8f, 0x41, 0xc0, 0xbd, 0xf9, 0x16, 0xa2, 0xbd, 0x9a, 0x7d, 0x51, 0xbd, 0xe5, 0x42, 0x8c, 0xbd, 0x5f, 0x7f, 0x27, 0x3d, 
0x46, 0x47, 0xb5, 0x3d, 0xa4, 0x0c, 0xc9, 0xbd, 0x9d, 0xcc, 0xbe, 0x3d, 0x5b, 0xd2, 0xd8, 0x3d, 0x68, 0x98, 0xdf, 0x3d, 0x27, 0x62, 0xe1, 0xbc, 0x95, 0x9c, 0x5b, 0xbc, 0x5c, 0x7e, 0xa4, 0xbd, 
0xa8, 0x8c, 0x41, 0x3d, 0x5f, 0xcf, 0xd0, 0x3d, 0xc7, 0x35, 0x08, 0xbd, 0xd4, 0x04, 0x84, 0xbd, 0x3e, 0xce, 0xdd, 0x3d, 0x74, 0xaf, 0x10, 0x3d, 0x3f, 0xf9, 0x4b, 0x3d, 0x0b, 0x4f, 0xda, 0xbc, 
0x62, 0x9c, 0x90, 0x3d, 0x52, 0x77, 0xe4, 0x3d, 0xfc, 0x74, 0xb3, 0x3d, 0xd9, 0x51, 0x95, 0x3d, 0xf3, 0x75, 0xca, 0x3d, 0x6d, 0x70, 0x24, 0xbe, 0x10, 0x9d, 0x86, 0xbd, 0x40, 0xec, 0x9d, 0x3d, 
0x68, 0x52, 0xb6, 0x3d, 0xa2, 0x4c, 0xf6, 0xbd, 0x5f, 0xd4, 0x41, 0xbd, 0x1f, 0x4b, 0x7b, 0x3c, 0x13, 0x2b, 0x8c, 0x3d, 0x86, 0xaf, 0x2a, 0xbc, 0x91, 0x03, 0xa7, 0x3d, 0x9d, 0x16, 0x49, 0xbd, 
0x60, 0x32, 0x29, 0x3d, 0x43, 0xdb, 0xdf, 0xbd, 0xf0, 0xa9, 0x0a, 0x3e, 0xd1, 0xe4, 0x17, 0x3d, 0xae, 0x6a, 0x79, 0x3c, 0x95, 0x66, 0x02, 0x3e, 0xad, 0x6f, 0x89, 0xbb, 0xdd, 0xd6, 0xf0, 0x3c, 
0x9d, 0x57, 0x8c, 0xbd, 0x5e, 0x1a, 0x0d, 0xbc, 0xea, 0x84, 0x51, 0x3d, 0x09, 0x86, 0xd3, 0xba, 0x56, 0xfc, 0xb1, 0xbd, 0x7e, 0x0c, 0x9d, 0xbc, 0x58, 0xc9, 0xdc, 0x3d, 0x05, 0x3a, 0x72, 0x3e, 
0xba, 0xbe, 0xf4, 0x3d, 0x45, 0x19, 0xe6, 0x3d, 0x44, 0x55, 0x68, 0x3e, 0xe7, 0x90, 0xd6, 0x3d, 0x60, 0x53, 0x8d, 0x3d, 0x95, 0xf2, 0xb1, 0x3c, 0x3c, 0xd4, 0x12, 0x3b, 0x86, 0xb4, 0xe2, 0x3c, 
0xdd, 0xdc, 0x9a, 0x3d, 0xa4, 0x87, 0xb0, 0x3d, 0xe8, 0xa9, 0x18, 0x3e, 0xdf, 0x69, 0x14, 0x3e, 0xad, 0xe8, 0xb9, 0xbc, 0x21, 0xd0, 0x0e, 0xbc, 0x9d, 0xce, 0xcd, 0x3c, 0xce, 0xcb, 0x32, 0x3e, 
0x35, 0xc2, 0xe9, 0x3c, 0xc9, 0x8a, 0x93, 0xbd, 0xb0, 0xe5, 0x7d, 0x3d, 0x47, 0x4c, 0x1c, 0xbd, 0x0f, 0xfc, 0x46, 0x3d, 0xfa, 0xfb, 0xe3, 0x3d, 0xbd, 0x90, 0x30, 0xbd, 0xa6, 0xa6, 0xaf, 0xbd, 
0x70, 0x9c, 0xf1, 0x3d, 0x83, 0x53, 0x7b, 0x3d, 0x76, 0x79, 0x87, 0xbd, 0x5e, 0xab, 0x25, 0xbe, 0x46, 0x08, 0xb9, 0xbc, 0x33, 0xb1, 0x0f, 0xbd, 0x9a, 0x39, 0x4c, 0x3d, 0x69, 0x2d, 0x02, 0x3e, 
0xc1, 0x3e, 0xb3, 0xbd, 0xeb, 0xe2, 0x0f, 0x3d, 0x28, 0x8b, 0x38, 0xbc, 0xd0, 0x93, 0x8e, 0x3c, 0x68, 0xa5, 0xbe, 0x3d, 0x49, 0xcb, 0xb7, 0x3d, 0x79, 0x7c, 0x90, 0x3d, 0x56, 0x63, 0xb2, 0xbd, 
0x6d, 0x97, 0xe8, 0x3c, 0x72, 0x75, 0x80, 0xbc, 0x16, 0x0c, 0x21, 0xbe, 0x7c, 0xec, 0x59, 0xbd, 0x71, 0xc6, 0x95, 0x3d, 0x67, 0xb2, 0x11, 0xbd, 0xf6, 0x3d, 0xa7, 0xbb, 0xf3, 0xc9, 0xd4, 0x3d, 
0x5c, 0x4d, 0xd5, 0x3c, 0x82, 0xba, 0x41, 0xbd, 0x78, 0x19, 0x84, 0xbb, 0x70, 0xd9, 0xca, 0x3d, 0x65, 0x4f, 0x22, 0xbd, 0x6d, 0x39, 0xc0, 0xbb, 0xfc, 0x42, 0xd4, 0x3d, 0x31, 0x24, 0xc7, 0x3d, 
0x46, 0xa5, 0xa8, 0x3d, 0x75, 0x4f, 0x89, 0xbd, 0xc5, 0xa4, 0x66, 0x3d, 0x22, 0xcc, 0xfa, 0x3c, 0x77, 0xeb, 0xc9, 0x3d, 0x94, 0x93, 0xbe, 0x3c, 0x87, 0xde, 0xc2, 0xbd, 0xf3, 0xce, 0x1a, 0x3e, 
0x48, 0xfb, 0x3c, 0x3d, 0x14, 0xf7, 0x7d, 0xbc, 0x59, 0x90, 0x7f, 0x3e, 0xa7, 0xe6, 0xab, 0xbc, 0xba, 0x69, 0x14, 0x3e, 0x38, 0x2a, 0xf0, 0x3d, 0x40, 0x96, 0x0e, 0x3e, 0xc6, 0xa4, 0x26, 0x3e, 
0xe1, 0x8b, 0xc1, 0x3d, 0xf7, 0x68, 0x80, 0xbd, 0xf8, 0xf7, 0xc6, 0x3d, 0x1d, 0x13, 0xc8, 0x3d, 0x42, 0x91, 0x20, 0x3d, 0xde, 0x6c, 0x1d, 0xbc, 0x7e, 0xb1, 0xfa, 0x3d, 0x03, 0x9a, 0xf4, 0x3d, 
0xf0, 0x19, 0xa4, 0x3c, 0x84, 0xff, 0xff, 0x3c, 0x4e, 0x4c, 0x71, 0x3d, 0x20, 0xe8, 0xfa, 0xbd, 0x1a, 0xbf, 0x04, 0xbe, 0xc0, 0xdf, 0xb6, 0x3d, 0xb7, 0xbd, 0xb2, 0x3c, 0xcb, 0x8d, 0x7f, 0x3d, 
0x6d, 0xb2, 0xce, 0x3d, 0x95, 0xeb, 0xdf, 0xbd, 0x35, 0x28, 0x08, 0xbd, 0xee, 0x05, 0x61, 0x3d, 0x59, 0x0a, 0x6e, 0xbd, 0x85, 0xd0, 0x42, 0xbe, 0xd4, 0x12, 0xbe, 0x3d, 0x39, 0xe6, 0x1d, 0xbd, 
0x84, 0xbe, 0xd9, 0xbd, 0xce, 0xb5, 0xeb, 0xbd, 0x36, 0x48, 0x5c, 0x3c, 0x86, 0x58, 0xd4, 0x3d, 0x80, 0x9e, 0x2d, 0x3b, 0xfc, 0x07, 0xca, 0xbd, 0x59, 0x8e, 0x6b, 0xbd, 0xe4, 0xf8, 0x8e, 0x3d, 
0xa2, 0xd1, 0xc7, 0x3d, 0xb7, 0x7b, 0xa1, 0x3d, 0x72, 0xc0, 0x10, 0xbe, 0xb2, 0x6e, 0x32, 0x3c, 0x0a, 0x46, 0xca, 0xbd, 0x89, 0xca, 0x9e, 0x3c, 0xe6, 0x19, 0x0e, 0x3d, 0x5e, 0xac, 0x0d, 0x3d, 
0xa2, 0xef, 0x1e, 0xbd, 0xd8, 0xf8, 0x13, 0x3e, 0x94, 0x42, 0x53, 0xbd, 0x67, 0x8a, 0x0f, 0xbe, 0xe3, 0x05, 0x7e, 0xbd, 0x5e, 0x6a, 0x85, 0xbd, 0x10, 0x82, 0xff, 0xbd, 0x05, 0xd8, 0x0e, 0xbd, 
0xca, 0x05, 0x35, 0xbe, 0x45, 0xab, 0x35, 0x3e, 0xf1, 0xfa, 0xf1, 0xbd, 0x26, 0xc0, 0xad, 0xba, 0x39, 0x12, 0x91, 0xba, 0x0e, 0x3e, 0x49, 0xbe, 0xce, 0x59, 0x39, 0x3d, 0xb0, 0x19, 0x0d, 0xbd, 
0xa4, 0x8d, 0xff, 0x3d, 0x96, 0xb8, 0x60, 0xbe, 0x83, 0x8a, 0xa1, 0xbd, 0xd4, 0xb4, 0xc0, 0x3d, 0x3c, 0xb1, 0xd5, 0xbc, 0x09, 0x11, 0x0b, 0xbe, 0x04, 0x0e, 0xdb, 0xbc, 0xbf, 0x6f, 0x1a, 0x3d, 
0x2f, 0xbc, 0x80, 0x3d, 0x26, 0xc4, 0xfc, 0xbd, 0xab, 0x88, 0x8b, 0x3d, 0xc6, 0x13, 0xfd, 0x3d, 0x93, 0xe8, 0x9e, 0x3d, 0x9f, 0xee, 0x53, 0xbe, 0xe6, 0x40, 0xa1, 0x3c, 0x96, 0xb5, 0xfb, 0xbc, 
0xf2, 0xc4, 0xde, 0xbd, 0xfa, 0x34, 0x82, 0xbd, 0x3b, 0xb7, 0x58, 0xbd, 0x42, 0xa7, 0xca, 0xbd, 0x3a, 0x06, 0xc5, 0x3b, 0xb2, 0x72, 0x20, 0x3d, 0x74, 0x5a, 0x7e, 0xbc, 0x5a, 0xc0, 0x0d, 0x3e, 
0x78, 0x54, 0xcd, 0x3d, 0x75, 0xe3, 0x4a, 0x3d, 0x44, 0x8f, 0xb7, 0x3d, 0x81, 0x54, 0x0a, 0xbd, 0xb6, 0xb5, 0x34, 0xbd, 0xd2, 0x49, 0xf0, 0x3d, 0x4f, 0xef, 0x53, 0xbd, 0xed, 0x81, 0xdc, 0x3d, 
0x2e, 0x82, 0xdd, 0xbc, 0x4c, 0xdf, 0x32, 0x3b, 0xd9, 0x1c, 0xbd, 0x3c, 0xf4, 0x5e, 0x00, 0xbe, 0x59, 0x3c, 0x41, 0xbd, 0xa1, 0x28, 0x44, 0x3c, 0xf7, 0xda, 0xa1, 0x3d, 0xe9, 0x82, 0xc3, 0x3d, 
0x4e, 0xd8, 0xde, 0x3d, 0x9a, 0x10, 0x58, 0x3d, 0xaa, 0x74, 0x87, 0xbd, 0xc5, 0x6b, 0x5a, 0x3d, 0x19, 0x63, 0x06, 0xbe, 0x95, 0x7c, 0x11, 0xbd, 0xc3, 0x93, 0xe5, 0xbd, 0x6a, 0xc8, 0x83, 0x3c, 
0xd9, 0x55, 0x2c, 0xbe, 0x7d, 0x45, 0xd5, 0xbc, 0xcd, 0xac, 0x2d, 0xbe, 0x3c, 0x0b, 0x9f, 0xbd, 0x6c, 0xa3, 0x07, 0xbe, 0x9f, 0x34, 0x10, 0xbc, 0xd4, 0xd3, 0xd1, 0xbd, 0x34, 0x6e, 0x17, 0x3c, 
0xde, 0xab, 0x23, 0xbd, 0x1b, 0x9e, 0x50, 0xbe, 0x19, 0xd0, 0x7d, 0xbe, 0xf8, 0xe7, 0xa6, 0xbd, 0x0d, 0x3b, 0x4d, 0xbe, 0x25, 0xc5, 0x12, 0xbe, 0x6b, 0x9b, 0x8c, 0xbc, 0xbc, 0x65, 0xf4, 0xbd, 
0x23, 0xd2, 0xcf, 0xbd, 0x00, 0xaa, 0x7b, 0xbe, 0xda, 0x3c, 0x08, 0xbe, 0x2c, 0x14, 0x65, 0xbd, 0x44, 0xfa, 0x35, 0xbc, 0xef, 0x60, 0x64, 0xbd, 0x53, 0xe1, 0xf6, 0xbd, 0x11, 0xda, 0x76, 0xbd, 
0x3d, 0xda, 0x8b, 0x3c, 0xd2, 0x4e, 0xba, 0xbd, 0xea, 0xb9, 0xa2, 0xbd, 0x34, 0xab, 0xc5, 0x3d, 0xeb, 0x1b, 0xf5, 0xbd, 0x73, 0x23, 0x3c, 0xbe, 0xb1, 0xc2, 0x07, 0xbc, 0xbb, 0x23, 0x5f, 0xbc, 
0x16, 0x3f, 0xa2, 0x3d, 0x5d, 0x71, 0x11, 0xbe, 0xc3, 0xe1, 0xa8, 0x3b, 0x39, 0x1d, 0x2d, 0x3d, 0x38, 0x39, 0x2e, 0xbd, 0x29, 0xcb, 0x9b, 0x3b, 0x06, 0xf3, 0x84, 0xbd, 0x9a, 0x12, 0x1d, 0x3d, 
0x28, 0xe0, 0x65, 0xbd, 0xbf, 0x19, 0x12, 0x3d, 0x39, 0x7d, 0xff, 0xbd, 0x2a, 0x7c, 0x1b, 0x3e, 0x20, 0xe8, 0x1d, 0x3c, 0x4d, 0x89, 0x32, 0x3e, 0x3c, 0x9e, 0x2c, 0x3d, 0xc0, 0x67, 0x32, 0x3d, 
0x80, 0x5c, 0x18, 0xbd, 0x6a, 0x61, 0x66, 0x3d, 0xa5, 0xa3, 0x96, 0x3c, 0x75, 0xb3, 0x53, 0xbc, 0x2e, 0x3f, 0xb7, 0x3d, 0x9c, 0xc1, 0x03, 0xbd, 0x69, 0x46, 0x89, 0x3d, 0x8a, 0xfa, 0xc0, 0x3d, 
0x46, 0xa6, 0x4e, 0x3b, 0x4f, 0x83, 0xdc, 0x3d, 0x3f, 0x3d, 0x21, 0xbd, 0x44, 0x8a, 0xb7, 0x3d, 0xcc, 0x5f, 0xf5, 0xbc, 0x9a, 0xe1, 0x03, 0xbe, 0xfc, 0xb2, 0x98, 0xbd, 0x4e, 0xa4, 0x71, 0x3c, 
0x65, 0xc4, 0x40, 0xbe, 0x75, 0x90, 0x81, 0x3b, 0xa3, 0xaa, 0x25, 0xbb, 0x1f, 0x9c, 0x7d, 0xbc, 0x43, 0xf5, 0x5a, 0xbd, 0x99, 0x39, 0xa1, 0x3d, 0x5e, 0xa7, 0xc3, 0x3c, 0xb1, 0x2d, 0x59, 0xbc, 
0x91, 0x7a, 0x56, 0xbd, 0xd7, 0x83, 0xd6, 0x3d, 0x26, 0xcb, 0xe9, 0xbd, 0x42, 0x61, 0x22, 0x3e, 0xf5, 0x02, 0x32, 0x3e, 0x93, 0xec, 0xed, 0x3d, 0x27, 0x5a, 0xee, 0xbd, 0xaf, 0x97, 0x58, 0xbd, 
0xca, 0x6f, 0xd8, 0x3d, 0xbc, 0x8d, 0xca, 0x3d, 0x7f, 0x43, 0xec, 0xbb, 0x8a, 0x4e, 0x20, 0x3d, 0x37, 0x17, 0x41, 0xbe, 0xb0, 0x0c, 0xe7, 0x3c, 0x47, 0x30, 0xfb, 0xbd, 0x65, 0xa5, 0x86, 0x3c, 
0x0f, 0x3c, 0x02, 0x3d, 0xdd, 0xe7, 0x2b, 0x3e, 0xda, 0x02, 0xf3, 0xbc, 0x14, 0x71, 0x74, 0xbc, 0x54, 0xc9, 0x85, 0x3d, 0x89, 0x92, 0x84, 0xbe, 0x47, 0x91, 0xa9, 0xbd, 0xb1, 0xe8, 0x7b, 0x3d, 
0xdb, 0x4c, 0xa8, 0xbd, 0xc5, 0xa4, 0x28, 0xbe, 0x2b, 0xc4, 0x43, 0x3d, 0xd3, 0x9b, 0x42, 0x3e, 0x4d, 0xf4, 0x85, 0x3d, 0xec, 0xa5, 0xa9, 0xbd, 0x50, 0x79, 0x1b, 0xbe, 0x14, 0x1a, 0xcd, 0xbc, 
0xdd, 0xaf, 0x2e, 0xbe, 0x7b, 0x2b, 0xeb, 0x3c, 0x49, 0x7c, 0xbd, 0xbc, 0xa6, 0x06, 0x53, 0x3e, 0xdf, 0xa8, 0x99, 0xbd, 0xe8, 0x56, 0x1c, 0xbd, 0xea, 0x55, 0xb0, 0x3d, 0xbc, 0xfa, 0x39, 0x3d, 
0xf4, 0x46, 0xaa, 0xbd, 0x0a, 0xe4, 0xc2, 0xbd, 0x72, 0x9f, 0x49, 0xbd, 0x12, 0x11, 0x69, 0x3d, 0x5d, 0xe7, 0xb6, 0x3d, 0xdc, 0x12, 0x83, 0xbd, 0x0a, 0xaa, 0x9c, 0x3d, 0xe9, 0xa1, 0xdc, 0x3d, 
0x7d, 0x92, 0x87, 0x3b, 0xef, 0x39, 0xc7, 0xbd, 0x95, 0xb9, 0xfa, 0xbd, 0x10, 0x67, 0x8a, 0xbd, 0x05, 0x99, 0xbd, 0xbd, 0x90, 0x40, 0xfb, 0x3c, 0x71, 0xca, 0x82, 0x3d, 0xa9, 0x44, 0x01, 0xbb, 
0xca, 0x19, 0x68, 0x39, 0xaa, 0x15, 0x1d, 0x3d, 0x49, 0x1d, 0xcd, 0x3d, 0x17, 0xac, 0xaa, 0xbd, 0xd9, 0xa7, 0x9b, 0xbd, 0x06, 0x33, 0x58, 0xbd, 0x09, 0x3b, 0x0b, 0xbe, 0x26, 0xf7, 0xa3, 0xbc, 
0xda, 0xc6, 0x3a, 0xbd, 0x75, 0xf0, 0x43, 0xbc, 0x15, 0x1e, 0x35, 0xbd, 0x5b, 0x6a, 0x93, 0x3d, 0x27, 0xea, 0x77, 0x3d, 0x64, 0x0c, 0x51, 0xbd, 0x07, 0xae, 0x1c, 0xbd, 0xce, 0x93, 0x54, 0xbe, 
0x08, 0xd6, 0x43, 0x3d, 0x5c, 0x69, 0xc9, 0x3d, 0x94, 0x58, 0xc5, 0xbd, 0x8c, 0xfb, 0x23, 0xbe, 0x47, 0xe6, 0x75, 0xbe, 0xb2, 0x1e, 0x82, 0xbe, 0x2b, 0x14, 0x42, 0xbd, 0x1d, 0xdb, 0xeb, 0x3d, 
0xb6, 0x10, 0x51, 0x3e, 0x20, 0x0f, 0x0c, 0x3e, 0x28, 0x7f, 0x92, 0xbd, 0xff, 0xe0, 0xc8, 0x3c, 0xb6, 0x98, 0x0a, 0xbe, 0xd7, 0x82, 0x2c, 0xbd, 0xd4, 0x9e, 0xc8, 0x3c, 0x83, 0x64, 0x42, 0x3d, 
0x04, 0x1a, 0xb6, 0xbc, 0xfd, 0x80, 0x08, 0xbe, 0xb3, 0xb2, 0xb3, 0x3d, 0x75, 0x6b, 0xae, 0xbd, 0x39, 0x77, 0x3a, 0xbd, 0xbc, 0x87, 0xe1, 0x3d, 0xd5, 0xa8, 0x94, 0xbc, 0xcf, 0x66, 0x8f, 0x3d, 
0x4d, 0xf6, 0xe9, 0x3a, 0xde, 0xa1, 0xd5, 0x3d, 0x83, 0x86, 0xa4, 0x3d, 0x9b, 0x0a, 0x4b, 0xbd, 0x51, 0x67, 0x2d, 0xbe, 0x46, 0xe7, 0x36, 0x3c, 0x49, 0x83, 0x6b, 0x3d, 0xda, 0xb1, 0xb4, 0x3b, 
0x5a, 0xaf, 0xeb, 0x3d, 0x2b, 0x9d, 0x6b, 0xbd, 0x22, 0x8e, 0xd5, 0xbd, 0x09, 0x34, 0x61, 0xbe, 0x3e, 0xfb, 0xa4, 0xbd, 0x04, 0xff, 0xa8, 0x3d, 0xda, 0xd6, 0x4f, 0x3e, 0x33, 0x70, 0x46, 0x3e, 
0x49, 0x6b, 0x08, 0xbe, 0x9b, 0x81, 0x30, 0xbe, 0xac, 0xc2, 0x24, 0xbe, 0x00, 0x33, 0xbc, 0x3d, 0x10, 0x80, 0x6c, 0xbc, 0x7f, 0x5e, 0x4c, 0xbd, 0x34, 0xf9, 0xb1, 0x3c, 0xe4, 0x46, 0x02, 0x3d, 
0xe0, 0xde, 0xe8, 0xbc, 0xd3, 0x01, 0xa5, 0xbc, 0x7d, 0x5c, 0xf5, 0x3d, 0xc7, 0x8a, 0xdc, 0xbd, 0xbf, 0xad, 0xdf, 0x3c, 0xc6, 0xef, 0xdb, 0xbd, 0x64, 0xaa, 0x11, 0xbe, 0x46, 0xfb, 0xae, 0xbd, 
0xa6, 0x97, 0x6a, 0xbd, 0xf6, 0x10, 0xe7, 0xbb, 0x45, 0x98, 0x35, 0x3d, 0x8d, 0x6c, 0x8f, 0x3d, 0xe6, 0x4c, 0x30, 0x3d, 0x0a, 0x7d, 0x63, 0xbd, 0x85, 0x82, 0xe5, 0xbd, 0x59, 0xf0, 0xf7, 0xbd, 
0xa9, 0xe2, 0x8f, 0xbd, 0x54, 0x70, 0xe3, 0xbd, 0x68, 0xd7, 0x17, 0xbd, 0x6e, 0x65, 0xd9, 0xbd, 0x0a, 0xc6, 0xa6, 0x3c, 0xf7, 0x9c, 0xc4, 0xbd, 0x4a, 0x83, 0xc5, 0xbd, 0x1e, 0xf7, 0xf9, 0xbc, 
0x3d, 0xea, 0xed, 0xbd, 0x0d, 0xec, 0xba, 0xbc, 0x5c, 0x4c, 0x4f, 0xbe, 0x0b, 0xa8, 0x54, 0xbd, 0xf2, 0xe1, 0x4d, 0xbd, 0xa6, 0xf6, 0xe7, 0xbc, 0x93, 0xca, 0x27, 0x3c, 0xd7, 0x01, 0x53, 0xbe, 
0xab, 0x64, 0x5b, 0x3c, 0x04, 0xd6, 0xda, 0x3d, 0x83, 0xd5, 0xd3, 0xbd, 0x7f, 0x88, 0x8d, 0xbd, 0xf3, 0xb7, 0x34, 0x3d, 0x8e, 0x29, 0xd9, 0x3d, 0xe5, 0x44, 0xe0, 0x3d, 0x3f, 0x86, 0x21, 0xbd, 
0xdb, 0xcc, 0x29, 0xbd, 0xf0, 0x65, 0x07, 0xbe, 0xe7, 0x50, 0xaf, 0xbc, 0x00, 0x11, 0xbd, 0xbc, 0x02, 0xbc, 0xb2, 0xbd, 0x5f, 0x46, 0xe2, 0x3c, 0x83, 0xd2, 0x64, 0xbd, 0xd7, 0x74, 0x5d, 0x3d, 
0xcc, 0x7d, 0x79, 0x3c, 0xd8, 0xc4, 0x7d, 0xbd, 0x32, 0x23, 0x53, 0xbd, 0x9d, 0xcf, 0xc6, 0x3c, 0x53, 0xde, 0xc9, 0x3d, 0x7b, 0x5e, 0x2a, 0x3e, 0x4d, 0xf4, 0x0c, 0x3e, 0x7a, 0x8a, 0x75, 0xbd, 
0xc3, 0x34, 0x65, 0xbc, 0xf4, 0x60, 0x56, 0xba, 0x46, 0x16, 0x1a, 0xbe, 0xaf, 0xe4, 0xc1, 0xbd, 0xbe, 0x6e, 0x8f, 0xbd, 0xc2, 0x52, 0xb1, 0xbc, 0x04, 0x3a, 0x99, 0xbd, 0xcb, 0xcb, 0xf3, 0xbd, 
0x59, 0x03, 0x51, 0xbe, 0xe8, 0x2a, 0x71, 0xbd, 0xdd, 0xd6, 0x4a, 0xbe, 0x96, 0x18, 0x5b, 0x3e, 0xc2, 0x52, 0x8e, 0xbd, 0x22, 0x1f, 0xa8, 0xbd, 0x72, 0x69, 0x2a, 0xbe, 0xb5, 0x3f, 0xbb, 0xbd, 
0x28, 0xf4, 0x66, 0xbe, 0x21, 0x9e, 0xda, 0x3d, 0x19, 0xda, 0x79, 0xbe, 0x13, 0xa2, 0x6c, 0xbe, 0x61, 0x39, 0xf4, 0xbd, 0xb2, 0x08, 0x92, 0x3c, 0x1e, 0x2e, 0x01, 0x3d, 0xba, 0x1f, 0xfe, 0x3d, 
0xa6, 0x5f, 0x69, 0x3d, 0x05, 0x7d, 0x0c, 0xbe, 0x97, 0x6e, 0xc9, 0x3c, 0x1c, 0x56, 0x15, 0xbd, 0xd4, 0xf6, 0x83, 0x3d, 0x48, 0x3f, 0xad, 0xbe, 0xd3, 0x67, 0x04, 0xbe, 0xe9, 0xea, 0xe6, 0xbd, 
0xe7, 0x4e, 0x25, 0xbd, 0xcc, 0x94, 0x10, 0x3d, 0x35, 0x8f, 0x9d, 0x3d, 0xf3, 0xbb, 0x04, 0xbe, 0xc5, 0x4e, 0x96, 0xbd, 0x4c, 0x80, 0x57, 0xbe, 0xde, 0x77, 0x47, 0xbe, 0xfb, 0x59, 0x9c, 0xbd, 
0x78, 0x6b, 0x46, 0x3e, 0x0f, 0xc8, 0x84, 0x3e, 0x2c, 0xde, 0xb6, 0x3c, 0x72, 0x4f, 0xb7, 0xbd, 0xf6, 0x24, 0x24, 0x3e, 0x4c, 0xcf, 0x2e, 0x3e, 0x6c, 0x50, 0xa9, 0x3d, 0xe7, 0xe0, 0x5b, 0x3e, 
0xad, 0x19, 0x9f, 0xbd, 0xa1, 0x34, 0x01, 0x3d, 0xdd, 0x91, 0x80, 0x3e, 0x18, 0xa5, 0x5f, 0x3e, 0x4c, 0x17, 0x2b, 0x3e, 0xfd, 0x48, 0xa0, 0xbd, 0x3e, 0x73, 0x92, 0xbe, 0x3a, 0x1d, 0x0e, 0xbe, 
0x94, 0x7f, 0xb6, 0xbd, 0x77, 0xe5, 0x39, 0x3d, 0x0d, 0x18, 0x0a, 0xbe, 0x29, 0x73, 0x7f, 0xbe, 0x61, 0x07, 0xf8, 0xbc, 0x0b, 0x2b, 0x7d, 0x3e, 0x5d, 0xbb, 0xe2, 0x3d, 0x0e, 0xf4, 0x6c, 0x3e, 
0xae, 0x3b, 0xb6, 0x3d, 0xa3, 0x86, 0x67, 0xbd, 0x5c, 0x15, 0x5d, 0x3d, 0x7a, 0xe9, 0x2a, 0xbd, 0x7e, 0xb5, 0x01, 0x3c, 0xf3, 0xea, 0xb9, 0x3d, 0xdf, 0xe5, 0x4a, 0x3c, 0x4b, 0xa1, 0x3a, 0xbe, };
