__attribute__((section("network_model_sec"), aligned(16))) char model_pte[] = {
0x3c, 0x00, 0x00, 0x00, 0x45, 0x54, 0x31, 0x32, 0x65, 0x68, 0x30, 0x30, 0x18, 0x00, 0x00, 0x00, 0x28, 0x1a, 0x00, 0x00, 0x00, 0x00, 0x00, 0x00, 0x80, 0x1a, 0x00, 0x00, 0x00, 0x00, 0x00, 0x00, 
0x00, 0x00, 0x00, 0x00, 0x00, 0x00, 0x00, 0x00, 0x00, 0x00, 0x00, 0x00, 0x10, 0x00, 0x18, 0x00, 0x00, 0x00, 0x04, 0x00, 0x08, 0x00, 0x0c, 0x00, 0x10, 0x00, 0x14, 0x00, 0x10, 0x00, 0x00, 0x00, 
0xf4, 0x00, 0x00, 0x00, 0xec, 0x00, 0x00, 0x00, 0xe4, 0x00, 0x00, 0x00, 0xc0, 0x00, 0x00, 0x00, 0x04, 0x00, 0x00, 0x00, 0x6c, 0xf9, 0xff, 0xff, 0x04, 0x00, 0x00, 0x00, 0x15, 0x00, 0x00, 0x00, 
0x00, 0x00, 0x00, 0x00, 0x00, 0x00, 0x00, 0x00, 0x00, 0x00, 0x00, 0x00, 0x00, 0x00, 0x00, 0x00, 0x50, 0x00, 0x00, 0x00, 0x00, 0x00, 0x00, 0x00, 0x60, 0x00, 0x00, 0x00, 0x00, 0x00, 0x00, 0x00, 
0x70, 0x00, 0x00, 0x00, 0x00, 0x00, 0x00, 0x00, 0x80, 0x00, 0x00, 0x00, 0x00, 0x00, 0x00, 0x00, 0x80, 0x0a, 0x00, 0x00, 0x00, 0x00, 0x00, 0x00, 0x00, 0x0b, 0x00, 0x00, 0x00, 0x00, 0x00, 0x00, 
0x80, 0x0b, 0x00, 0x00, 0x00, 0x00, 0x00, 0x00, 0x00, 0x0c, 0x00, 0x00, 0x00, 0x00, 0x00, 0x00, 0x00, 0x44, 0x00, 0x00, 0x00, 0x00, 0x00, 0x00, 0x40, 0x44, 0x00, 0x00, 0x00, 0x00, 0x00, 0x00, 
0x80, 0x44, 0x00, 0x00, 0x00, 0x00, 0x00, 0x00, 0xc0, 0x44, 0x00, 0x00, 0x00, 0x00, 0x00, 0x00, 0x40, 0x45, 0x00, 0x00, 0x00, 0x00, 0x00, 0x00, 0x50, 0x45, 0x00, 0x00, 0x00, 0x00, 0x00, 0x00, 
0x60, 0x45, 0x00, 0x00, 0x00, 0x00, 0x00, 0x00, 0x70, 0x45, 0x00, 0x00, 0x00, 0x00, 0x00, 0x00, 0xf0, 0x45, 0x00, 0x00, 0x00, 0x00, 0x00, 0x00, 0x70, 0x46, 0x00, 0x00, 0x00, 0x00, 0x00, 0x00, 
0xb0, 0x46, 0x00, 0x00, 0x00, 0x00, 0x00, 0x00, 0x00, 0x00, 0x00, 0x00, 0x01, 0x00, 0x00, 0x00, 0x0c, 0x00, 0x00, 0x00, 0x08, 0x00, 0x10, 0x00, 0x00, 0x00, 0x04, 0x00, 0x08, 0x00, 0x00, 0x00, 
0xf0, 0x46, 0x00, 0x00, 0x00, 0x00, 0x00, 0x00, 0x00, 0x00, 0x00, 0x00, 0x00, 0x00, 0x00, 0x00, 0x00, 0x00, 0x00, 0x00, 0x01, 0x00, 0x00, 0x00, 0x1c, 0x00, 0x00, 0x00, 0x00, 0x00, 0x16, 0x00, 
0x28, 0x00, 0x04, 0x00, 0x08, 0x00, 0x0c, 0x00, 0x10, 0x00, 0x14, 0x00, 0x18, 0x00, 0x1c, 0x00, 0x20, 0x00, 0x24, 0x00, 0x16, 0x00, 0x00, 0x00, 0xc4, 0x18, 0x00, 0x00, 0x70, 0x17, 0x00, 0x00, 
0xe0, 0x05, 0x00, 0x00, 0xd4, 0x05, 0x00, 0x00, 0xc8, 0x05, 0x00, 0x00, 0xe4, 0x01, 0x00, 0x00, 0x24, 0x00, 0x00, 0x00, 0x1c, 0x00, 0x00, 0x00, 0x04, 0x00, 0x00, 0x00, 0x02, 0x00, 0x00, 0x00, 
0x00, 0x00, 0x00, 0x00, 0x00, 0x00, 0x00, 0x00, 0xd0, 0x64, 0x00, 0x00, 0x00, 0x00, 0x00, 0x00, 0x00, 0x00, 0x00, 0x00, 0x09, 0x00, 0x00, 0x00, 0x8c, 0x01, 0x00, 0x00, 0x44, 0x01, 0x00, 0x00, 
0x1c, 0x01, 0x00, 0x00, 0xe8, 0x00, 0x00, 0x00, 0xc0, 0x00, 0x00, 0x00, 0x88, 0x00, 0x00, 0x00, 0x58, 0x00, 0x00, 0x00, 0x30, 0x00, 0x00, 0x00, 0x04, 0x00, 0x00, 0x00, 0xf8, 0xe8, 0xff, 0xff, 
0x10, 0x00, 0x00, 0x00, 0x04, 0x00, 0x00, 0x00, 0x03, 0x00, 0x00, 0x00, 0x6f, 0x75, 0x74, 0x00, 0x0e, 0x00, 0x00, 0x00, 0x61, 0x74, 0x65, 0x6e, 0x3a, 0x3a, 0x5f, 0x73, 0x6f, 0x66, 0x74, 0x6d, 
0x61, 0x78, 0x00, 0x00, 0x20, 0xe9, 0xff, 0xff, 0x10, 0x00, 0x00, 0x00, 0x04, 0x00, 0x00, 0x00, 0x03, 0x00, 0x00, 0x00, 0x6f, 0x75, 0x74, 0x00, 0x0b, 0x00, 0x00, 0x00, 0x61, 0x74, 0x65, 0x6e, 
0x3a, 0x3a, 0x61, 0x64, 0x64, 0x6d, 0x6d, 0x00, 0x44, 0xe9, 0xff, 0xff, 0x10, 0x00, 0x00, 0x00, 0x04, 0x00, 0x00, 0x00, 0x03, 0x00, 0x00, 0x00, 0x6f, 0x75, 0x74, 0x00, 0x12, 0x00, 0x00, 0x00, 
0x61, 0x74, 0x65, 0x6e, 0x3a, 0x3a, 0x70, 0x65, 0x72, 0x6d, 0x75, 0x74, 0x65, 0x5f, 0x63, 0x6f, 0x70, 0x79, 0x00, 0x00, 0x70, 0xe9, 0xff, 0xff, 0x18, 0x00, 0x00, 0x00, 0x04, 0x00, 0x00, 0x00, 
0x08, 0x00, 0x00, 0x00, 0x64, 0x69, 0x6d, 0x73, 0x5f, 0x6f, 0x75, 0x74, 0x00, 0x00, 0x00, 0x00, 0x12, 0x00, 0x00, 0x00, 0x61, 0x74, 0x65, 0x6e, 0x3a, 0x3a, 0x73, 0x71, 0x75, 0x65, 0x65, 0x7a, 
0x65, 0x5f, 0x63, 0x6f, 0x70, 0x79, 0x00, 0x00, 0xa4, 0xe9, 0xff, 0xff, 0x10, 0x00, 0x00, 0x00, 0x04, 0x00, 0x00, 0x00, 0x03, 0x00, 0x00, 0x00, 0x6f, 0x75, 0x74, 0x00, 0x0a, 0x00, 0x00, 0x00, 
0x61, 0x74, 0x65, 0x6e, 0x3a, 0x3a, 0x6d, 0x65, 0x61, 0x6e, 0x00, 0x00, 0xc8, 0xe9, 0xff, 0xff, 0x10, 0x00, 0x00, 0x00, 0x04, 0x00, 0x00, 0x00, 0x03, 0x00, 0x00, 0x00, 0x6f, 0x75, 0x74, 0x00, 
0x14, 0x00, 0x00, 0x00, 0x61, 0x74, 0x65, 0x6e, 0x3a, 0x3a, 0x75, 0x6e, 0x73, 0x71, 0x75, 0x65, 0x65, 0x7a, 0x65, 0x5f, 0x63, 0x6f, 0x70, 0x79, 0x00, 0x00, 0x00, 0x00, 0xf8, 0xe9, 0xff, 0xff, 
0x10, 0x00, 0x00, 0x00, 0x04, 0x00, 0x00, 0x00, 0x03, 0x00, 0x00, 0x00, 0x6f, 0x75, 0x74, 0x00, 0x0a, 0x00, 0x00, 0x00, 0x61, 0x74, 0x65, 0x6e, 0x3a, 0x3a, 0x72, 0x65, 0x6c, 0x75, 0x00, 0x00, 
0x1c, 0xea, 0xff, 0xff, 0x10, 0x00, 0x00, 0x00, 0x04, 0x00, 0x00, 0x00, 0x03, 0x00, 0x00, 0x00, 0x6f, 0x75, 0x74, 0x00, 0x2a, 0x00, 0x00, 0x00, 0x61, 0x74, 0x65, 0x6e, 0x3a, 0x3a, 0x5f, 0x6e, 
0x61, 0x74, 0x69, 0x76, 0x65, 0x5f, 0x62, 0x61, 0x74, 0x63, 0x68, 0x5f, 0x6e, 0x6f, 0x72, 0x6d, 0x5f, 0x6c, 0x65, 0x67, 0x69, 0x74, 0x5f, 0x6e, 0x6f, 0x5f, 0x74, 0x72, 0x61, 0x69, 0x6e, 0x69, 
0x6e, 0x67, 0x00, 0x00, 0x60, 0xea, 0xff, 0xff, 0x10, 0x00, 0x00, 0x00, 0x04, 0x00, 0x00, 0x00, 0x03, 0x00, 0x00, 0x00, 0x6f, 0x75, 0x74, 0x00, 0x11, 0x00, 0x00, 0x00, 0x61, 0x74, 0x65, 0x6e, 
0x3a, 0x3a, 0x63, 0x6f, 0x6e, 0x76, 0x6f, 0x6c, 0x75, 0x74, 0x69, 0x6f, 0x6e, 0x00, 0x00, 0x00, 0x01, 0x00, 0x00, 0x00, 0x10, 0x00, 0x00, 0x00, 0x00, 0x00, 0x0a, 0x00, 0x10, 0x00, 0x04, 0x00, 
0x08, 0x00, 0x0c, 0x00, 0x0a, 0x00, 0x00, 0x00, 0xc4, 0x03, 0x00, 0x00, 0xbc, 0x03, 0x00, 0x00, 0x04, 0x00, 0x00, 0x00, 0x10, 0x00, 0x00, 0x00, 0x64, 0x03, 0x00, 0x00, 0x18, 0x03, 0x00, 0x00, 
0xec, 0x02, 0x00, 0x00, 0xa4, 0x02, 0x00, 0x00, 0x58, 0x02, 0x00, 0x00, 0x2c, 0x02, 0x00, 0x00, 0xe4, 0x01, 0x00, 0x00, 0x98, 0x01, 0x00, 0x00, 0x6c, 0x01, 0x00, 0x00, 0x3c, 0x01, 0x00, 0x00, 
0x04, 0x01, 0x00, 0x00, 0xd4, 0x00, 0x00, 0x00, 0xa4, 0x00, 0x00, 0x00, 0x74, 0x00, 0x00, 0x00, 0x38, 0x00, 0x00, 0x00, 0x04, 0x00, 0x00, 0x00, 0x44, 0xeb, 0xff, 0xff, 0x00, 0x00, 0x00, 0x01, 
0x04, 0x00, 0x00, 0x00, 0x00, 0xeb, 0xff, 0xff, 0x08, 0x00, 0x00, 0x00, 0x04, 0x00, 0x00, 0x00, 0x05, 0x00, 0x00, 0x00, 0x5d, 0x00, 0x00, 0x00, 0x61, 0x00, 0x00, 0x00, 0x62, 0x00, 0x00, 0x00, 
0x60, 0x00, 0x00, 0x00, 0x60, 0x00, 0x00, 0x00, 0x74, 0xeb, 0xff, 0xff, 0x00, 0x00, 0x00, 0x01, 0x04, 0x00, 0x00, 0x00, 0x30, 0xeb, 0xff, 0xff, 0x07, 0x00, 0x00, 0x00, 0x04, 0x00, 0x00, 0x00, 
0x07, 0x00, 0x00, 0x00, 0x0d, 0x00, 0x00, 0x00, 0x56, 0x00, 0x00, 0x00, 0x59, 0x00, 0x00, 0x00, 0x5e, 0x00, 0x00, 0x00, 0x5f, 0x00, 0x00, 0x00, 0x5d, 0x00, 0x00, 0x00, 0x5d, 0x00, 0x00, 0x00, 
0xac, 0xeb, 0xff, 0xff, 0x00, 0x00, 0x00, 0x01, 0x04, 0x00, 0x00, 0x00, 0x68, 0xeb, 0xff, 0xff, 0x06, 0x00, 0x00, 0x00, 0x04, 0x00, 0x00, 0x00, 0x04, 0x00, 0x00, 0x00, 0x0c, 0x00, 0x00, 0x00, 
0x5c, 0x00, 0x00, 0x00, 0x59, 0x00, 0x00, 0x00, 0x59, 0x00, 0x00, 0x00, 0xd8, 0xeb, 0xff, 0xff, 0x00, 0x00, 0x00, 0x01, 0x04, 0x00, 0x00, 0x00, 0x94, 0xeb, 0xff, 0xff, 0x05, 0x00, 0x00, 0x00, 
0x04, 0x00, 0x00, 0x00, 0x04, 0x00, 0x00, 0x00, 0x53, 0x00, 0x00, 0x00, 0x58, 0x00, 0x00, 0x00, 0x56, 0x00, 0x00, 0x00, 0x56, 0x00, 0x00, 0x00, 0x04, 0xec, 0xff, 0xff, 0x00, 0x00, 0x00, 0x01, 
0x04, 0x00, 0x00, 0x00, 0xc0, 0xeb, 0xff, 0xff, 0x05, 0x00, 0x00, 0x00, 0x04, 0x00, 0x00, 0x00, 0x04, 0x00, 0x00, 0x00, 0x4d, 0x00, 0x00, 0x00, 0x55, 0x00, 0x00, 0x00, 0x53, 0x00, 0x00, 0x00, 
0x53, 0x00, 0x00, 0x00, 0x30, 0xec, 0xff, 0xff, 0x00, 0x00, 0x00, 0x01, 0x04, 0x00, 0x00, 0x00, 0xec, 0xeb, 0xff, 0xff, 0x04, 0x00, 0x00, 0x00, 0x04, 0x00, 0x00, 0x00, 0x06, 0x00, 0x00, 0x00, 
0x4b, 0x00, 0x00, 0x00, 0x50, 0x00, 0x00, 0x00, 0x51, 0x00, 0x00, 0x00, 0x52, 0x00, 0x00, 0x00, 0x4d, 0x00, 0x00, 0x00, 0x4d, 0x00, 0x00, 0x00, 0x64, 0xec, 0xff, 0xff, 0x00, 0x00, 0x00, 0x01, 
0x04, 0x00, 0x00, 0x00, 0x20, 0xec, 0xff, 0xff, 0x03, 0x00, 0x00, 0x00, 0x04, 0x00, 0x00, 0x00, 0x04, 0x00, 0x00, 0x00, 0x4a, 0x00, 0x00, 0x00, 0x4c, 0x00, 0x00, 0x00, 0x4b, 0x00, 0x00, 0x00, 
0x4b, 0x00, 0x00, 0x00, 0x90, 0xec, 0xff, 0xff, 0x00, 0x00, 0x00, 0x01, 0x04, 0x00, 0x00, 0x00, 0x4c, 0xec, 0xff, 0xff, 0x02, 0x00, 0x00, 0x00, 0x04, 0x00, 0x00, 0x00, 0x03, 0x00, 0x00, 0x00, 
0x44, 0x00, 0x00, 0x00, 0x4a, 0x00, 0x00, 0x00, 0x4a, 0x00, 0x00, 0x00, 0xb8, 0xec, 0xff, 0xff, 0x00, 0x00, 0x00, 0x01, 0x04, 0x00, 0x00, 0x00, 0x74, 0xec, 0xff, 0xff, 0x01, 0x00, 0x00, 0x00, 
0x04, 0x00, 0x00, 0x00, 0x0b, 0x00, 0x00, 0x00, 0x39, 0x00, 0x00, 0x00, 0x0a, 0x00, 0x00, 0x00, 0x0b, 0x00, 0x00, 0x00, 0x12, 0x00, 0x00, 0x00, 0x13, 0x00, 0x00, 0x00, 0x47, 0x00, 0x00, 0x00, 
0x48, 0x00, 0x00, 0x00, 0x44, 0x00, 0x00, 0x00, 0x45, 0x00, 0x00, 0x00, 0x46, 0x00, 0x00, 0x00, 0x49, 0x00, 0x00, 0x00, 0x00, 0xed, 0xff, 0xff, 0x00, 0x00, 0x00, 0x01, 0x04, 0x00, 0x00, 0x00, 
0x98, 0xfe, 0xff, 0xff, 0x04, 0x00, 0x00, 0x00, 0x0b, 0x00, 0x00, 0x00, 0x38, 0x00, 0x00, 0x00, 0x08, 0x00, 0x00, 0x00, 0x09, 0x00, 0x00, 0x00, 0x3b, 0x00, 0x00, 0x00, 0x3d, 0x00, 0x00, 0x00, 
0x3f, 0x00, 0x00, 0x00, 0x40, 0x00, 0x00, 0x00, 0x42, 0x00, 0x00, 0x00, 0x43, 0x00, 0x00, 0x00, 0x39, 0x00, 0x00, 0x00, 0x39, 0x00, 0x00, 0x00, 0x44, 0xed, 0xff, 0xff, 0x00, 0x00, 0x00, 0x01, 
0x04, 0x00, 0x00, 0x00, 0x00, 0xed, 0xff, 0xff, 0x02, 0x00, 0x00, 0x00, 0x04, 0x00, 0x00, 0x00, 0x03, 0x00, 0x00, 0x00, 0x32, 0x00, 0x00, 0x00, 0x38, 0x00, 0x00, 0x00, 0x38, 0x00, 0x00, 0x00, 
0x6c, 0xed, 0xff, 0xff, 0x00, 0x00, 0x00, 0x01, 0x04, 0x00, 0x00, 0x00, 0x28, 0xed, 0xff, 0xff, 0x01, 0x00, 0x00, 0x00, 0x04, 0x00, 0x00, 0x00, 0x0b, 0x00, 0x00, 0x00, 0x27, 0x00, 0x00, 0x00, 
0x06, 0x00, 0x00, 0x00, 0x07, 0x00, 0x00, 0x00, 0x10, 0x00, 0x00, 0x00, 0x11, 0x00, 0x00, 0x00, 0x35, 0x00, 0x00, 0x00, 0x36, 0x00, 0x00, 0x00, 0x32, 0x00, 0x00, 0x00, 0x33, 0x00, 0x00, 0x00, 
0x34, 0x00, 0x00, 0x00, 0x37, 0x00, 0x00, 0x00, 0xb4, 0xed, 0xff, 0xff, 0x00, 0x00, 0x00, 0x01, 0x04, 0x00, 0x00, 0x00, 0x4c, 0xff, 0xff, 0xff, 0x04, 0x00, 0x00, 0x00, 0x0b, 0x00, 0x00, 0x00, 
0x26, 0x00, 0x00, 0x00, 0x04, 0x00, 0x00, 0x00, 0x05, 0x00, 0x00, 0x00, 0x29, 0x00, 0x00, 0x00, 0x2b, 0x00, 0x00, 0x00, 0x2d, 0x00, 0x00, 0x00, 0x2e, 0x00, 0x00, 0x00, 0x30, 0x00, 0x00, 0x00, 
0x31, 0x00, 0x00, 0x00, 0x27, 0x00, 0x00, 0x00, 0x27, 0x00, 0x00, 0x00, 0xf8, 0xed, 0xff, 0xff, 0x00, 0x00, 0x00, 0x01, 0x04, 0x00, 0x00, 0x00, 0xb4, 0xed, 0xff, 0xff, 0x02, 0x00, 0x00, 0x00, 
0x04, 0x00, 0x00, 0x00, 0x03, 0x00, 0x00, 0x00, 0x20, 0x00, 0x00, 0x00, 0x26, 0x00, 0x00, 0x00, 0x26, 0x00, 0x00, 0x00, 0x20, 0xee, 0xff, 0xff, 0x00, 0x00, 0x00, 0x01, 0x04, 0x00, 0x00, 0x00, 
0xdc, 0xed, 0xff, 0xff, 0x01, 0x00, 0x00, 0x00, 0x04, 0x00, 0x00, 0x00, 0x0b, 0x00, 0x00, 0x00, 0x15, 0x00, 0x00, 0x00, 0x02, 0x00, 0x00, 0x00, 0x03, 0x00, 0x00, 0x00, 0x0e, 0x00, 0x00, 0x00, 
0x0f, 0x00, 0x00, 0x00, 0x23, 0x00, 0x00, 0x00, 0x24, 0x00, 0x00, 0x00, 0x20, 0x00, 0x00, 0x00, 0x21, 0x00, 0x00, 0x00, 0x22, 0x00, 0x00, 0x00, 0x25, 0x00, 0x00, 0x00, 0x68, 0xee, 0xff, 0xff, 
0x00, 0x00, 0x00, 0x01, 0x0c, 0x00, 0x00, 0x00, 0x08, 0x00, 0x08, 0x00, 0x00, 0x00, 0x04, 0x00, 0x08, 0x00, 0x00, 0x00, 0x04, 0x00, 0x00, 0x00, 0x0b, 0x00, 0x00, 0x00, 0x14, 0x00, 0x00, 0x00, 
0x00, 0x00, 0x00, 0x00, 0x01, 0x00, 0x00, 0x00, 0x17, 0x00, 0x00, 0x00, 0x19, 0x00, 0x00, 0x00, 0x1b, 0x00, 0x00, 0x00, 0x1c, 0x00, 0x00, 0x00, 0x1e, 0x00, 0x00, 0x00, 0x1f, 0x00, 0x00, 0x00, 
0x15, 0x00, 0x00, 0x00, 0x15, 0x00, 0x00, 0x00, 0x00, 0x00, 0x00, 0x00, 0x00, 0x00, 0x00, 0x00, 0x01, 0x00, 0x00, 0x00, 0x60, 0x00, 0x00, 0x00, 0x01, 0x00, 0x00, 0x00, 0x14, 0x00, 0x00, 0x00, 
0x63, 0x00, 0x00, 0x00, 0x38, 0x11, 0x00, 0x00, 0xfc, 0x10, 0x00, 0x00, 0xc8, 0x10, 0x00, 0x00, 0x94, 0x10, 0x00, 0x00, 0x58, 0x10, 0x00, 0x00, 0x24, 0x10, 0x00, 0x00, 0xf0, 0x0f, 0x00, 0x00, 
0xbc, 0x0f, 0x00, 0x00, 0x80, 0x0f, 0x00, 0x00, 0x4c, 0x0f, 0x00, 0x00, 0x18, 0x0f, 0x00, 0x00, 0xe4, 0x0e, 0x00, 0x00, 0xac, 0x0e, 0x00, 0x00, 0x78, 0x0e, 0x00, 0x00, 0x34, 0x0e, 0x00, 0x00, 
0x00, 0x0e, 0x00, 0x00, 0xcc, 0x0d, 0x00, 0x00, 0x98, 0x0d, 0x00, 0x00, 0x64, 0x0d, 0x00, 0x00, 0x30, 0x0d, 0x00, 0x00, 0xd0, 0x0c, 0x00, 0x00, 0x6c, 0x0c, 0x00, 0x00, 0x44, 0x0c, 0x00, 0x00, 
0x20, 0x0c, 0x00, 0x00, 0xfc, 0x0b, 0x00, 0x00, 0xd8, 0x0b, 0x00, 0x00, 0xbc, 0x0b, 0x00, 0x00, 0x98, 0x0b, 0x00, 0x00, 0x80, 0x0b, 0x00, 0x00, 0x6c, 0x0b, 0x00, 0x00, 0x44, 0x0b, 0x00, 0x00, 
0x28, 0x0b, 0x00, 0x00, 0xe4, 0x0a, 0x00, 0x00, 0x90, 0x0a, 0x00, 0x00, 0x50, 0x0a, 0x00, 0x00, 0x30, 0x0a, 0x00, 0x00, 0x14, 0x0a, 0x00, 0x00, 0xec, 0x09, 0x00, 0x00, 0xa4, 0x09, 0x00, 0x00, 
0x60, 0x09, 0x00, 0x00, 0x44, 0x09, 0x00, 0x00, 0x20, 0x09, 0x00, 0x00, 0x04, 0x09, 0x00, 0x00, 0xe0, 0x08, 0x00, 0x00, 0xc4, 0x08, 0x00, 0x00, 0xa0, 0x08, 0x00, 0x00, 0x8c, 0x08, 0x00, 0x00, 
0x78, 0x08, 0x00, 0x00, 0x54, 0x08, 0x00, 0x00, 0x38, 0x08, 0x00, 0x00, 0xf0, 0x07, 0x00, 0x00, 0xb0, 0x07, 0x00, 0x00, 0x70, 0x07, 0x00, 0x00, 0x50, 0x07, 0x00, 0x00, 0x34, 0x07, 0x00, 0x00, 
0x0c, 0x07, 0x00, 0x00, 0xc8, 0x06, 0x00, 0x00, 0x80, 0x06, 0x00, 0x00, 0x64, 0x06, 0x00, 0x00, 0x40, 0x06, 0x00, 0x00, 0x24, 0x06, 0x00, 0x00, 0x00, 0x06, 0x00, 0x00, 0xe4, 0x05, 0x00, 0x00, 
0xc0, 0x05, 0x00, 0x00, 0xac, 0x05, 0x00, 0x00, 0x98, 0x05, 0x00, 0x00, 0x74, 0x05, 0x00, 0x00, 0x58, 0x05, 0x00, 0x00, 0x14, 0x05, 0x00, 0x00, 0xd4, 0x04, 0x00, 0x00, 0x94, 0x04, 0x00, 0x00, 
0x78, 0x04, 0x00, 0x00, 0x5c, 0x04, 0x00, 0x00, 0x34, 0x04, 0x00, 0x00, 0xec, 0x03, 0x00, 0x00, 0xa4, 0x03, 0x00, 0x00, 0x84, 0x03, 0x00, 0x00, 0x38, 0x03, 0x00, 0x00, 0x1c, 0x03, 0x00, 0x00, 
0x00, 0x03, 0x00, 0x00, 0xd4, 0x02, 0x00, 0x00, 0xb4, 0x02, 0x00, 0x00, 0xa0, 0x02, 0x00, 0x00, 0x58, 0x02, 0x00, 0x00, 0x3c, 0x02, 0x00, 0x00, 0x18, 0x02, 0x00, 0x00, 0xd4, 0x01, 0x00, 0x00, 
0xb8, 0x01, 0x00, 0x00, 0x94, 0x01, 0x00, 0x00, 0x50, 0x01, 0x00, 0x00, 0x34, 0x01, 0x00, 0x00, 0x20, 0x01, 0x00, 0x00, 0xf4, 0x00, 0x00, 0x00, 0xb0, 0x00, 0x00, 0x00, 0x94, 0x00, 0x00, 0x00, 
0x78, 0x00, 0x00, 0x00, 0x34, 0x00, 0x00, 0x00, 0x18, 0x00, 0x00, 0x00, 0x04, 0x00, 0x00, 0x00, 0x5c, 0xf0, 0xff, 0xff, 0x00, 0x00, 0x00, 0x03, 0x04, 0x00, 0x00, 0x00, 0x9c, 0xf5, 0xff, 0xff, 
0x6c, 0xf0, 0xff, 0xff, 0x00, 0x00, 0x00, 0x02, 0x04, 0x00, 0x00, 0x00, 0x3e, 0xf5, 0xff, 0xff, 0x01, 0x00, 0x00, 0x00, 0x00, 0x00, 0x00, 0x00, 0x84, 0xf0, 0xff, 0xff, 0x00, 0x00, 0x00, 0x05, 
0x04, 0x00, 0x00, 0x00, 0xf2, 0xf4, 0xff, 0xff, 0x00, 0x00, 0x06, 0x01, 0x20, 0x00, 0x00, 0x00, 0x14, 0x00, 0x00, 0x00, 0x04, 0x00, 0x00, 0x00, 0x54, 0xf0, 0xff, 0xff, 0x01, 0x00, 0x00, 0x00, 
0x00, 0x64, 0x00, 0x00, 0x02, 0x00, 0x00, 0x00, 0x00, 0x01, 0x00, 0x00, 0x02, 0x00, 0x00, 0x00, 0x01, 0x00, 0x00, 0x00, 0x02, 0x00, 0x00, 0x00, 0xc4, 0xf0, 0xff, 0xff, 0x00, 0x00, 0x00, 0x02, 
0x04, 0x00, 0x00, 0x00, 0x96, 0xf5, 0xff, 0xff, 0x01, 0x00, 0x00, 0x00, 0x00, 0x00, 0x00, 0x00, 0xdc, 0xf0, 0xff, 0xff, 0x00, 0x00, 0x00, 0x02, 0x04, 0x00, 0x00, 0x00, 0xae, 0xf5, 0xff, 0xff, 
0x01, 0x00, 0x00, 0x00, 0x00, 0x00, 0x00, 0x00, 0xf4, 0xf0, 0xff, 0xff, 0x00, 0x00, 0x00, 0x05, 0x04, 0x00, 0x00, 0x00, 0x62, 0xf5, 0xff, 0xff, 0x00, 0x00, 0x06, 0x01, 0x20, 0x00, 0x00, 0x00, 
0x14, 0x00, 0x00, 0x00, 0x04, 0x00, 0x00, 0x00, 0xc4, 0xf0, 0xff, 0xff, 0x01, 0x00, 0x00, 0x00, 0xc0, 0x64, 0x00, 0x00, 0x02, 0x00, 0x00, 0x00, 0x00, 0x01, 0x00, 0x00, 0x02, 0x00, 0x00, 0x00, 
0x01, 0x00, 0x00, 0x00, 0x02, 0x00, 0x00, 0x00, 0x34, 0xf1, 0xff, 0xff, 0x00, 0x00, 0x00, 0x07, 0x04, 0x00, 0x00, 0x00, 0x1a, 0xf5, 0xff, 0xff, 0x04, 0x00, 0x00, 0x00, 0x02, 0x00, 0x00, 0x00, 
0x5a, 0x00, 0x00, 0x00, 0x00, 0x00, 0x00, 0x00, 0x5b, 0x00, 0x00, 0x00, 0x00, 0x00, 0x00, 0x00, 0x5c, 0xf1, 0xff, 0xff, 0x00, 0x00, 0x00, 0x02, 0x04, 0x00, 0x00, 0x00, 0x9c, 0xf6, 0xff, 0xff, 
0x6c, 0xf1, 0xff, 0xff, 0x00, 0x00, 0x00, 0x02, 0x04, 0x00, 0x00, 0x00, 0x3e, 0xf6, 0xff, 0xff, 0x01, 0x00, 0x00, 0x00, 0x00, 0x00, 0x00, 0x00, 0x84, 0xf1, 0xff, 0xff, 0x00, 0x00, 0x00, 0x05, 
0x04, 0x00, 0x00, 0x00, 0xf2, 0xf5, 0xff, 0xff, 0x00, 0x00, 0x06, 0x01, 0x20, 0x00, 0x00, 0x00, 0x14, 0x00, 0x00, 0x00, 0x04, 0x00, 0x00, 0x00, 0x54, 0xf1, 0xff, 0xff, 0x01, 0x00, 0x00, 0x00, 
0x40, 0x64, 0x00, 0x00, 0x02, 0x00, 0x00, 0x00, 0x00, 0x01, 0x00, 0x00, 0x02, 0x00, 0x00, 0x00, 0x10, 0x00, 0x00, 0x00, 0x02, 0x00, 0x00, 0x00, 0xc4, 0xf1, 0xff, 0xff, 0x00, 0x00, 0x00, 0x07, 
0x04, 0x00, 0x00, 0x00, 0xaa, 0xf5, 0xff, 0xff, 0x04, 0x00, 0x00, 0x00, 0x01, 0x00, 0x00, 0x00, 0x57, 0x00, 0x00, 0x00, 0x00, 0x00, 0x00, 0x00, 0xe4, 0xf1, 0xff, 0xff, 0x00, 0x00, 0x00, 0x02, 
0x04, 0x00, 0x00, 0x00, 0xb6, 0xf6, 0xff, 0xff, 0xff, 0xff, 0xff, 0xff, 0xff, 0xff, 0xff, 0xff, 0xfc, 0xf1, 0xff, 0xff, 0x00, 0x00, 0x00, 0x05, 0x04, 0x00, 0x00, 0x00, 0x6a, 0xf6, 0xff, 0xff, 
0x00, 0x00, 0x06, 0x01, 0x20, 0x00, 0x00, 0x00, 0x14, 0x00, 0x00, 0x00, 0x04, 0x00, 0x00, 0x00, 0xcc, 0xf1, 0xff, 0xff, 0x01, 0x00, 0x00, 0x00, 0x00, 0x64, 0x00, 0x00, 0x02, 0x00, 0x00, 0x00, 
0x00, 0x01, 0x00, 0x00, 0x02, 0x00, 0x00, 0x00, 0x01, 0x00, 0x00, 0x00, 0x10, 0x00, 0x00, 0x00, 0x3c, 0xf2, 0xff, 0xff, 0x00, 0x00, 0x00, 0x07, 0x04, 0x00, 0x00, 0x00, 0x22, 0xf6, 0xff, 0xff, 
0x04, 0x00, 0x00, 0x00, 0x01, 0x00, 0x00, 0x00, 0x54, 0x00, 0x00, 0x00, 0x00, 0x00, 0x00, 0x00, 0x5c, 0xf2, 0xff, 0xff, 0x00, 0x00, 0x00, 0x02, 0x04, 0x00, 0x00, 0x00, 0x2e, 0xf7, 0xff, 0xff, 
0xfe, 0xff, 0xff, 0xff, 0xff, 0xff, 0xff, 0xff, 0x74, 0xf2, 0xff, 0xff, 0x00, 0x00, 0x00, 0x05, 0x04, 0x00, 0x00, 0x00, 0xe2, 0xf6, 0xff, 0xff, 0x00, 0x00, 0x06, 0x01, 0x20, 0x00, 0x00, 0x00, 
0x14, 0x00, 0x00, 0x00, 0x04, 0x00, 0x00, 0x00, 0x44, 0xf2, 0xff, 0xff, 0x01, 0x00, 0x00, 0x00, 0x40, 0x64, 0x00, 0x00, 0x03, 0x00, 0x00, 0x00, 0x00, 0x01, 0x02, 0x00, 0x03, 0x00, 0x00, 0x00, 
0x01, 0x00, 0x00, 0x00, 0x10, 0x00, 0x00, 0x00, 0x01, 0x00, 0x00, 0x00, 0xb8, 0xf2, 0xff, 0xff, 0x00, 0x00, 0x00, 0x01, 0x04, 0x00, 0x00, 0x00, 0xf8, 0xf7, 0xff, 0xff, 0xe0, 0xf6, 0xff, 0xff, 
0x00, 0x00, 0x00, 0x03, 0x0c, 0x00, 0x00, 0x00, 0x00, 0x00, 0x06, 0x00, 0x08, 0x00, 0x07, 0x00, 0x06, 0x00, 0x00, 0x00, 0x00, 0x00, 0x00, 0x01, 0xe4, 0xf2, 0xff, 0xff, 0x00, 0x00, 0x00, 0x07, 
0x04, 0x00, 0x00, 0x00, 0xca, 0xf6, 0xff, 0xff, 0x04, 0x00, 0x00, 0x00, 0x02, 0x00, 0x00, 0x00, 0x4e, 0x00, 0x00, 0x00, 0x00, 0x00, 0x00, 0x00, 0x4f, 0x00, 0x00, 0x00, 0x00, 0x00, 0x00, 0x00, 
0x0c, 0xf3, 0xff, 0xff, 0x00, 0x00, 0x00, 0x02, 0x04, 0x00, 0x00, 0x00, 0xde, 0xf7, 0xff, 0xff, 0xfe, 0xff, 0xff, 0xff, 0xff, 0xff, 0xff, 0xff, 0x24, 0xf3, 0xff, 0xff, 0x00, 0x00, 0x00, 0x02, 
0x04, 0x00, 0x00, 0x00, 0xf6, 0xf7, 0xff, 0xff, 0xff, 0xff, 0xff, 0xff, 0xff, 0xff, 0xff, 0xff, 0x3c, 0xf3, 0xff, 0xff, 0x00, 0x00, 0x00, 0x05, 0x04, 0x00, 0x00, 0x00, 0xaa, 0xf7, 0xff, 0xff, 
0x00, 0x00, 0x06, 0x01, 0x20, 0x00, 0x00, 0x00, 0x14, 0x00, 0x00, 0x00, 0x04, 0x00, 0x00, 0x00, 0x0c, 0xf3, 0xff, 0xff, 0x01, 0x00, 0x00, 0x00, 0x00, 0x64, 0x00, 0x00, 0x04, 0x00, 0x00, 0x00, 
0x00, 0x01, 0x02, 0x03, 0x04, 0x00, 0x00, 0x00, 0x01, 0x00, 0x00, 0x00, 0x10, 0x00, 0x00, 0x00, 0x01, 0x00, 0x00, 0x00, 0x01, 0x00, 0x00, 0x00, 0x84, 0xf3, 0xff, 0xff, 0x00, 0x00, 0x00, 0x02, 
0x04, 0x00, 0x00, 0x00, 0x16, 0xf8, 0xff, 0xff, 0xfe, 0xff, 0xff, 0xff, 0xff, 0xff, 0xff, 0xff, 0x00, 0x00, 0x00, 0x00, 0xa0, 0xf3, 0xff, 0xff, 0x00, 0x00, 0x00, 0x05, 0x04, 0x00, 0x00, 0x00, 
0x0e, 0xf8, 0xff, 0xff, 0x00, 0x00, 0x06, 0x01, 0x1c, 0x00, 0x00, 0x00, 0x10, 0x00, 0x00, 0x00, 0x04, 0x00, 0x00, 0x00, 0x9a, 0xf7, 0xff, 0xff, 0x01, 0x00, 0x00, 0x00, 0x04, 0x00, 0x00, 0x00, 
0x00, 0x01, 0x02, 0x03, 0x04, 0x00, 0x00, 0x00, 0x01, 0x00, 0x00, 0x00, 0x10, 0x00, 0x00, 0x00, 0x01, 0x00, 0x00, 0x00, 0x64, 0x00, 0x00, 0x00, 0xe4, 0xf3, 0xff, 0xff, 0x00, 0x00, 0x00, 0x05, 
0x04, 0x00, 0x00, 0x00, 0x52, 0xf8, 0xff, 0xff, 0x00, 0x00, 0x06, 0x01, 0x20, 0x00, 0x00, 0x00, 0x14, 0x00, 0x00, 0x00, 0x04, 0x00, 0x00, 0x00, 0xb4, 0xf3, 0xff, 0xff, 0x01, 0x00, 0x00, 0x00, 
0x00, 0x32, 0x00, 0x00, 0x03, 0x00, 0x00, 0x00, 0x00, 0x01, 0x02, 0x00, 0x03, 0x00, 0x00, 0x00, 0x01, 0x00, 0x00, 0x00, 0x10, 0x00, 0x00, 0x00, 0x64, 0x00, 0x00, 0x00, 0x28, 0xf4, 0xff, 0xff, 
0x00, 0x00, 0x00, 0x0a, 0x04, 0x00, 0x00, 0x00, 0x0e, 0xf8, 0xff, 0xff, 0x04, 0x00, 0x00, 0x00, 0x03, 0x00, 0x00, 0x00, 0x44, 0x00, 0x00, 0x00, 0x45, 0x00, 0x00, 0x00, 0x46, 0x00, 0x00, 0x00, 
0x4c, 0xf4, 0xff, 0xff, 0x00, 0x00, 0x00, 0x04, 0x04, 0x00, 0x00, 0x00, 0x1e, 0xf9, 0xff, 0xff, 0xf1, 0x68, 0xe3, 0x88, 0xb5, 0xf8, 0xe4, 0x3e, 0x64, 0xf4, 0xff, 0xff, 0x00, 0x00, 0x00, 0x04, 
0x04, 0x00, 0x00, 0x00, 0x36, 0xf9, 0xff, 0xff, 0x9a, 0x99, 0x99, 0x99, 0x99, 0x99, 0xb9, 0x3f, 0x7c, 0xf4, 0xff, 0xff, 0x00, 0x00, 0x00, 0x05, 0x04, 0x00, 0x00, 0x00, 0x96, 0xfa, 0xff, 0xff, 
0x00, 0x00, 0x00, 0x06, 0x20, 0x00, 0x00, 0x00, 0x14, 0x00, 0x00, 0x00, 0x04, 0x00, 0x00, 0x00, 0x4c, 0xf4, 0xff, 0xff, 0x01, 0x00, 0x00, 0x00, 0x40, 0x64, 0x00, 0x00, 0x01, 0x00, 0x00, 0x00, 
0x00, 0x00, 0x00, 0x00, 0x01, 0x00, 0x00, 0x00, 0x00, 0x00, 0x00, 0x00, 0xb8, 0xf4, 0xff, 0xff, 0x00, 0x00, 0x00, 0x05, 0x04, 0x00, 0x00, 0x00, 0xd2, 0xfa, 0xff, 0xff, 0x00, 0x00, 0x00, 0x06, 
0x20, 0x00, 0x00, 0x00, 0x14, 0x00, 0x00, 0x00, 0x04, 0x00, 0x00, 0x00, 0x88, 0xf4, 0xff, 0xff, 0x01, 0x00, 0x00, 0x00, 0x00, 0x64, 0x00, 0x00, 0x01, 0x00, 0x00, 0x00, 0x00, 0x00, 0x00, 0x00, 
0x01, 0x00, 0x00, 0x00, 0x00, 0x00, 0x00, 0x00, 0xf4, 0xf4, 0xff, 0xff, 0x00, 0x00, 0x00, 0x05, 0x04, 0x00, 0x00, 0x00, 0x62, 0xf9, 0xff, 0xff, 0x00, 0x00, 0x06, 0x01, 0x1c, 0x00, 0x00, 0x00, 
0x10, 0x00, 0x00, 0x00, 0x04, 0x00, 0x00, 0x00, 0xee, 0xf8, 0xff, 0xff, 0x01, 0x00, 0x00, 0x00, 0x03, 0x00, 0x00, 0x00, 0x00, 0x01, 0x02, 0x00, 0x03, 0x00, 0x00, 0x00, 0x01, 0x00, 0x00, 0x00, 
0x10, 0x00, 0x00, 0x00, 0x64, 0x00, 0x00, 0x00, 0x34, 0xf5, 0xff, 0xff, 0x00, 0x00, 0x00, 0x02, 0x04, 0x00, 0x00, 0x00, 0x06, 0xfa, 0xff, 0xff, 0x01, 0x00, 0x00, 0x00, 0x00, 0x00, 0x00, 0x00, 
0x4c, 0xf5, 0xff, 0xff, 0x00, 0x00, 0x00, 0x07, 0x04, 0x00, 0x00, 0x00, 0x32, 0xf9, 0xff, 0xff, 0x04, 0x00, 0x00, 0x00, 0x01, 0x00, 0x00, 0x00, 0x41, 0x00, 0x00, 0x00, 0x00, 0x00, 0x00, 0x00, 
0x6c, 0xf5, 0xff, 0xff, 0x00, 0x00, 0x00, 0x02, 0x04, 0x00, 0x00, 0x00, 0xac, 0xfa, 0xff, 0xff, 0x7c, 0xf5, 0xff, 0xff, 0x00, 0x00, 0x00, 0x03, 0x04, 0x00, 0x00, 0x00, 0xbc, 0xfa, 0xff, 0xff, 
0x8c, 0xf5, 0xff, 0xff, 0x00, 0x00, 0x00, 0x07, 0x04, 0x00, 0x00, 0x00, 0x72, 0xf9, 0xff, 0xff, 0x04, 0x00, 0x00, 0x00, 0x01, 0x00, 0x00, 0x00, 0x3e, 0x00, 0x00, 0x00, 0x00, 0x00, 0x00, 0x00, 
0xac, 0xf5, 0xff, 0xff, 0x00, 0x00, 0x00, 0x02, 0x04, 0x00, 0x00, 0x00, 0x7e, 0xfa, 0xff, 0xff, 0x01, 0x00, 0x00, 0x00, 0x00, 0x00, 0x00, 0x00, 0xc4, 0xf5, 0xff, 0xff, 0x00, 0x00, 0x00, 0x07, 
0x04, 0x00, 0x00, 0x00, 0xaa, 0xf9, 0xff, 0xff, 0x04, 0x00, 0x00, 0x00, 0x01, 0x00, 0x00, 0x00, 0x3c, 0x00, 0x00, 0x00, 0x00, 0x00, 0x00, 0x00, 0xe4, 0xf5, 0xff, 0xff, 0x00, 0x00, 0x00, 0x02, 
0x04, 0x00, 0x00, 0x00, 0xb6, 0xfa, 0xff, 0xff, 0x03, 0x00, 0x00, 0x00, 0x00, 0x00, 0x00, 0x00, 0xfc, 0xf5, 0xff, 0xff, 0x00, 0x00, 0x00, 0x07, 0x04, 0x00, 0x00, 0x00, 0xe2, 0xf9, 0xff, 0xff, 
0x04, 0x00, 0x00, 0x00, 0x01, 0x00, 0x00, 0x00, 0x3a, 0x00, 0x00, 0x00, 0x00, 0x00, 0x00, 0x00, 0x1c, 0xf6, 0xff, 0xff, 0x00, 0x00, 0x00, 0x02, 0x04, 0x00, 0x00, 0x00, 0xee, 0xfa, 0xff, 0xff, 
0x01, 0x00, 0x00, 0x00, 0x00, 0x00, 0x00, 0x00, 0x34, 0xf6, 0xff, 0xff, 0x00, 0x00, 0x00, 0x05, 0x04, 0x00, 0x00, 0x00, 0xa2, 0xfa, 0xff, 0xff, 0x00, 0x00, 0x06, 0x01, 0x20, 0x00, 0x00, 0x00, 
0x14, 0x00, 0x00, 0x00, 0x04, 0x00, 0x00, 0x00, 0x04, 0xf6, 0xff, 0xff, 0x01, 0x00, 0x00, 0x00, 0x00, 0x32, 0x00, 0x00, 0x03, 0x00, 0x00, 0x00, 0x00, 0x01, 0x02, 0x00, 0x03, 0x00, 0x00, 0x00, 
0x01, 0x00, 0x00, 0x00, 0x10, 0x00, 0x00, 0x00, 0x64, 0x00, 0x00, 0x00, 0x78, 0xf6, 0xff, 0xff, 0x00, 0x00, 0x00, 0x05, 0x04, 0x00, 0x00, 0x00, 0xe6, 0xfa, 0xff, 0xff, 0x00, 0x00, 0x06, 0x01, 
0x1c, 0x00, 0x00, 0x00, 0x10, 0x00, 0x00, 0x00, 0x04, 0x00, 0x00, 0x00, 0x72, 0xfa, 0xff, 0xff, 0x01, 0x00, 0x00, 0x00, 0x03, 0x00, 0x00, 0x00, 0x00, 0x01, 0x02, 0x00, 0x03, 0x00, 0x00, 0x00, 
0x01, 0x00, 0x00, 0x00, 0x20, 0x00, 0x00, 0x00, 0x64, 0x00, 0x00, 0x00, 0xb8, 0xf6, 0xff, 0xff, 0x00, 0x00, 0x00, 0x0a, 0x04, 0x00, 0x00, 0x00, 0x9e, 0xfa, 0xff, 0xff, 0x04, 0x00, 0x00, 0x00, 
0x03, 0x00, 0x00, 0x00, 0x32, 0x00, 0x00, 0x00, 0x33, 0x00, 0x00, 0x00, 0x34, 0x00, 0x00, 0x00, 0xdc, 0xf6, 0xff, 0xff, 0x00, 0x00, 0x00, 0x04, 0x04, 0x00, 0x00, 0x00, 0xae, 0xfb, 0xff, 0xff, 
0xf1, 0x68, 0xe3, 0x88, 0xb5, 0xf8, 0xe4, 0x3e, 0xf4, 0xf6, 0xff, 0xff, 0x00, 0x00, 0x00, 0x04, 0x04, 0x00, 0x00, 0x00, 0x86, 0xfb, 0xff, 0xff, 0x9a, 0x99, 0x99, 0x99, 0x99, 0x99, 0xb9, 0x3f, 
0x00, 0x00, 0x00, 0x00, 0x10, 0xf7, 0xff, 0xff, 0x00, 0x00, 0x00, 0x05, 0x04, 0x00, 0x00, 0x00, 0x2a, 0xfd, 0xff, 0xff, 0x00, 0x00, 0x00, 0x06, 0x20, 0x00, 0x00, 0x00, 0x14, 0x00, 0x00, 0x00, 
0x04, 0x00, 0x00, 0x00, 0xe0, 0xf6, 0xff, 0xff, 0x01, 0x00, 0x00, 0x00, 0x40, 0x64, 0x00, 0x00, 0x01, 0x00, 0x00, 0x00, 0x00, 0x00, 0x00, 0x00, 0x01, 0x00, 0x00, 0x00, 0x00, 0x00, 0x00, 0x00, 
0x4c, 0xf7, 0xff, 0xff, 0x00, 0x00, 0x00, 0x05, 0x04, 0x00, 0x00, 0x00, 0x66, 0xfd, 0xff, 0xff, 0x00, 0x00, 0x00, 0x06, 0x20, 0x00, 0x00, 0x00, 0x14, 0x00, 0x00, 0x00, 0x04, 0x00, 0x00, 0x00, 
0x1c, 0xf7, 0xff, 0xff, 0x01, 0x00, 0x00, 0x00, 0x00, 0x64, 0x00, 0x00, 0x01, 0x00, 0x00, 0x00, 0x00, 0x00, 0x00, 0x00, 0x01, 0x00, 0x00, 0x00, 0x00, 0x00, 0x00, 0x00, 0x88, 0xf7, 0xff, 0xff, 
0x00, 0x00, 0x00, 0x05, 0x04, 0x00, 0x00, 0x00, 0xf6, 0xfb, 0xff, 0xff, 0x00, 0x00, 0x06, 0x01, 0x20, 0x00, 0x00, 0x00, 0x14, 0x00, 0x00, 0x00, 0x04, 0x00, 0x00, 0x00, 0x58, 0xf7, 0xff, 0xff, 
0x01, 0x00, 0x00, 0x00, 0x00, 0x32, 0x00, 0x00, 0x03, 0x00, 0x00, 0x00, 0x00, 0x01, 0x02, 0x00, 0x03, 0x00, 0x00, 0x00, 0x01, 0x00, 0x00, 0x00, 0x20, 0x00, 0x00, 0x00, 0x64, 0x00, 0x00, 0x00, 
0xcc, 0xf7, 0xff, 0xff, 0x00, 0x00, 0x00, 0x02, 0x04, 0x00, 0x00, 0x00, 0x9e, 0xfc, 0xff, 0xff, 0x01, 0x00, 0x00, 0x00, 0x00, 0x00, 0x00, 0x00, 0xe4, 0xf7, 0xff, 0xff, 0x00, 0x00, 0x00, 0x07, 
0x04, 0x00, 0x00, 0x00, 0xca, 0xfb, 0xff, 0xff, 0x04, 0x00, 0x00, 0x00, 0x01, 0x00, 0x00, 0x00, 0x2f, 0x00, 0x00, 0x00, 0x00, 0x00, 0x00, 0x00, 0x04, 0xf8, 0xff, 0xff, 0x00, 0x00, 0x00, 0x02, 
0x04, 0x00, 0x00, 0x00, 0x44, 0xfd, 0xff, 0xff, 0x14, 0xf8, 0xff, 0xff, 0x00, 0x00, 0x00, 0x03, 0x04, 0x00, 0x00, 0x00, 0x54, 0xfd, 0xff, 0xff, 0x24, 0xf8, 0xff, 0xff, 0x00, 0x00, 0x00, 0x07, 
0x04, 0x00, 0x00, 0x00, 0x0a, 0xfc, 0xff, 0xff, 0x04, 0x00, 0x00, 0x00, 0x01, 0x00, 0x00, 0x00, 0x2c, 0x00, 0x00, 0x00, 0x00, 0x00, 0x00, 0x00, 0x44, 0xf8, 0xff, 0xff, 0x00, 0x00, 0x00, 0x02, 
0x04, 0x00, 0x00, 0x00, 0x16, 0xfd, 0xff, 0xff, 0x01, 0x00, 0x00, 0x00, 0x00, 0x00, 0x00, 0x00, 0x5c, 0xf8, 0xff, 0xff, 0x00, 0x00, 0x00, 0x07, 0x04, 0x00, 0x00, 0x00, 0x42, 0xfc, 0xff, 0xff, 
0x04, 0x00, 0x00, 0x00, 0x01, 0x00, 0x00, 0x00, 0x2a, 0x00, 0x00, 0x00, 0x00, 0x00, 0x00, 0x00, 0x7c, 0xf8, 0xff, 0xff, 0x00, 0x00, 0x00, 0x02, 0x04, 0x00, 0x00, 0x00, 0x4e, 0xfd, 0xff, 0xff, 
0x02, 0x00, 0x00, 0x00, 0x00, 0x00, 0x00, 0x00, 0x94, 0xf8, 0xff, 0xff, 0x00, 0x00, 0x00, 0x07, 0x04, 0x00, 0x00, 0x00, 0x7a, 0xfc, 0xff, 0xff, 0x04, 0x00, 0x00, 0x00, 0x01, 0x00, 0x00, 0x00, 
0x28, 0x00, 0x00, 0x00, 0x00, 0x00, 0x00, 0x00, 0xb4, 0xf8, 0xff, 0xff, 0x00, 0x00, 0x00, 0x02, 0x04, 0x00, 0x00, 0x00, 0x86, 0xfd, 0xff, 0xff, 0x01, 0x00, 0x00, 0x00, 0x00, 0x00, 0x00, 0x00, 
0xcc, 0xf8, 0xff, 0xff, 0x00, 0x00, 0x00, 0x05, 0x04, 0x00, 0x00, 0x00, 0x3a, 0xfd, 0xff, 0xff, 0x00, 0x00, 0x06, 0x01, 0x1c, 0x00, 0x00, 0x00, 0x10, 0x00, 0x00, 0x00, 0x04, 0x00, 0x00, 0x00, 
0xc6, 0xfc, 0xff, 0xff, 0x01, 0x00, 0x00, 0x00, 0x03, 0x00, 0x00, 0x00, 0x00, 0x01, 0x02, 0x00, 0x03, 0x00, 0x00, 0x00, 0x01, 0x00, 0x00, 0x00, 0x20, 0x00, 0x00, 0x00, 0x64, 0x00, 0x00, 0x00, 
0x0c, 0xf9, 0xff, 0xff, 0x00, 0x00, 0x00, 0x05, 0x04, 0x00, 0x00, 0x00, 0x7a, 0xfd, 0xff, 0xff, 0x00, 0x00, 0x06, 0x01, 0x20, 0x00, 0x00, 0x00, 0x14, 0x00, 0x00, 0x00, 0x04, 0x00, 0x00, 0x00, 
0xdc, 0xf8, 0xff, 0xff, 0x01, 0x00, 0x00, 0x00, 0x00, 0x32, 0x00, 0x00, 0x03, 0x00, 0x00, 0x00, 0x00, 0x01, 0x02, 0x00, 0x03, 0x00, 0x00, 0x00, 0x01, 0x00, 0x00, 0x00, 0x04, 0x00, 0x00, 0x00, 
0x64, 0x00, 0x00, 0x00, 0x50, 0xf9, 0xff, 0xff, 0x00, 0x00, 0x00, 0x0a, 0x04, 0x00, 0x00, 0x00, 0x36, 0xfd, 0xff, 0xff, 0x04, 0x00, 0x00, 0x00, 0x03, 0x00, 0x00, 0x00, 0x20, 0x00, 0x00, 0x00, 
0x21, 0x00, 0x00, 0x00, 0x22, 0x00, 0x00, 0x00, 0x74, 0xf9, 0xff, 0xff, 0x00, 0x00, 0x00, 0x04, 0x04, 0x00, 0x00, 0x00, 0x46, 0xfe, 0xff, 0xff, 0xf1, 0x68, 0xe3, 0x88, 0xb5, 0xf8, 0xe4, 0x3e, 
0x8c, 0xf9, 0xff, 0xff, 0x00, 0x00, 0x00, 0x04, 0x04, 0x00, 0x00, 0x00, 0x1e, 0xfe, 0xff, 0xff, 0x9a, 0x99, 0x99, 0x99, 0x99, 0x99, 0xb9, 0x3f, 0x00, 0x00, 0x00, 0x00, 0xa8, 0xf9, 0xff, 0xff, 
0x00, 0x00, 0x00, 0x05, 0x04, 0x00, 0x00, 0x00, 0xc2, 0xff, 0xff, 0xff, 0x00, 0x00, 0x00, 0x06, 0x20, 0x00, 0x00, 0x00, 0x14, 0x00, 0x00, 0x00, 0x04, 0x00, 0x00, 0x00, 0x78, 0xf9, 0xff, 0xff, 
0x01, 0x00, 0x00, 0x00, 0x40, 0x64, 0x00, 0x00, 0x01, 0x00, 0x00, 0x00, 0x00, 0x00, 0x00, 0x00, 0x01, 0x00, 0x00, 0x00, 0x00, 0x00, 0x00, 0x00, 0xfc, 0xfd, 0xff, 0xff, 0x00, 0x00, 0x00, 0x05, 
0x18, 0x00, 0x00, 0x00, 0x00, 0x00, 0x12, 0x00, 0x14, 0x00, 0x07, 0x00, 0x00, 0x00, 0x08, 0x00, 0x0c, 0x00, 0x00, 0x00, 0x00, 0x00, 0x10, 0x00, 0x12, 0x00, 0x00, 0x00, 0x00, 0x00, 0x00, 0x06, 
0x20, 0x00, 0x00, 0x00, 0x14, 0x00, 0x00, 0x00, 0x04, 0x00, 0x00, 0x00, 0xc8, 0xf9, 0xff, 0xff, 0x01, 0x00, 0x00, 0x00, 0x00, 0x64, 0x00, 0x00, 0x01, 0x00, 0x00, 0x00, 0x00, 0x00, 0x00, 0x00, 
0x01, 0x00, 0x00, 0x00, 0x00, 0x00, 0x00, 0x00, 0x34, 0xfa, 0xff, 0xff, 0x00, 0x00, 0x00, 0x05, 0x04, 0x00, 0x00, 0x00, 0xa2, 0xfe, 0xff, 0xff, 0x00, 0x00, 0x06, 0x01, 0x1c, 0x00, 0x00, 0x00, 
0x10, 0x00, 0x00, 0x00, 0x04, 0x00, 0x00, 0x00, 0x2e, 0xfe, 0xff, 0xff, 0x01, 0x00, 0x00, 0x00, 0x03, 0x00, 0x00, 0x00, 0x00, 0x01, 0x02, 0x00, 0x03, 0x00, 0x00, 0x00, 0x01, 0x00, 0x00, 0x00, 
0x04, 0x00, 0x00, 0x00, 0x64, 0x00, 0x00, 0x00, 0x74, 0xfa, 0xff, 0xff, 0x00, 0x00, 0x00, 0x02, 0x04, 0x00, 0x00, 0x00, 0x46, 0xff, 0xff, 0xff, 0x01, 0x00, 0x00, 0x00, 0x00, 0x00, 0x00, 0x00, 
0x8c, 0xfa, 0xff, 0xff, 0x00, 0x00, 0x00, 0x07, 0x04, 0x00, 0x00, 0x00, 0x72, 0xfe, 0xff, 0xff, 0x04, 0x00, 0x00, 0x00, 0x01, 0x00, 0x00, 0x00, 0x1d, 0x00, 0x00, 0x00, 0x00, 0x00, 0x00, 0x00, 
0x00, 0x00, 0x00, 0x00, 0xb0, 0xfa, 0xff, 0xff, 0x00, 0x00, 0x00, 0x02, 0x04, 0x00, 0x00, 0x00, 0xf0, 0xff, 0xff, 0xff, 0xc0, 0xfa, 0xff, 0xff, 0x00, 0x00, 0x00, 0x03, 0x08, 0x00, 0x00, 0x00, 
0x04, 0x00, 0x04, 0x00, 0x04, 0x00, 0x00, 0x00, 0xd4, 0xfa, 0xff, 0xff, 0x00, 0x00, 0x00, 0x07, 0x04, 0x00, 0x00, 0x00, 0xba, 0xfe, 0xff, 0xff, 0x04, 0x00, 0x00, 0x00, 0x01, 0x00, 0x00, 0x00, 
0x1a, 0x00, 0x00, 0x00, 0x00, 0x00, 0x00, 0x00, 0xf4, 0xfa, 0xff, 0xff, 0x00, 0x00, 0x00, 0x02, 0x04, 0x00, 0x00, 0x00, 0xc6, 0xff, 0xff, 0xff, 0x01, 0x00, 0x00, 0x00, 0x00, 0x00, 0x00, 0x00, 
0x0c, 0xfb, 0xff, 0xff, 0x00, 0x00, 0x00, 0x07, 0x04, 0x00, 0x00, 0x00, 0xf2, 0xfe, 0xff, 0xff, 0x04, 0x00, 0x00, 0x00, 0x01, 0x00, 0x00, 0x00, 0x18, 0x00, 0x00, 0x00, 0x00, 0x00, 0x00, 0x00, 
0x44, 0xff, 0xff, 0xff, 0x00, 0x00, 0x00, 0x02, 0x0c, 0x00, 0x00, 0x00, 0x00, 0x00, 0x06, 0x00, 0x0c, 0x00, 0x04, 0x00, 0x06, 0x00, 0x00, 0x00, 0x02, 0x00, 0x00, 0x00, 0x00, 0x00, 0x00, 0x00, 
0x4c, 0xfb, 0xff, 0xff, 0x00, 0x00, 0x00, 0x07, 0x04, 0x00, 0x00, 0x00, 0x32, 0xff, 0xff, 0xff, 0x04, 0x00, 0x00, 0x00, 0x01, 0x00, 0x00, 0x00, 0x16, 0x00, 0x00, 0x00, 0x00, 0x00, 0x00, 0x00, 
0x84, 0xff, 0xff, 0xff, 0x00, 0x00, 0x00, 0x02, 0x0c, 0x00, 0x00, 0x00, 0x00, 0x00, 0x06, 0x00, 0x10, 0x00, 0x04, 0x00, 0x06, 0x00, 0x00, 0x00, 0x01, 0x00, 0x00, 0x00, 0x00, 0x00, 0x00, 0x00, 
0x00, 0x00, 0x00, 0x00, 0xa8, 0xff, 0xff, 0xff, 0x00, 0x00, 0x00, 0x05, 0x18, 0x00, 0x00, 0x00, 0x00, 0x00, 0x12, 0x00, 0x14, 0x00, 0x06, 0x00, 0x00, 0x00, 0x08, 0x00, 0x0c, 0x00, 0x07, 0x00, 
0x00, 0x00, 0x10, 0x00, 0x12, 0x00, 0x00, 0x00, 0x00, 0x00, 0x06, 0x01, 0x20, 0x00, 0x00, 0x00, 0x14, 0x00, 0x00, 0x00, 0x04, 0x00, 0x00, 0x00, 0x74, 0xfb, 0xff, 0xff, 0x01, 0x00, 0x00, 0x00, 
0x00, 0x32, 0x00, 0x00, 0x03, 0x00, 0x00, 0x00, 0x00, 0x01, 0x02, 0x00, 0x03, 0x00, 0x00, 0x00, 0x01, 0x00, 0x00, 0x00, 0x04, 0x00, 0x00, 0x00, 0x64, 0x00, 0x00, 0x00, 0x08, 0x00, 0x0e, 0x00, 
0x07, 0x00, 0x08, 0x00, 0x08, 0x00, 0x00, 0x00, 0x00, 0x00, 0x00, 0x05, 0x18, 0x00, 0x00, 0x00, 0x00, 0x00, 0x12, 0x00, 0x16, 0x00, 0x07, 0x00, 0x00, 0x00, 0x08, 0x00, 0x0c, 0x00, 0x00, 0x00, 
0x00, 0x00, 0x10, 0x00, 0x12, 0x00, 0x00, 0x00, 0x00, 0x00, 0x00, 0x06, 0x24, 0x00, 0x00, 0x00, 0x18, 0x00, 0x00, 0x00, 0x0c, 0x00, 0x00, 0x00, 0x00, 0x00, 0x06, 0x00, 0x08, 0x00, 0x04, 0x00, 
0x06, 0x00, 0x00, 0x00, 0x01, 0x00, 0x00, 0x00, 0x03, 0x00, 0x00, 0x00, 0x00, 0x01, 0x02, 0x00, 0x03, 0x00, 0x00, 0x00, 0x01, 0x00, 0x00, 0x00, 0x01, 0x00, 0x00, 0x00, 0x64, 0x00, 0x00, 0x00, 
0x4c, 0xfc, 0xff, 0xff, 0x00, 0x00, 0x00, 0x05, 0x04, 0x00, 0x00, 0x00, 0x10, 0xff, 0xff, 0xff, 0x00, 0x00, 0x00, 0x06, 0x14, 0x00, 0x00, 0x00, 0x08, 0x00, 0x00, 0x00, 0x14, 0x00, 0x00, 0x00, 
0x01, 0x00, 0x00, 0x00, 0x00, 0x00, 0x00, 0x00, 0x01, 0x00, 0x00, 0x00, 0x10, 0x00, 0x00, 0x00, 0x7c, 0xfc, 0xff, 0xff, 0x00, 0x00, 0x00, 0x05, 0x04, 0x00, 0x00, 0x00, 0x40, 0xff, 0xff, 0xff, 
0x00, 0x00, 0x00, 0x06, 0x14, 0x00, 0x00, 0x00, 0x08, 0x00, 0x00, 0x00, 0x13, 0x00, 0x00, 0x00, 0x01, 0x00, 0x00, 0x00, 0x00, 0x00, 0x00, 0x00, 0x01, 0x00, 0x00, 0x00, 0x10, 0x00, 0x00, 0x00, 
0xac, 0xfc, 0xff, 0xff, 0x00, 0x00, 0x00, 0x05, 0x04, 0x00, 0x00, 0x00, 0x70, 0xff, 0xff, 0xff, 0x00, 0x00, 0x00, 0x06, 0x14, 0x00, 0x00, 0x00, 0x08, 0x00, 0x00, 0x00, 0x12, 0x00, 0x00, 0x00, 
0x01, 0x00, 0x00, 0x00, 0x00, 0x00, 0x00, 0x00, 0x01, 0x00, 0x00, 0x00, 0x20, 0x00, 0x00, 0x00, 0xdc, 0xfc, 0xff, 0xff, 0x00, 0x00, 0x00, 0x05, 0x04, 0x00, 0x00, 0x00, 0xa0, 0xff, 0xff, 0xff, 
0x00, 0x00, 0x00, 0x06, 0x14, 0x00, 0x00, 0x00, 0x08, 0x00, 0x00, 0x00, 0x11, 0x00, 0x00, 0x00, 0x01, 0x00, 0x00, 0x00, 0x00, 0x00, 0x00, 0x00, 0x01, 0x00, 0x00, 0x00, 0x20, 0x00, 0x00, 0x00, 
0x0c, 0xfd, 0xff, 0xff, 0x00, 0x00, 0x00, 0x05, 0x04, 0x00, 0x00, 0x00, 0xd0, 0xff, 0xff, 0xff, 0x00, 0x00, 0x00, 0x06, 0x14, 0x00, 0x00, 0x00, 0x08, 0x00, 0x00, 0x00, 0x10, 0x00, 0x00, 0x00, 
0x01, 0x00, 0x00, 0x00, 0x00, 0x00, 0x00, 0x00, 0x01, 0x00, 0x00, 0x00, 0x04, 0x00, 0x00, 0x00, 0x3c, 0xfd, 0xff, 0xff, 0x00, 0x00, 0x00, 0x05, 0x14, 0x00, 0x00, 0x00, 0x10, 0x00, 0x14, 0x00, 
0x07, 0x00, 0x00, 0x00, 0x08, 0x00, 0x0c, 0x00, 0x00, 0x00, 0x10, 0x00, 0x10, 0x00, 0x00, 0x00, 0x00, 0x00, 0x00, 0x06, 0x14, 0x00, 0x00, 0x00, 0x08, 0x00, 0x00, 0x00, 0x0f, 0x00, 0x00, 0x00, 
0x01, 0x00, 0x00, 0x00, 0x00, 0x00, 0x00, 0x00, 0x01, 0x00, 0x00, 0x00, 0x04, 0x00, 0x00, 0x00, 0x7c, 0xfd, 0xff, 0xff, 0x00, 0x00, 0x00, 0x05, 0x04, 0x00, 0x00, 0x00, 0x74, 0xfd, 0xff, 0xff, 
0x00, 0x00, 0x06, 0x01, 0x14, 0x00, 0x00, 0x00, 0x08, 0x00, 0x00, 0x00, 0x0e, 0x00, 0x00, 0x00, 0x01, 0x00, 0x00, 0x00, 0x00, 0x00, 0x00, 0x00, 0x01, 0x00, 0x00, 0x00, 0x02, 0x00, 0x00, 0x00, 
0xac, 0xfd, 0xff, 0xff, 0x00, 0x00, 0x00, 0x05, 0x04, 0x00, 0x00, 0x00, 0xa4, 0xfd, 0xff, 0xff, 0x00, 0x00, 0x06, 0x01, 0x14, 0x00, 0x00, 0x00, 0x08, 0x00, 0x00, 0x00, 0x0d, 0x00, 0x00, 0x00, 
0x02, 0x00, 0x00, 0x00, 0x00, 0x01, 0x00, 0x00, 0x02, 0x00, 0x00, 0x00, 0x02, 0x00, 0x00, 0x00, 0x10, 0x00, 0x00, 0x00, 0xe0, 0xfd, 0xff, 0xff, 0x00, 0x00, 0x00, 0x05, 0x04, 0x00, 0x00, 0x00, 
0xd8, 0xfd, 0xff, 0xff, 0x00, 0x00, 0x06, 0x01, 0x14, 0x00, 0x00, 0x00, 0x08, 0x00, 0x00, 0x00, 0x0c, 0x00, 0x00, 0x00, 0x01, 0x00, 0x00, 0x00, 0x00, 0x00, 0x00, 0x00, 0x01, 0x00, 0x00, 0x00, 
0x10, 0x00, 0x00, 0x00, 0x10, 0xfe, 0xff, 0xff, 0x00, 0x00, 0x00, 0x05, 0x04, 0x00, 0x00, 0x00, 0x08, 0xfe, 0xff, 0xff, 0x00, 0x00, 0x06, 0x01, 0x14, 0x00, 0x00, 0x00, 0x08, 0x00, 0x00, 0x00, 
0x0b, 0x00, 0x00, 0x00, 0x01, 0x00, 0x00, 0x00, 0x00, 0x00, 0x00, 0x00, 0x01, 0x00, 0x00, 0x00, 0x10, 0x00, 0x00, 0x00, 0x40, 0xfe, 0xff, 0xff, 0x00, 0x00, 0x00, 0x05, 0x04, 0x00, 0x00, 0x00, 
0x38, 0xfe, 0xff, 0xff, 0x00, 0x00, 0x06, 0x01, 0x14, 0x00, 0x00, 0x00, 0x08, 0x00, 0x00, 0x00, 0x0a, 0x00, 0x00, 0x00, 0x01, 0x00, 0x00, 0x00, 0x00, 0x00, 0x00, 0x00, 0x01, 0x00, 0x00, 0x00, 
0x10, 0x00, 0x00, 0x00, 0x70, 0xfe, 0xff, 0xff, 0x00, 0x00, 0x00, 0x05, 0x04, 0x00, 0x00, 0x00, 0x68, 0xfe, 0xff, 0xff, 0x00, 0x00, 0x06, 0x01, 0x14, 0x00, 0x00, 0x00, 0x08, 0x00, 0x00, 0x00, 
0x09, 0x00, 0x00, 0x00, 0x03, 0x00, 0x00, 0x00, 0x00, 0x01, 0x02, 0x00, 0x03, 0x00, 0x00, 0x00, 0x10, 0x00, 0x00, 0x00, 0x20, 0x00, 0x00, 0x00, 0x07, 0x00, 0x00, 0x00, 0xa8, 0xfe, 0xff, 0xff, 
0x00, 0x00, 0x00, 0x05, 0x04, 0x00, 0x00, 0x00, 0xa0, 0xfe, 0xff, 0xff, 0x00, 0x00, 0x06, 0x01, 0x14, 0x00, 0x00, 0x00, 0x08, 0x00, 0x00, 0x00, 0x08, 0x00, 0x00, 0x00, 0x01, 0x00, 0x00, 0x00, 
0x00, 0x00, 0x00, 0x00, 0x01, 0x00, 0x00, 0x00, 0x20, 0x00, 0x00, 0x00, 0xd8, 0xfe, 0xff, 0xff, 0x00, 0x00, 0x00, 0x05, 0x04, 0x00, 0x00, 0x00, 0xd0, 0xfe, 0xff, 0xff, 0x00, 0x00, 0x06, 0x01, 
0x14, 0x00, 0x00, 0x00, 0x08, 0x00, 0x00, 0x00, 0x07, 0x00, 0x00, 0x00, 0x01, 0x00, 0x00, 0x00, 0x00, 0x00, 0x00, 0x00, 0x01, 0x00, 0x00, 0x00, 0x20, 0x00, 0x00, 0x00, 0x08, 0xff, 0xff, 0xff, 
0x00, 0x00, 0x00, 0x05, 0x04, 0x00, 0x00, 0x00, 0x00, 0xff, 0xff, 0xff, 0x00, 0x00, 0x06, 0x01, 0x14, 0x00, 0x00, 0x00, 0x08, 0x00, 0x00, 0x00, 0x06, 0x00, 0x00, 0x00, 0x01, 0x00, 0x00, 0x00, 
0x00, 0x00, 0x00, 0x00, 0x01, 0x00, 0x00, 0x00, 0x20, 0x00, 0x00, 0x00, 0x38, 0xff, 0xff, 0xff, 0x00, 0x00, 0x00, 0x05, 0x04, 0x00, 0x00, 0x00, 0x30, 0xff, 0xff, 0xff, 0x00, 0x00, 0x06, 0x01, 
0x14, 0x00, 0x00, 0x00, 0x08, 0x00, 0x00, 0x00, 0x05, 0x00, 0x00, 0x00, 0x03, 0x00, 0x00, 0x00, 0x00, 0x01, 0x02, 0x00, 0x03, 0x00, 0x00, 0x00, 0x20, 0x00, 0x00, 0x00, 0x04, 0x00, 0x00, 0x00, 
0x05, 0x00, 0x00, 0x00, 0x70, 0xff, 0xff, 0xff, 0x00, 0x00, 0x00, 0x05, 0x04, 0x00, 0x00, 0x00, 0x68, 0xff, 0xff, 0xff, 0x00, 0x00, 0x06, 0x01, 0x14, 0x00, 0x00, 0x00, 0x08, 0x00, 0x00, 0x00, 
0x04, 0x00, 0x00, 0x00, 0x01, 0x00, 0x00, 0x00, 0x00, 0x00, 0x00, 0x00, 0x01, 0x00, 0x00, 0x00, 0x04, 0x00, 0x00, 0x00, 0xa0, 0xff, 0xff, 0xff, 0x00, 0x00, 0x00, 0x05, 0x04, 0x00, 0x00, 0x00, 
0x98, 0xff, 0xff, 0xff, 0x00, 0x00, 0x06, 0x01, 0x14, 0x00, 0x00, 0x00, 0x08, 0x00, 0x00, 0x00, 0x03, 0x00, 0x00, 0x00, 0x01, 0x00, 0x00, 0x00, 0x00, 0x00, 0x00, 0x00, 0x01, 0x00, 0x00, 0x00, 
0x04, 0x00, 0x00, 0x00, 0xd0, 0xff, 0xff, 0xff, 0x00, 0x00, 0x00, 0x05, 0x04, 0x00, 0x00, 0x00, 0xc8, 0xff, 0xff, 0xff, 0x00, 0x00, 0x06, 0x01, 0x14, 0x00, 0x00, 0x00, 0x08, 0x00, 0x00, 0x00, 
0x02, 0x00, 0x00, 0x00, 0x01, 0x00, 0x00, 0x00, 0x00, 0x00, 0x00, 0x00, 0x01, 0x00, 0x00, 0x00, 0x04, 0x00, 0x00, 0x00, 0x08, 0x00, 0x0c, 0x00, 0x07, 0x00, 0x08, 0x00, 0x08, 0x00, 0x00, 0x00, 
0x00, 0x00, 0x00, 0x05, 0x14, 0x00, 0x00, 0x00, 0x10, 0x00, 0x14, 0x00, 0x06, 0x00, 0x00, 0x00, 0x08, 0x00, 0x0c, 0x00, 0x07, 0x00, 0x10, 0x00, 0x10, 0x00, 0x00, 0x00, 0x00, 0x00, 0x06, 0x01, 
0x14, 0x00, 0x00, 0x00, 0x08, 0x00, 0x00, 0x00, 0x01, 0x00, 0x00, 0x00, 0x03, 0x00, 0x00, 0x00, 0x00, 0x01, 0x02, 0x00, 0x03, 0x00, 0x00, 0x00, 0x04, 0x00, 0x00, 0x00, 0x01, 0x00, 0x00, 0x00, 
0x05, 0x00, 0x00, 0x00, 0x08, 0x00, 0x0c, 0x00, 0x04, 0x00, 0x08, 0x00, 0x08, 0x00, 0x00, 0x00, 0x48, 0x00, 0x00, 0x00, 0x04, 0x00, 0x00, 0x00, 0x39, 0x00, 0x00, 0x00, 0x5b, 0x31, 0x2c, 0x20, 
0x7b, 0x22, 0x74, 0x79, 0x70, 0x65, 0x22, 0x3a, 0x20, 0x6e, 0x75, 0x6c, 0x6c, 0x2c, 0x20, 0x22, 0x63, 0x6f, 0x6e, 0x74, 0x65, 0x78, 0x74, 0x22, 0x3a, 0x20, 0x6e, 0x75, 0x6c, 0x6c, 0x2c, 0x20, 
0x22, 0x63, 0x68, 0x69, 0x6c, 0x64, 0x72, 0x65, 0x6e, 0x5f, 0x73, 0x70, 0x65, 0x63, 0x22, 0x3a, 0x20, 0x5b, 0x5d, 0x7d, 0x5d, 0x00, 0x00, 0x00, 0xfe, 0x00, 0x00, 0x00, 0x5b, 0x31, 0x2c, 0x20, 
0x7b, 0x22, 0x74, 0x79, 0x70, 0x65, 0x22, 0x3a, 0x20, 0x22, 0x62, 0x75, 0x69, 0x6c, 0x74, 0x69, 0x6e, 0x73, 0x2e, 0x74, 0x75, 0x70, 0x6c, 0x65, 0x22, 0x2c, 0x20, 0x22, 0x63, 0x6f, 0x6e, 0x74, 
0x65, 0x78, 0x74, 0x22, 0x3a, 0x20, 0x22, 0x6e, 0x75, 0x6c, 0x6c, 0x22, 0x2c, 0x20, 0x22, 0x63, 0x68, 0x69, 0x6c, 0x64, 0x72, 0x65, 0x6e, 0x5f, 0x73, 0x70, 0x65, 0x63, 0x22, 0x3a, 0x20, 0x5b, 
0x7b, 0x22, 0x74, 0x79, 0x70, 0x65, 0x22, 0x3a, 0x20, 0x22, 0x62, 0x75, 0x69, 0x6c, 0x74, 0x69, 0x6e, 0x73, 0x2e, 0x74, 0x75, 0x70, 0x6c, 0x65, 0x22, 0x2c, 0x20, 0x22, 0x63, 0x6f, 0x6e, 0x74, 
0x65, 0x78, 0x74, 0x22, 0x3a, 0x20, 0x22, 0x6e, 0x75, 0x6c, 0x6c, 0x22, 0x2c, 0x20, 0x22, 0x63, 0x68, 0x69, 0x6c, 0x64, 0x72, 0x65, 0x6e, 0x5f, 0x73, 0x70, 0x65, 0x63, 0x22, 0x3a, 0x20, 0x5b, 
0x7b, 0x22, 0x74, 0x79, 0x70, 0x65, 0x22, 0x3a, 0x20, 0x6e, 0x75, 0x6c, 0x6c, 0x2c, 0x20, 0x22, 0x63, 0x6f, 0x6e, 0x74, 0x65, 0x78, 0x74, 0x22, 0x3a, 0x20, 0x6e, 0x75, 0x6c, 0x6c, 0x2c, 0x20, 
0x22, 0x63, 0x68, 0x69, 0x6c, 0x64, 0x72, 0x65, 0x6e, 0x5f, 0x73, 0x70, 0x65, 0x63, 0x22, 0x3a, 0x20, 0x5b, 0x5d, 0x7d, 0x5d, 0x7d, 0x2c, 0x20, 0x7b, 0x22, 0x74, 0x79, 0x70, 0x65, 0x22, 0x3a, 
0x20, 0x22, 0x62, 0x75, 0x69, 0x6c, 0x74, 0x69, 0x6e, 0x73, 0x2e, 0x64, 0x69, 0x63, 0x74, 0x22, 0x2c, 0x20, 0x22, 0x63, 0x6f, 0x6e, 0x74, 0x65, 0x78, 0x74, 0x22, 0x3a, 0x20, 0x22, 0x5b, 0x5d, 
0x22, 0x2c, 0x20, 0x22, 0x63, 0x68, 0x69, 0x6c, 0x64, 0x72, 0x65, 0x6e, 0x5f, 0x73, 0x70, 0x65, 0x63, 0x22, 0x3a, 0x20, 0x5b, 0x5d, 0x7d, 0x5d, 0x7d, 0x5d, 0x00, 0x00, 0x07, 0x00, 0x00, 0x00, 
0x66, 0x6f, 0x72, 0x77, 0x61, 0x72, 0x64, 0x00, 0x00, 0x00, 0x00, 0x00, 0x00, 0x00, 0x00, 0x00, 0x00, 0x00, 0x00, 0x00, 0x00, 0x00, 0x00, 0x00, 0x00, 0x00, 0x00, 0x00, 0x00, 0x00, 0x00, 0x00, 
0x00, 0x00, 0x00, 0x00, 0x00, 0x00, 0x00, 0x00, 0x00, 0x00, 0x00, 0x00, 0x00, 0x00, 0x00, 0x00, 0x00, 0x00, 0x00, 0x00, 0x00, 0x00, 0x00, 0x00, 0x00, 0x00, 0x00, 0x00, 0x00, 0x00, 0x00, 0x00, 
0x00, 0x00, 0x00, 0x00, 0x00, 0x00, 0x00, 0x00, 0x00, 0x00, 0x00, 0x00, 0x00, 0x00, 0x00, 0x00, 0x00, 0x00, 0x00, 0x00, 0x00, 0x00, 0x00, 0x00, 0x00, 0x00, 0x00, 0x00, 0x00, 0x00, 0x00, 0x00, 
0xb9, 0xdb, 0x62, 0xbe, 0x96, 0x10, 0xf6, 0xbd, 0x1b, 0x53, 0xd4, 0x3e, 0x1e, 0xed, 0xd5, 0x3e, 0x09, 0x2e, 0xe1, 0xbe, 0x24, 0xfd, 0x21, 0xbf, 0xc7, 0xc7, 0x4e, 0xbe, 0x9a, 0x9c, 0x94, 0x3e, 
0x58, 0x90, 0x4a, 0x3d, 0x1b, 0x87, 0x8a, 0x3d, 0x71, 0xc6, 0x1b, 0x3e, 0xd8, 0xfb, 0x89, 0x3e, 0xbf, 0x24, 0xc0, 0x3a, 0x22, 0x86, 0xcf, 0xbe, 0xed, 0x4f, 0x86, 0xbd, 0xb9, 0x20, 0x67, 0x3e, 
0xa6, 0x13, 0x5d, 0x3d, 0xa7, 0x63, 0x92, 0xbe, 0xc6, 0x70, 0xdf, 0x3e, 0xd6, 0xab, 0xdc, 0xbe, 0xc4, 0xd5, 0x8e, 0xbe, 0x92, 0x44, 0xbb, 0x3e, 0x8a, 0x49, 0x03, 0xbe, 0xbd, 0x88, 0x84, 0xbe, 
0x3a, 0x5f, 0x2d, 0x3f, 0x9c, 0x7d, 0xca, 0x3e, 0xec, 0xb5, 0x42, 0x3f, 0x5a, 0xf6, 0x0d, 0x40, 0x32, 0xb0, 0x15, 0x3d, 0x03, 0x8e, 0x06, 0xbe, 0x8b, 0x0a, 0x92, 0x3d, 0x25, 0xa3, 0x98, 0x3e, 
0x9d, 0x40, 0xc8, 0xbd, 0x55, 0xce, 0x84, 0xbe, 0x08, 0xc9, 0xa3, 0xbe, 0xb1, 0x71, 0xe5, 0x3d, 0x43, 0x2f, 0x26, 0xbc, 0x80, 0x50, 0xf8, 0xbc, 0xd9, 0x67, 0x53, 0x3e, 0x54, 0x31, 0xd0, 0x3d, 
0x08, 0x49, 0xc1, 0xbb, 0x30, 0xa3, 0x28, 0x3d, 0xbc, 0x64, 0x48, 0x3e, 0x85, 0x0e, 0xdd, 0xbd, 0x3e, 0x53, 0x8f, 0x3d, 0x01, 0x2d, 0x7f, 0xbe, 0x93, 0x38, 0xa2, 0xbb, 0xcb, 0xe2, 0x59, 0xbe, 
0x1a, 0xa7, 0x03, 0x3e, 0xa1, 0x1f, 0x4b, 0xbd, 0x35, 0x93, 0x8e, 0x3e, 0x7f, 0x35, 0x8b, 0x3e, 0x2d, 0xaa, 0x08, 0xbe, 0x08, 0xeb, 0x7c, 0x3d, 0x35, 0xae, 0xa4, 0x3e, 0xdb, 0x78, 0xf0, 0xbc, 
0x1e, 0x2e, 0xbf, 0xbe, 0xa5, 0xb5, 0x01, 0x3d, 0x5c, 0xbb, 0x94, 0xbe, 0x8f, 0x1d, 0xc9, 0x3d, 0x03, 0x2f, 0x79, 0xbe, 0x20, 0xb4, 0x5c, 0xbe, 0xe8, 0x2a, 0x5e, 0xbe, 0xbc, 0x00, 0x94, 0xbd, 
0xd5, 0xb9, 0x60, 0x3d, 0x80, 0x2a, 0x07, 0x3d, 0x0d, 0xf8, 0x25, 0x3e, 0xdd, 0xf5, 0x91, 0x3d, 0xab, 0x0e, 0x9d, 0x3d, 0x72, 0xc8, 0xbe, 0xbd, 0x35, 0x38, 0x52, 0x3e, 0x24, 0x78, 0x35, 0xbe, 
0xfe, 0xa5, 0x64, 0xbe, 0xa9, 0x8f, 0x42, 0xbe, 0x97, 0xb4, 0x66, 0xbc, 0x08, 0xa6, 0x37, 0x3d, 0x45, 0xa8, 0x94, 0xbc, 0x48, 0x8c, 0x21, 0xbe, 0xba, 0xb9, 0x41, 0x3e, 0xf1, 0x47, 0xf4, 0x3d, 
0xbc, 0xe5, 0x96, 0x3c, 0x98, 0xc0, 0x32, 0x3e, 0x72, 0x8d, 0xff, 0x3d, 0x3a, 0x84, 0x8c, 0xbe, 0x13, 0x02, 0xc3, 0x3d, 0x77, 0x9f, 0xbb, 0x3d, 0x5e, 0xcf, 0x2d, 0xbd, 0xc5, 0x67, 0xfb, 0x3d, 
0x7e, 0xb9, 0x2f, 0xbe, 0x71, 0x26, 0xcc, 0xbe, 0x4f, 0x45, 0xbb, 0x3c, 0x8f, 0x9b, 0x80, 0x3e, 0xc9, 0xbd, 0x3c, 0x3e, 0xa6, 0xf5, 0x4e, 0xbe, 0x41, 0xe9, 0x33, 0x3e, 0x32, 0x04, 0xd3, 0xbd, 
0xa0, 0x49, 0xc5, 0x3b, 0xbc, 0x67, 0x1f, 0x3e, 0xdb, 0x1c, 0x0d, 0xbe, 0xd2, 0x42, 0x00, 0xbd, 0x67, 0xae, 0x9b, 0xbd, 0xad, 0xc9, 0x75, 0x3e, 0x77, 0x54, 0xd6, 0x3d, 0xc0, 0x16, 0xb3, 0xbd, 
0xa1, 0xcc, 0x1d, 0x3d, 0x05, 0xeb, 0x07, 0x3e, 0x13, 0x4f, 0x5c, 0xbd, 0xff, 0x6a, 0x47, 0xbd, 0x50, 0xe0, 0x63, 0xbf, 0xab, 0x5a, 0xef, 0xbe, 0x95, 0x18, 0x1c, 0xbf, 0x66, 0x1f, 0x09, 0xbf, 
0xb0, 0xbd, 0x9c, 0xbe, 0x1a, 0x4d, 0xbe, 0xbe, 0x1e, 0x14, 0xbd, 0xbe, 0xb8, 0xfb, 0xed, 0xbd, 0xa3, 0xce, 0x26, 0xbe, 0x66, 0xb1, 0x7c, 0xbe, 0x0b, 0xab, 0xda, 0x3d, 0xa1, 0x66, 0x46, 0xbe, 
0xb1, 0x91, 0x9b, 0x3d, 0x81, 0x83, 0xf9, 0xbc, 0xb2, 0x0d, 0xfb, 0x3d, 0x3a, 0xc3, 0x21, 0xbe, 0xc6, 0x6d, 0xde, 0x3d, 0xab, 0x8e, 0x19, 0x3e, 0x75, 0xb9, 0x94, 0x3c, 0xc3, 0xcd, 0xf9, 0x3d, 
0xc6, 0x0f, 0x4a, 0xbe, 0xb6, 0x1b, 0x93, 0x3e, 0x65, 0x9c, 0x23, 0x3e, 0xbe, 0x9f, 0xe8, 0x3d, 0xae, 0xd1, 0x4e, 0x3d, 0x0c, 0xdd, 0x46, 0x3e, 0xf2, 0x8a, 0xe3, 0xbd, 0x59, 0x56, 0xa7, 0xbe, 
0x2e, 0x37, 0xa8, 0xbe, 0xec, 0xd9, 0x83, 0xbe, 0xa0, 0x21, 0x17, 0xbd, 0xb8, 0x73, 0xd9, 0x3d, 0x60, 0xfc, 0x58, 0x3e, 0x0f, 0x23, 0x3e, 0xbe, 0xc8, 0xf1, 0xe1, 0xbd, 0x16, 0x56, 0xc1, 0xbd, 
0x2b, 0xa0, 0xd8, 0xbd, 0x82, 0x34, 0x59, 0xbe, 0x52, 0x38, 0x1b, 0x3e, 0x0e, 0x1c, 0x1b, 0xbe, 0x54, 0xd6, 0x42, 0x3d, 0xdc, 0xe2, 0x7d, 0x3d, 0x36, 0xdc, 0x71, 0xbe, 0x65, 0xdd, 0x6e, 0x3e, 
0x5b, 0xe2, 0x1b, 0x3e, 0xad, 0xe8, 0xa1, 0x3d, 0x3b, 0x1e, 0x66, 0x3d, 0x34, 0x2f, 0x22, 0xbe, 0xb1, 0xbf, 0x8c, 0x3e, 0x30, 0x32, 0xca, 0x3d, 0x59, 0xcd, 0xa7, 0xbb, 0x85, 0x8e, 0xff, 0xbd, 
0xdc, 0xbd, 0x6c, 0x3d, 0xc7, 0xe6, 0x13, 0xbd, 0x76, 0xd8, 0x5d, 0x3e, 0x17, 0xe3, 0x11, 0x3e, 0xe2, 0x13, 0x04, 0x3e, 0x91, 0x7a, 0x58, 0xbc, 0xb1, 0xee, 0x6c, 0xbe, 0x15, 0xa0, 0x31, 0xbd, 
0x2b, 0xa2, 0x9b, 0x3e, 0x9b, 0x2f, 0xa1, 0xbe, 0xe5, 0xd1, 0xf7, 0xbe, 0xc6, 0x4b, 0x6b, 0x3e, 0xea, 0x23, 0xd1, 0xbd, 0x00, 0x97, 0x9e, 0xbd, 0x5e, 0xc0, 0xa5, 0xbe, 0x7a, 0xe0, 0x47, 0xbe, 
0x87, 0xa2, 0xbb, 0xbd, 0x77, 0x6c, 0xc8, 0xbd, 0xf2, 0xf3, 0x4c, 0xbd, 0xc6, 0xdb, 0x09, 0xbe, 0xcf, 0x10, 0xae, 0xbd, 0xad, 0xfe, 0xbd, 0xbd, 0x1d, 0x94, 0x9f, 0xbe, 0xa0, 0x5e, 0x2f, 0x3e, 
0xfb, 0x41, 0x15, 0xbd, 0xa6, 0x4b, 0x40, 0x3e, 0xc9, 0xd8, 0xea, 0xbc, 0x81, 0x27, 0xc7, 0xbe, 0xec, 0x50, 0x03, 0x3e, 0x79, 0xde, 0x32, 0xbe, 0x90, 0xb1, 0xc3, 0x3d, 0x08, 0xb5, 0xcf, 0xbe, 
0x35, 0x60, 0x0e, 0x3d, 0x89, 0x26, 0xa5, 0x3d, 0x1c, 0x9a, 0xa7, 0xbe, 0xb1, 0x2a, 0xc9, 0x3d, 0xda, 0x9c, 0x81, 0x3c, 0x3e, 0x52, 0x4d, 0xbe, 0x87, 0xe6, 0x88, 0xbd, 0x86, 0xa9, 0x6e, 0x3e, 
0xbe, 0x4f, 0x78, 0xbd, 0xe6, 0x8f, 0x49, 0x3e, 0xd8, 0x4f, 0x9a, 0xbd, 0xd2, 0xa5, 0x61, 0xbe, 0xd4, 0xc0, 0x06, 0xbe, 0x04, 0x8b, 0x6a, 0xbe, 0x6c, 0x17, 0x05, 0x3e, 0xaa, 0x61, 0x13, 0xbf, 
0xc2, 0xa5, 0x1e, 0x3e, 0xa9, 0x68, 0x00, 0x3e, 0x23, 0xd4, 0xba, 0xbd, 0x0d, 0xe6, 0x21, 0x3e, 0x5e, 0x72, 0x9d, 0xbe, 0x7b, 0xa9, 0x59, 0xbe, 0x1d, 0x3d, 0x2a, 0x3e, 0x0c, 0x8a, 0x6d, 0xbc, 
0xcd, 0xf3, 0x3d, 0x3e, 0xec, 0xe9, 0x48, 0x3e, 0x4f, 0x1b, 0x09, 0x3e, 0xd8, 0x8d, 0x13, 0xbe, 0xe2, 0xad, 0xd9, 0xbd, 0x19, 0xe8, 0x1a, 0x3c, 0x17, 0x4d, 0x12, 0xbd, 0x64, 0x40, 0x76, 0xbd, 
0x09, 0xda, 0x1b, 0xbe, 0x6e, 0x93, 0x4e, 0xbd, 0x22, 0x50, 0x49, 0xbe, 0xaf, 0x1f, 0x03, 0xbf, 0x53, 0x8b, 0x56, 0x3d, 0xf6, 0x51, 0x4f, 0xbc, 0xa9, 0x12, 0xc5, 0xbe, 0x0e, 0xa1, 0x62, 0x3e, 
0x7b, 0x82, 0x0d, 0xbe, 0x79, 0xd3, 0xa7, 0x3d, 0x75, 0x64, 0xaa, 0x3d, 0xb0, 0x4f, 0x09, 0xbe, 0xbb, 0xa3, 0xcc, 0xbd, 0x24, 0x4e, 0x65, 0xbe, 0xb5, 0xd2, 0x27, 0xbe, 0x31, 0xa4, 0xb3, 0x3b, 
0x01, 0x17, 0xc4, 0x3d, 0xa9, 0xb8, 0x89, 0x3e, 0xad, 0x52, 0x89, 0xbc, 0x53, 0x62, 0x0a, 0x3e, 0x2d, 0xf2, 0x8e, 0xbe, 0x33, 0xa0, 0xa9, 0xbd, 0xeb, 0xdf, 0xad, 0x3d, 0xb9, 0x37, 0x29, 0xbe, 
0x68, 0x54, 0x9a, 0x3e, 0x48, 0x09, 0xbe, 0xbe, 0xc6, 0xbf, 0x30, 0x3e, 0x33, 0xe0, 0x4f, 0xbd, 0xa4, 0xda, 0xe1, 0x3d, 0xfc, 0x6a, 0xd0, 0x3d, 0x11, 0x07, 0xd1, 0xbc, 0x6f, 0xac, 0x0a, 0xbe, 
0x2d, 0xac, 0x34, 0x3e, 0x6c, 0x5d, 0x67, 0x3e, 0x05, 0xec, 0x96, 0xbd, 0x9c, 0x5e, 0x19, 0x3e, 0xaf, 0x46, 0x69, 0xbd, 0xa3, 0x97, 0x9e, 0xbd, 0x65, 0x9f, 0x90, 0xbe, 0xa0, 0x0e, 0xcc, 0x3d, 
0xa2, 0x98, 0x08, 0x3b, 0xcf, 0x1d, 0x87, 0xbe, 0xff, 0x7a, 0x48, 0x3d, 0xee, 0x73, 0x12, 0xbf, 0xe0, 0x73, 0xae, 0xbd, 0x0e, 0x95, 0x0e, 0x3d, 0x2f, 0x54, 0xda, 0xbe, 0xce, 0xb5, 0x07, 0xbf, 
0x6b, 0xab, 0xb3, 0xbd, 0x1e, 0xca, 0x87, 0xbe, 0xc5, 0x73, 0x88, 0xbe, 0xd8, 0x72, 0x34, 0x3e, 0x08, 0x8d, 0x7a, 0xbd, 0x4d, 0x0e, 0x32, 0x3e, 0x1c, 0x1d, 0x84, 0x3d, 0x4e, 0x84, 0x93, 0xbd, 
0x97, 0x3b, 0x6f, 0xbc, 0x5b, 0xf1, 0xd7, 0xbd, 0xc5, 0x2b, 0xeb, 0x3d, 0x00, 0xeb, 0x44, 0xbd, 0xfc, 0xb6, 0xce, 0xbe, 0x59, 0xc6, 0xff, 0x3c, 0xf0, 0xcb, 0xfa, 0xbd, 0xc1, 0x21, 0x3a, 0x3e, 
0xcc, 0xbb, 0x97, 0x3c, 0x85, 0x5f, 0xaa, 0x3c, 0x24, 0x08, 0x2b, 0x3e, 0x29, 0x0f, 0x49, 0x3e, 0xb7, 0x2b, 0xde, 0x3d, 0xad, 0x6b, 0x52, 0x3e, 0x5f, 0x37, 0x65, 0x3e, 0x5f, 0x77, 0x7b, 0xbe, 
0xe2, 0x68, 0xa9, 0xbd, 0xc4, 0xd4, 0xbd, 0x3b, 0x22, 0x4a, 0xd0, 0xbd, 0xdb, 0xdf, 0x88, 0x3d, 0x18, 0xf5, 0x6b, 0x3c, 0x1f, 0x91, 0x3e, 0xbe, 0x28, 0xdf, 0x96, 0xbe, 0xdf, 0xcf, 0x1c, 0x3d, 
0x8f, 0x6e, 0x06, 0x3e, 0xb4, 0x22, 0xe6, 0x3c, 0xc5, 0x91, 0xe0, 0xbd, 0x6e, 0xa1, 0x59, 0xbd, 0x50, 0x41, 0x95, 0x3e, 0x70, 0xcd, 0xbb, 0x3e, 0xf0, 0x80, 0xf2, 0x3d, 0xaf, 0xb8, 0x3b, 0x3e, 
0x3d, 0x8e, 0x44, 0xbe, 0x57, 0xed, 0x22, 0xbd, 0x9e, 0x76, 0x1b, 0xbe, 0xe0, 0xa7, 0xc1, 0xbc, 0x6a, 0x05, 0x95, 0xbe, 0x8b, 0xca, 0x2b, 0x3d, 0x2b, 0x2c, 0x19, 0x3d, 0xe4, 0x90, 0xa4, 0xbc, 
0x4d, 0x81, 0x41, 0xbe, 0x79, 0x83, 0x5a, 0xbe, 0xd8, 0x2c, 0x2c, 0x3e, 0x54, 0x55, 0x9f, 0xbd, 0x62, 0x14, 0x03, 0xbe, 0xea, 0x56, 0x51, 0x3e, 0xe8, 0xd3, 0xa0, 0x3c, 0xe0, 0xc1, 0xf5, 0x3b, 
0x0f, 0x5e, 0xf3, 0x3d, 0x99, 0xe7, 0x91, 0xbe, 0xad, 0x68, 0xb3, 0x3e, 0x2f, 0x10, 0x1e, 0xbe, 0x8e, 0xf1, 0x21, 0x3d, 0x62, 0xca, 0x37, 0x3e, 0x6c, 0xe3, 0x70, 0x3e, 0x37, 0x87, 0x2e, 0x3c, 
0x5f, 0x82, 0xe2, 0xbe, 0x1c, 0x15, 0x93, 0xbd, 0x81, 0x7c, 0xab, 0x3d, 0x1a, 0x95, 0x88, 0xbe, 0x75, 0x6d, 0x4f, 0xbe, 0x6c, 0xdf, 0xce, 0x3d, 0xfd, 0x04, 0x26, 0xbd, 0x8f, 0x36, 0x51, 0xbd, 
0x09, 0x0d, 0xf1, 0x3b, 0x34, 0xfc, 0xf0, 0x3d, 0x83, 0x79, 0x21, 0xbe, 0x49, 0x2c, 0x83, 0x3e, 0x00, 0x52, 0xa9, 0x3e, 0x54, 0x2c, 0x13, 0x3e, 0xf6, 0x5c, 0xa1, 0x3e, 0xf0, 0xb9, 0x14, 0xbe, 
0x33, 0xf7, 0x4c, 0x3e, 0x05, 0xb3, 0x37, 0xbc, 0x7a, 0x65, 0x09, 0xbe, 0x73, 0x42, 0x0f, 0x3e, 0x3f, 0x44, 0x87, 0x3e, 0xb8, 0xf2, 0x3b, 0xbd, 0xaf, 0x06, 0x7b, 0x3d, 0x91, 0xc7, 0x2a, 0x3e, 
0x61, 0xb8, 0x40, 0xbd, 0x2c, 0x98, 0x33, 0xbd, 0xc0, 0xd1, 0xc7, 0x3c, 0xaa, 0x90, 0x93, 0x3c, 0xee, 0x2a, 0x94, 0xbd, 0xfa, 0xb9, 0xb7, 0x3c, 0x3e, 0xda, 0x22, 0xbb, 0xe5, 0xf7, 0xdf, 0x3e, 
0xe7, 0xd8, 0x3e, 0xbe, 0x28, 0xc8, 0x02, 0xbe, 0x0e, 0xb9, 0x9a, 0xbe, 0x77, 0x6b, 0xa3, 0xbe, 0xb9, 0x73, 0xbb, 0xbd, 0x62, 0xe9, 0x9e, 0x3e, 0xdf, 0x9d, 0x07, 0x3d, 0x06, 0x36, 0x11, 0x3e, 
0xa0, 0x0c, 0xc9, 0x3d, 0x8f, 0x08, 0xee, 0xbd, 0x31, 0xce, 0x69, 0xbd, 0x0e, 0x36, 0x1a, 0xbe, 0x29, 0xa8, 0x97, 0xbd, 0x57, 0xf6, 0xbc, 0x3d, 0x48, 0xdd, 0x80, 0x3d, 0xec, 0x8b, 0x42, 0x3e, 
0x89, 0x6d, 0x58, 0x3d, 0xf1, 0x1d, 0xc8, 0x3d, 0x75, 0x1d, 0x03, 0x3e, 0x54, 0x01, 0xc5, 0xbc, 0x63, 0x0f, 0x80, 0xbd, 0x70, 0x7c, 0xc9, 0xbe, 0xf7, 0x6a, 0x09, 0xbf, 0x98, 0x31, 0x9a, 0xbe, 
0xdb, 0x34, 0x1f, 0xbe, 0xd5, 0x9c, 0x62, 0xbd, 0xed, 0xcf, 0x88, 0x3e, 0xbb, 0xaf, 0x14, 0xbe, 0x49, 0x37, 0xe0, 0x3d, 0x0c, 0x42, 0x20, 0x3d, 0x61, 0x64, 0x82, 0xbe, 0x08, 0xcc, 0xa1, 0xbe, 
0x07, 0x1b, 0x93, 0x3d, 0x63, 0xd4, 0x08, 0xbe, 0xb0, 0x57, 0x33, 0xbe, 0x8b, 0x06, 0x91, 0xbe, 0x0e, 0xab, 0x6d, 0x3d, 0x26, 0x01, 0x9e, 0xbd, 0x4d, 0x23, 0xde, 0x3d, 0xc1, 0x8e, 0x69, 0x3d, 
0xd3, 0x64, 0xa3, 0x3e, 0x6c, 0xbe, 0x47, 0xbe, 0x5d, 0xa5, 0x1f, 0x3e, 0x7f, 0xa5, 0xb0, 0x3d, 0x89, 0x74, 0x32, 0xbe, 0x02, 0x68, 0x2a, 0x3e, 0x96, 0xf8, 0x14, 0xbd, 0x48, 0x45, 0xf1, 0xbe, 
0xa0, 0x15, 0xcd, 0xbd, 0xb8, 0x17, 0xa9, 0x3d, 0x62, 0xb6, 0x74, 0x3d, 0xb2, 0x20, 0x50, 0xbe, 0xfb, 0xd4, 0x1e, 0x3e, 0xf4, 0x92, 0x43, 0x3d, 0xcf, 0x83, 0x24, 0xbe, 0xb4, 0xa4, 0x65, 0xbd, 
0xc7, 0xb8, 0x17, 0x3e, 0x25, 0x33, 0x6f, 0x3d, 0x42, 0x63, 0x62, 0x3e, 0xbb, 0x5d, 0x9d, 0xbe, 0xf8, 0xbc, 0x89, 0x3d, 0xf6, 0x98, 0x4a, 0x3e, 0xf3, 0x2f, 0xaa, 0xbe, 0xf7, 0x23, 0xa4, 0xbe, 
0x19, 0xe8, 0x8b, 0x3c, 0x40, 0xc4, 0xb7, 0xbe, 0x16, 0xf7, 0x9d, 0x3d, 0x01, 0x2d, 0x90, 0x3d, 0x71, 0x52, 0x90, 0x3d, 0x1a, 0xac, 0xbb, 0xbd, 0xb0, 0xc4, 0xca, 0x3d, 0x73, 0xc1, 0x2e, 0xbe, 
0x15, 0x21, 0x0b, 0x3e, 0x0c, 0x59, 0xcb, 0xbc, 0xf6, 0x75, 0x31, 0xbe, 0xd8, 0x78, 0xbe, 0xbe, 0x5c, 0x32, 0xac, 0xba, 0x81, 0x33, 0x43, 0x3e, 0x11, 0xd2, 0xbb, 0x3e, 0x65, 0x1e, 0x37, 0xbe, 
0x25, 0x2f, 0xc1, 0x3d, 0x8e, 0x3a, 0x0c, 0x3e, 0x9d, 0x76, 0xcb, 0xbd, 0x6f, 0x3b, 0xd7, 0xbd, 0x19, 0x7b, 0xa6, 0x3d, 0x24, 0x3e, 0x77, 0xbe, 0xc3, 0xc4, 0xec, 0x3c, 0x1e, 0x98, 0x0c, 0xbe, 
0x64, 0xb2, 0xb0, 0xbd, 0xf7, 0xa2, 0x1a, 0x3e, 0xca, 0x4b, 0x56, 0x3e, 0x0f, 0x69, 0x81, 0xbe, 0x14, 0xb9, 0x8d, 0xbe, 0x2a, 0xa6, 0x51, 0xbe, 0x02, 0xca, 0x12, 0x3e, 0x2a, 0xfd, 0x41, 0x3e, 
0x68, 0x7e, 0x96, 0x3d, 0x6f, 0x3c, 0x0e, 0xbe, 0x96, 0x04, 0xb0, 0xbe, 0x35, 0x98, 0x0f, 0xbe, 0x23, 0x2a, 0x0b, 0x3e, 0xe4, 0xcb, 0x86, 0xbe, 0x3a, 0xa1, 0xdb, 0x3d, 0xaa, 0xf6, 0xbc, 0x3d, 
0xf0, 0x61, 0x59, 0x3d, 0x51, 0x25, 0xdc, 0x3d, 0x69, 0x37, 0x02, 0x3e, 0x3c, 0x49, 0xb5, 0xbd, 0x2d, 0xb5, 0xf9, 0xbd, 0xc8, 0x17, 0xcb, 0xbe, 0x70, 0xab, 0xa7, 0xbe, 0x04, 0xa0, 0x04, 0xbf, 
0x22, 0x91, 0x02, 0xbf, 0x9f, 0x28, 0x4a, 0xbf, 0xc4, 0x5d, 0x4a, 0xbe, 0x3e, 0xbc, 0xd8, 0x3c, 0x68, 0xe4, 0xe3, 0x3d, 0x89, 0x03, 0x69, 0xbe, 0x8e, 0x9d, 0x22, 0xbe, 0x94, 0x79, 0x91, 0xbd, 
0x66, 0xa2, 0x19, 0x3c, 0xe4, 0xb1, 0x85, 0x3c, 0x4f, 0x37, 0x5e, 0x3b, 0x6b, 0x75, 0xa1, 0xbc, 0x6c, 0x99, 0xdb, 0x3d, 0x7e, 0x40, 0x54, 0xbe, 0x1a, 0xb0, 0xf2, 0x3d, 0xf0, 0x24, 0xa6, 0xbd, 
0x65, 0x30, 0x01, 0xbf, 0x14, 0xcd, 0x5c, 0x3e, 0x7f, 0xa8, 0x08, 0x3e, 0x31, 0x18, 0x1b, 0xbe, 0x28, 0xbb, 0x2f, 0x3e, 0x42, 0xaa, 0x0a, 0xbe, 0x10, 0x35, 0x30, 0xbe, 0x55, 0xfb, 0xf3, 0x3d, 
0x88, 0x93, 0x6b, 0xbc, 0xd3, 0x60, 0x3d, 0xbe, 0x31, 0x7d, 0x80, 0xbd, 0x66, 0xa1, 0x32, 0x3d, 0x44, 0x25, 0x1a, 0xbe, 0x98, 0xbe, 0x6e, 0x3e, 0x78, 0x07, 0x41, 0x3d, 0x1c, 0xc2, 0x27, 0xbf, 
0xfa, 0x1a, 0x69, 0xbe, 0xcb, 0x70, 0x05, 0xbd, 0x94, 0x3d, 0x6c, 0x3c, 0x95, 0x89, 0xb9, 0xbd, 0x1e, 0xab, 0x83, 0x3e, 0x7a, 0x4a, 0x24, 0xbe, 0x99, 0x85, 0x4b, 0xbe, 0xbe, 0x42, 0x0b, 0xbe, 
0xd8, 0x22, 0xb0, 0xbe, 0xdd, 0x0d, 0xc9, 0xbd, 0x30, 0xe8, 0xba, 0xbd, 0x8e, 0x27, 0x0c, 0xbe, 0xbc, 0x3b, 0x65, 0xbe, 0x68, 0x90, 0x97, 0x3c, 0xdb, 0x2a, 0xc2, 0x3d, 0xa4, 0xdb, 0x7c, 0x3d, 
0xa0, 0xd5, 0x4b, 0x3e, 0xd8, 0xe8, 0xef, 0xbc, 0xf6, 0x2e, 0xbc, 0xbd, 0xbc, 0xba, 0xd6, 0xbe, 0x57, 0xb7, 0x20, 0x3d, 0x4a, 0x92, 0xc7, 0x3c, 0x7a, 0x0e, 0x28, 0xbe, 0x13, 0xef, 0x20, 0x3e, 
0xe1, 0x07, 0x0c, 0x3d, 0x48, 0xe4, 0x24, 0xba, 0xb4, 0x79, 0x9e, 0xbe, 0x1b, 0x27, 0x78, 0xbe, 0x41, 0x2e, 0x0a, 0xbe, 0xd1, 0x0c, 0x59, 0x3e, 0x63, 0x34, 0xfc, 0x3b, 0xa1, 0x91, 0x04, 0xbe, 
0xae, 0x7a, 0x47, 0x3d, 0xfe, 0x9f, 0x30, 0xbc, 0x89, 0x2f, 0x68, 0x3e, 0xe4, 0x9a, 0x90, 0x3e, 0x9a, 0x57, 0x42, 0xbe, 0x5a, 0x9a, 0x95, 0xbd, 0xe4, 0x6f, 0x0f, 0xbf, 0x12, 0x09, 0x27, 0xbd, 
0x11, 0x36, 0x22, 0x3d, 0xe4, 0xf6, 0xa9, 0x3c, 0x58, 0x19, 0x03, 0x3e, 0x24, 0xc8, 0x0d, 0x3e, 0x94, 0xec, 0x68, 0x3d, 0xbf, 0x7f, 0x02, 0xbe, 0x50, 0x01, 0x3a, 0xbe, 0x69, 0x6a, 0xfd, 0xbc, 
0x7c, 0x96, 0x92, 0x3d, 0x4e, 0x45, 0x8a, 0xbd, 0x59, 0x31, 0x35, 0xbe, 0x38, 0x14, 0xd4, 0x3d, 0xa1, 0xeb, 0x0d, 0x3e, 0xbd, 0x14, 0xd5, 0x3c, 0x8e, 0x7a, 0xa5, 0xbe, 0x1d, 0xab, 0x3a, 0xbe, 
0x2b, 0xf6, 0xd3, 0xbe, 0x50, 0xc2, 0x99, 0xbe, 0xae, 0x5f, 0x11, 0x3d, 0xf0, 0x0b, 0x24, 0xbf, 0xac, 0x36, 0xc8, 0xbd, 0xcf, 0x52, 0xfe, 0x3d, 0x08, 0xe2, 0x89, 0x3e, 0xae, 0x89, 0x4e, 0xbe, 
0xdb, 0xba, 0x91, 0xbb, 0x18, 0x26, 0xa3, 0xbd, 0xd7, 0xdc, 0x9f, 0xbe, 0xfd, 0xa1, 0x8d, 0xbe, 0x17, 0x19, 0x05, 0xbe, 0xb1, 0xb8, 0x63, 0xbe, 0x02, 0xd2, 0x12, 0xbc, 0x3a, 0xd1, 0xb4, 0x3d, 
0x79, 0x50, 0x0e, 0x3b, 0x30, 0x4f, 0x02, 0xbd, 0x86, 0x9d, 0xbd, 0x3e, 0x27, 0x8d, 0x62, 0xbd, 0xcc, 0x60, 0x6d, 0x3e, 0x87, 0x60, 0xaf, 0xbe, 0x9c, 0x12, 0x6c, 0xbd, 0xf7, 0x88, 0x8e, 0xbc, 
0xe6, 0xbc, 0x5c, 0xbe, 0x82, 0x66, 0x3d, 0x3d, 0x65, 0x66, 0xb1, 0xbd, 0xe7, 0xd9, 0xb3, 0xbe, 0xc8, 0xb4, 0x1e, 0xbd, 0x6e, 0xcd, 0x55, 0xbe, 0x0d, 0xc4, 0x1f, 0x3e, 0x6d, 0x27, 0xfb, 0x3d, 
0x86, 0x78, 0x96, 0x3d, 0x9a, 0x99, 0x59, 0xbb, 0x36, 0xf2, 0x65, 0xbe, 0xb2, 0xe9, 0x1f, 0xbe, 0xae, 0xf1, 0x8c, 0xbb, 0x76, 0xf7, 0x63, 0x3e, 0x75, 0xe4, 0x81, 0x3d, 0x05, 0xdc, 0xbd, 0xbe, 
0xfd, 0x86, 0x03, 0x3e, 0xc9, 0xc7, 0xc2, 0x3d, 0x16, 0x03, 0x17, 0xbf, 0x1a, 0x94, 0x91, 0xbd, 0x3e, 0x9c, 0x12, 0x3d, 0xff, 0xf6, 0x06, 0xbe, 0x2b, 0xb0, 0x89, 0x3d, 0x22, 0x8a, 0xe0, 0x3d, 
0x7e, 0xb6, 0x24, 0xbe, 0xaf, 0xf4, 0xac, 0x3d, 0xe1, 0x52, 0x30, 0x3d, 0x98, 0x82, 0x37, 0x3e, 0x51, 0x1c, 0x13, 0x3e, 0x7f, 0xf5, 0x0a, 0x3d, 0x43, 0x65, 0x33, 0x3c, 0xa3, 0x31, 0xe9, 0x3a, 
0xab, 0x69, 0x64, 0xbe, 0x86, 0x53, 0x02, 0x3b, 0x9b, 0x95, 0x6d, 0xbe, 0x7e, 0x08, 0x63, 0x3e, 0x08, 0xcd, 0x15, 0xbe, 0x6c, 0x2c, 0x8d, 0x3e, 0xb5, 0x26, 0xdb, 0x3e, 0xd2, 0x6d, 0x8e, 0xbe, 
0xe0, 0x88, 0x1d, 0xbe, 0xe0, 0xa8, 0x80, 0x3d, 0x4c, 0xcd, 0x1d, 0xbe, 0xdd, 0x66, 0x94, 0xba, 0xf3, 0x12, 0xb5, 0x3c, 0x03, 0x6e, 0x50, 0xbe, 0xe0, 0x82, 0x50, 0xbe, 0x71, 0x70, 0xca, 0x3d, 
0x87, 0x46, 0x85, 0xbe, 0x65, 0x33, 0xdf, 0xbd, 0x97, 0x1b, 0xd3, 0x3d, 0x93, 0xaf, 0x9e, 0xbe, 0x08, 0x8c, 0xa9, 0xbe, 0xa2, 0x99, 0x86, 0x3d, 0xd3, 0xe6, 0x30, 0xbe, 0x24, 0xe1, 0x65, 0x3e, 
0x37, 0x4b, 0x0a, 0x3d, 0x5f, 0x0b, 0x7e, 0xbe, 0x12, 0xe0, 0x57, 0x3e, 0xc6, 0xa0, 0xc4, 0x3e, 0xe2, 0x0e, 0x8b, 0x3e, 0x09, 0x1b, 0x36, 0x3e, 0x41, 0x74, 0x7b, 0xbe, 0xb6, 0x5a, 0x30, 0xbe, 
0x32, 0x54, 0xba, 0xbd, 0x6e, 0x83, 0x50, 0xbe, 0x5b, 0x5e, 0x3b, 0xbe, 0x83, 0x62, 0x17, 0xbe, 0x5d, 0xed, 0x8b, 0x3d, 0x25, 0x46, 0x6f, 0xbd, 0x9b, 0xa4, 0x1b, 0xbe, 0x98, 0x6a, 0xbe, 0x3d, 
0x41, 0xcb, 0x3e, 0x3e, 0x55, 0x7a, 0x86, 0x3d, 0x12, 0xef, 0x1b, 0xbc, 0xab, 0x25, 0x85, 0x3c, 0xda, 0x99, 0x99, 0x3e, 0xe0, 0x27, 0x69, 0x3d, 0xb7, 0x0a, 0x9d, 0x3d, 0x34, 0x70, 0x22, 0x3d, 
0xb3, 0x57, 0xd5, 0xbd, 0x81, 0x64, 0x19, 0x3d, 0x15, 0x2d, 0x9d, 0xbd, 0xd8, 0xf1, 0x65, 0x3d, 0x10, 0xa0, 0xd9, 0x3d, 0xd8, 0x80, 0xa8, 0x3e, 0x60, 0x0f, 0x4e, 0xbe, 0xbb, 0x7a, 0x9e, 0xbe, 
0x5f, 0x6b, 0x10, 0x3d, 0x24, 0x04, 0x3a, 0xbe, 0x60, 0x8f, 0x88, 0x3e, 0xb3, 0xca, 0x7e, 0xbe, 0xae, 0x99, 0x09, 0xbe, 0xfa, 0x21, 0x7f, 0x3d, 0xa7, 0xf0, 0xb4, 0xbb, 0x98, 0xdd, 0x3f, 0x3e, 
0x97, 0xbf, 0x1f, 0x3e, 0xb8, 0xa2, 0x9b, 0xbe, 0x32, 0xa7, 0xc1, 0x3d, 0x48, 0x5b, 0x91, 0x3d, 0x15, 0xb3, 0x1c, 0x3e, 0x27, 0xfc, 0xdd, 0xbd, 0xcb, 0x20, 0xc1, 0x3d, 0x73, 0x7b, 0x46, 0xbb, 
0x8e, 0xd8, 0xc8, 0xbe, 0x6e, 0x90, 0xd3, 0xbb, 0xee, 0xa3, 0x0e, 0x3d, 0x48, 0xd0, 0x93, 0x3c, 0xaa, 0x8f, 0xcf, 0x3d, 0xd8, 0xfe, 0x96, 0xbd, 0xc3, 0x45, 0x5c, 0x3e, 0x84, 0x18, 0xb0, 0xbe, 
0xb8, 0x1a, 0x3f, 0x3f, 0x35, 0x62, 0x5b, 0x3f, 0xb7, 0x91, 0x45, 0x3f, 0xb3, 0x86, 0xb1, 0x3f, 0xc4, 0x6c, 0x52, 0x3f, 0x60, 0x25, 0x87, 0x3f, 0xb1, 0x89, 0x83, 0x3f, 0x1c, 0x10, 0x86, 0x3f, 
0x53, 0xc4, 0x74, 0x3f, 0x54, 0x6f, 0x92, 0x3f, 0x7a, 0x22, 0xa9, 0x3f, 0x16, 0x2d, 0xac, 0x3f, 0xec, 0x1e, 0x66, 0x3f, 0x56, 0xe0, 0x1d, 0x3f, 0xc1, 0xdb, 0x58, 0x3f, 0x93, 0x07, 0x61, 0x3f, 
0xa7, 0xc2, 0x6d, 0x3f, 0x77, 0x41, 0x7d, 0x3f, 0xcf, 0x02, 0x52, 0x3f, 0x63, 0xde, 0x6d, 0x3f, 0x50, 0xaf, 0x98, 0x3f, 0x32, 0x77, 0x75, 0x3f, 0xc4, 0x10, 0x27, 0x3f, 0xb1, 0x79, 0x82, 0x3f, 
0x77, 0xcf, 0x8d, 0x3f, 0xb0, 0x9e, 0xaa, 0x3f, 0xf8, 0x2d, 0x92, 0x3f, 0xc4, 0x36, 0x70, 0x3f, 0xf6, 0x47, 0x9f, 0x3f, 0xbb, 0x44, 0x67, 0x3f, 0xe9, 0xa2, 0x52, 0x3f, 0x8f, 0xb2, 0x55, 0x3f, 
0x0a, 0x01, 0x44, 0xbe, 0xa4, 0x26, 0x2f, 0x3d, 0x6a, 0x73, 0xc5, 0xbd, 0xbd, 0x91, 0x70, 0xbd, 0xc6, 0x16, 0x6f, 0xbe, 0x82, 0x3d, 0x5a, 0xbe, 0x0a, 0x0a, 0x1d, 0xbe, 0x47, 0x0a, 0x74, 0xbc, 
0x9d, 0x3d, 0xfe, 0xbd, 0x7a, 0x14, 0x45, 0xbe, 0x74, 0x04, 0xcd, 0xbd, 0xac, 0xe7, 0x4d, 0xbe, 0xbd, 0x60, 0x19, 0xbe, 0x43, 0x86, 0xa8, 0x3c, 0x2f, 0xcd, 0x85, 0xbe, 0x6d, 0x7e, 0xb5, 0xbd, 
0x2d, 0x92, 0xcd, 0xbd, 0x43, 0xb7, 0xe2, 0xbd, 0x60, 0x3d, 0xb1, 0xbc, 0xaf, 0x63, 0xf4, 0xbd, 0xed, 0x42, 0xff, 0xbd, 0xe7, 0xbf, 0xb0, 0xbe, 0xc1, 0x93, 0x3d, 0xbe, 0xb7, 0x91, 0x36, 0xbe, 
0x23, 0x2e, 0xa7, 0xbd, 0xa7, 0x12, 0x08, 0xbd, 0x40, 0x3b, 0x9d, 0x3c, 0xbf, 0x1f, 0x6c, 0x3d, 0x8f, 0x2a, 0x23, 0xbe, 0x04, 0x3e, 0xdb, 0x3c, 0x2e, 0xb6, 0x39, 0x3d, 0xb1, 0xb7, 0x30, 0x3d, 
0x7c, 0xaa, 0x09, 0x3d, 0xe0, 0xa6, 0xbd, 0xbd, 0xcc, 0x7a, 0xba, 0x3c, 0x76, 0xc0, 0x9f, 0xbd, 0x84, 0x8a, 0xc1, 0x3c, 0x49, 0x65, 0x3e, 0xbc, 0x9c, 0x70, 0x2f, 0x3d, 0x8e, 0xf3, 0x9b, 0xbd, 
0x0c, 0xf1, 0x20, 0xbd, 0xb9, 0x1f, 0xab, 0xbc, 0xd5, 0x5a, 0xc3, 0x3d, 0x5b, 0x55, 0x32, 0xbe, 0x29, 0x7e, 0x7a, 0x3e, 0x47, 0xc5, 0x72, 0xbd, 0xc2, 0xd9, 0xbd, 0xbd, 0xfa, 0xb6, 0x6e, 0xbd, 
0x1f, 0x49, 0x8a, 0x3d, 0xa4, 0xae, 0x1a, 0x3e, 0xe7, 0xc2, 0xf0, 0x3a, 0x71, 0x49, 0xd8, 0x3e, 0x07, 0xd9, 0x8e, 0x3d, 0x89, 0xc5, 0xec, 0x3c, 0x6c, 0x75, 0x87, 0xbe, 0xea, 0xa6, 0xca, 0xbe, 
0x6f, 0x73, 0x47, 0xbe, 0x41, 0xae, 0x2d, 0xbe, 0x82, 0x33, 0xa1, 0xbe, 0x0e, 0x86, 0x62, 0xbe, 0x1a, 0xf4, 0x1a, 0x3e, 0x5e, 0xc2, 0xd5, 0x3c, 0x88, 0xee, 0x93, 0x3d, 0xcc, 0xe2, 0x48, 0x3d, 
0x83, 0x3f, 0x01, 0xbd, 0xe9, 0x6f, 0x39, 0xbd, 0x34, 0x1b, 0xbd, 0xbd, 0x09, 0xfa, 0x58, 0xbd, 0xc7, 0x91, 0xdc, 0x3d, 0x85, 0xd0, 0x0d, 0xbe, 0xd4, 0x23, 0x4c, 0x3d, 0x66, 0x26, 0x03, 0x3e, 
0xf4, 0x6d, 0x60, 0x3e, 0x47, 0x6d, 0xe0, 0x3d, 0x7d, 0xae, 0x33, 0xbe, 0xea, 0x78, 0xf8, 0xbd, 0x10, 0xad, 0x7a, 0xbe, 0xee, 0x10, 0x1b, 0xbb, 0x04, 0xed, 0xaa, 0xbd, 0x19, 0x63, 0x03, 0xbe, 
0x1e, 0x68, 0x68, 0xbd, 0xb6, 0xd1, 0xb7, 0x3d, 0x2b, 0x78, 0xf2, 0x3d, 0xf3, 0x26, 0xe9, 0x3c, 0x67, 0x30, 0x41, 0x3d, 0xf6, 0xa9, 0xaf, 0x3d, 0x36, 0x7b, 0xb0, 0x3d, 0x90, 0x6a, 0x35, 0x3e, 
0xb8, 0x1a, 0x3e, 0x3e, 0xca, 0xb9, 0x1d, 0xbe, 0x7c, 0x39, 0x18, 0x3e, 0xe2, 0xbf, 0xbd, 0xbc, 0x28, 0x8f, 0xa5, 0x3d, 0x61, 0x60, 0xe9, 0xbd, 0xae, 0x0b, 0x89, 0xbd, 0xf9, 0x26, 0xb8, 0x3e, 
0xbf, 0x4a, 0xb2, 0x3d, 0x3f, 0xa6, 0x8a, 0x3d, 0xde, 0x56, 0x80, 0x3d, 0x75, 0xdd, 0xfc, 0x3d, 0x57, 0x90, 0xd5, 0x3e, 0xaa, 0xc9, 0x99, 0x3d, 0xba, 0x5d, 0xcf, 0xbd, 0xec, 0x1e, 0xb6, 0xbe, 
0x6f, 0xf9, 0xbf, 0xbe, 0xf1, 0x8e, 0x65, 0xbe, 0x21, 0x33, 0xb5, 0xbe, 0xe8, 0x02, 0xfc, 0xbd, 0xf7, 0x4e, 0x58, 0xbe, 0x80, 0x7e, 0x61, 0x3e, 0x18, 0x63, 0x76, 0x3d, 0x6b, 0x53, 0xc7, 0x3c, 
0x11, 0xb1, 0x32, 0x3e, 0xa2, 0xbb, 0xe5, 0x3d, 0xc8, 0xe4, 0x13, 0x3e, 0xb2, 0xb4, 0xd0, 0x3d, 0xf7, 0xcd, 0x0b, 0x3c, 0x2d, 0xe6, 0xb8, 0x3d, 0x5a, 0x7a, 0x6b, 0x3d, 0x69, 0x7e, 0x61, 0x3b, 
0xaa, 0x8d, 0xba, 0x3c, 0xe0, 0x83, 0x24, 0xbd, 0x29, 0xad, 0xc6, 0xbc, 0xaa, 0xab, 0x94, 0x3d, 0x27, 0x3f, 0x53, 0x3c, 0x2d, 0x90, 0xbf, 0xbd, 0x7a, 0x0e, 0x2d, 0x3d, 0x9f, 0x12, 0x19, 0xbd, 
0x03, 0x6f, 0xb4, 0x3d, 0x34, 0x1f, 0x89, 0x3d, 0xf7, 0x3a, 0xd5, 0xbe, 0xb1, 0xd0, 0x36, 0xbe, 0xd2, 0xf7, 0xb6, 0xbd, 0x20, 0xb0, 0x17, 0xbe, 0x03, 0xab, 0xa0, 0xbd, 0xcc, 0x06, 0x3c, 0xbe, 
0xfc, 0x66, 0x4f, 0xbe, 0x51, 0x6b, 0x87, 0xbd, 0x41, 0xa6, 0x9d, 0x3d, 0x9c, 0xbd, 0x26, 0xbd, 0x06, 0x7f, 0x11, 0xbe, 0x74, 0x1f, 0x9a, 0x3b, 0xcf, 0x5e, 0x2d, 0xbd, 0xa3, 0x40, 0xd8, 0xbc, 
0x22, 0x3c, 0x28, 0x3c, 0xd7, 0x39, 0xfd, 0xbb, 0x8b, 0x19, 0x97, 0x3d, 0x37, 0x01, 0x27, 0xbe, 0x26, 0x67, 0x07, 0xbc, 0x07, 0x62, 0x8e, 0xbd, 0xe5, 0x5e, 0x41, 0xbd, 0xc0, 0xa5, 0xf4, 0x3c, 
0xf3, 0x31, 0x33, 0xbc, 0x69, 0xdb, 0xd6, 0x3d, 0x66, 0x1b, 0xf8, 0x3d, 0x37, 0xaa, 0xb9, 0x3c, 0x9f, 0x82, 0xc3, 0x3d, 0x3b, 0x88, 0x1f, 0xbd, 0x88, 0x2f, 0x97, 0x3e, 0x57, 0x4d, 0x72, 0x3d, 
0x17, 0xfb, 0xf4, 0x3d, 0x31, 0x87, 0x70, 0x3d, 0x6f, 0xbf, 0x96, 0x3d, 0x5d, 0xe0, 0x27, 0x3b, 0x7d, 0xd9, 0x2e, 0x3d, 0x6c, 0xc6, 0x93, 0xbc, 0x1a, 0x94, 0xc2, 0x3b, 0xad, 0xc1, 0x1c, 0x3e, 
0xff, 0x80, 0x08, 0x3d, 0xaa, 0x8f, 0x58, 0x3d, 0x33, 0xdb, 0xcc, 0x3d, 0xbe, 0xd0, 0xa1, 0x3d, 0xdb, 0x0d, 0x94, 0x3e, 0x24, 0xa0, 0x5a, 0x3e, 0x7e, 0x90, 0x67, 0x3e, 0x2c, 0x8b, 0x00, 0x3e, 
0x0d, 0x85, 0xcc, 0xbc, 0x3b, 0x33, 0xbf, 0x3e, 0xb5, 0x73, 0xca, 0xbd, 0x7d, 0x17, 0xe0, 0x3d, 0xed, 0x11, 0xc7, 0x3c, 0x1e, 0xfd, 0xb2, 0x3e, 0x43, 0xef, 0x51, 0x3e, 0x0b, 0xec, 0x46, 0x3e, 
0xff, 0x62, 0x81, 0x3e, 0xf5, 0xb3, 0x2c, 0x3e, 0x5e, 0xd9, 0x0e, 0xbe, 0x93, 0x2a, 0xb8, 0xbd, 0x94, 0x21, 0xa3, 0xbc, 0x54, 0xf1, 0x00, 0xbc, 0x00, 0xa2, 0x99, 0xbd, 0xa5, 0x0c, 0x99, 0x3d, 
0xf8, 0xb3, 0xf5, 0x3c, 0x43, 0x77, 0x13, 0xbe, 0xeb, 0x38, 0xea, 0x3d, 0x0d, 0x0a, 0x36, 0x3d, 0x60, 0xa0, 0x79, 0x3e, 0xd3, 0xb0, 0x6a, 0xbd, 0x41, 0x00, 0xa7, 0x3e, 0xd7, 0x98, 0xea, 0xbd, 
0xf4, 0x71, 0x0a, 0x3e, 0xbc, 0xfa, 0x30, 0xbe, 0xf7, 0x14, 0xac, 0x3d, 0xf2, 0x15, 0x07, 0x3e, 0xfe, 0xc1, 0x90, 0xbd, 0x7c, 0xd1, 0x20, 0xbd, 0x88, 0x8d, 0xac, 0xbe, 0x13, 0x4b, 0xdc, 0x3d, 
0xe0, 0xff, 0x50, 0xbe, 0xda, 0x6c, 0x65, 0xbe, 0xd4, 0x14, 0x77, 0x3c, 0xd3, 0xc2, 0xa3, 0x3c, 0x55, 0xcc, 0x12, 0xbd, 0x90, 0x2a, 0xa7, 0xba, 0x0a, 0xae, 0x22, 0x3e, 0x9f, 0x7a, 0x8c, 0x3c, 
0x65, 0x39, 0xde, 0x3d, 0x0c, 0xd8, 0x92, 0xbd, 0xce, 0xa4, 0x42, 0xbd, 0xeb, 0xc9, 0xa0, 0x3c, 0x01, 0x0b, 0xc0, 0x3d, 0xee, 0xaf, 0xc2, 0x3e, 0x3c, 0xda, 0x1e, 0x3e, 0x7c, 0x5a, 0x45, 0x3d, 
0x8c, 0x37, 0xf4, 0xbd, 0x81, 0x62, 0x35, 0x3e, 0x84, 0x88, 0xf2, 0x3d, 0x8a, 0x8b, 0xec, 0xbd, 0x0b, 0x13, 0x17, 0xbe, 0x8b, 0x04, 0x83, 0xbd, 0xfa, 0xbb, 0xa4, 0xbd, 0x79, 0x1a, 0x3d, 0xbd, 
0x3d, 0x64, 0x19, 0x3e, 0x1a, 0x08, 0x56, 0xbc, 0x2e, 0x95, 0x93, 0x3d, 0x02, 0xe0, 0x3b, 0xbc, 0x64, 0x8e, 0x94, 0x3d, 0x2c, 0xfd, 0x57, 0x3c, 0xa4, 0x3e, 0x6e, 0x3c, 0x3d, 0x13, 0x57, 0xbd, 
0x39, 0x82, 0xf0, 0x3c, 0x2c, 0xa3, 0xdc, 0xbc, 0x7e, 0xf8, 0xc7, 0xbd, 0xcb, 0xb6, 0xd0, 0x3b, 0x62, 0x77, 0x27, 0xbb, 0x21, 0xbe, 0x4a, 0xbd, 0x7c, 0x20, 0xf4, 0xbb, 0x61, 0x54, 0xb5, 0xbc, 
0x15, 0x25, 0x1f, 0xbe, 0x05, 0x89, 0x4c, 0xbc, 0x04, 0xe0, 0x2a, 0x3d, 0x66, 0x00, 0xb2, 0xbd, 0x54, 0x8b, 0x5c, 0xbd, 0x55, 0x24, 0x1e, 0x3d, 0x75, 0x8d, 0x02, 0x3e, 0x10, 0x42, 0xf4, 0x3c, 
0x65, 0x4d, 0x1a, 0xbe, 0x3e, 0x39, 0xe9, 0xbd, 0x6e, 0x92, 0xa5, 0xbd, 0x8e, 0xdf, 0x80, 0xbd, 0x4f, 0x7f, 0xd4, 0x3c, 0x25, 0xab, 0x19, 0x3d, 0xef, 0x9c, 0x06, 0x3c, 0x5a, 0x30, 0x08, 0x3e, 
0x18, 0x13, 0x49, 0x3e, 0xaa, 0x43, 0xb5, 0x3d, 0x33, 0xa7, 0x96, 0x3d, 0x61, 0x78, 0x5a, 0xbe, 0x37, 0x49, 0xbb, 0xbd, 0x8b, 0x23, 0x9c, 0xbd, 0x55, 0xa4, 0x51, 0x3d, 0xfd, 0xf4, 0xf7, 0x3d, 
0x3b, 0x59, 0x6d, 0x3d, 0x17, 0x07, 0xb8, 0x3d, 0x9c, 0x05, 0x61, 0x3d, 0xd7, 0x9c, 0x20, 0x3d, 0x64, 0x9a, 0xd0, 0xbd, 0x11, 0xd3, 0x82, 0xbe, 0x3a, 0xff, 0x40, 0xbe, 0x3f, 0xaa, 0xa1, 0xbe, 
0x2d, 0xce, 0x07, 0xbd, 0xe2, 0x3d, 0xc9, 0xbd, 0xd0, 0x60, 0x71, 0xbe, 0xb6, 0xbd, 0x4d, 0xbe, 0x31, 0xf2, 0x45, 0xbc, 0x51, 0x38, 0xa7, 0x3d, 0x13, 0x1c, 0xc2, 0x3d, 0x86, 0x45, 0x21, 0x3e, 
0xe0, 0x73, 0xfd, 0x3d, 0x30, 0x24, 0x37, 0x3e, 0x72, 0x7d, 0xa8, 0x3b, 0x4c, 0x8c, 0xb8, 0x3d, 0xe7, 0x5e, 0xd8, 0x3d, 0xda, 0x88, 0x0e, 0x3e, 0x3c, 0x91, 0x5d, 0x3d, 0xe2, 0xcb, 0x76, 0x3e, 
0xaf, 0x00, 0x22, 0x3e, 0x43, 0xe6, 0x19, 0x3e, 0xa7, 0x0a, 0x84, 0x3d, 0xef, 0x28, 0xbd, 0xba, 0xad, 0x13, 0x6c, 0xbd, 0xaf, 0x97, 0x98, 0x3c, 0x28, 0x01, 0x0c, 0xbe, 0x28, 0xb9, 0x67, 0xbd, 
0xdc, 0x5e, 0xa9, 0x3d, 0x36, 0xb9, 0xac, 0xbe, 0x22, 0x4b, 0xb5, 0xbd, 0xc1, 0xad, 0x95, 0xbb, 0x9e, 0xcd, 0xdc, 0x3d, 0xc8, 0xc7, 0x45, 0x3d, 0xe9, 0xb5, 0x0f, 0x3d, 0x86, 0xfd, 0x59, 0xbe, 
0x26, 0x6b, 0xdd, 0xbd, 0x03, 0x27, 0xc9, 0x3d, 0x0c, 0xe4, 0x1d, 0x3e, 0xd1, 0x5d, 0x5e, 0x3e, 0x4e, 0x97, 0x31, 0x3e, 0x06, 0xb5, 0xb5, 0xbb, 0x2c, 0x79, 0x65, 0x3d, 0x7b, 0x6c, 0x84, 0xbe, 
0xae, 0xd6, 0x38, 0xbe, 0xfc, 0x01, 0xc2, 0xbd, 0x51, 0x16, 0x9f, 0xbe, 0xde, 0x2d, 0x53, 0x3d, 0x37, 0xfb, 0x0d, 0xbe, 0xaf, 0x46, 0x46, 0x3d, 0x85, 0xbe, 0xa9, 0xbe, 0x5d, 0x77, 0x97, 0xbd, 
0x3b, 0xf9, 0x39, 0x3d, 0x3c, 0x25, 0x49, 0x3d, 0x9d, 0x01, 0x48, 0x3c, 0xd3, 0x13, 0x0f, 0x3e, 0x82, 0x49, 0x51, 0x3e, 0x56, 0xea, 0xed, 0x3d, 0x4a, 0xa7, 0x80, 0x3e, 0x98, 0x5a, 0xc9, 0x3e, 
0x6c, 0x47, 0xd5, 0x3d, 0x37, 0x5d, 0x65, 0x3e, 0x9f, 0x8f, 0xbb, 0x3e, 0xd0, 0x82, 0xa1, 0x3e, 0x49, 0xde, 0x01, 0xbe, 0xa6, 0xb6, 0x69, 0x3d, 0x02, 0x46, 0x0b, 0x3e, 0x1b, 0xb5, 0x27, 0xbd, 
0x58, 0x29, 0x49, 0xbd, 0x29, 0xd9, 0xfb, 0xbd, 0xf9, 0xd6, 0x3c, 0xbe, 0x80, 0x8e, 0x0d, 0xbe, 0xa2, 0x9d, 0x3b, 0xbe, 0x5e, 0x0c, 0x2b, 0xbd, 0x3a, 0x0d, 0x90, 0x3d, 0x0a, 0x27, 0x2f, 0x3c, 
0x9d, 0x13, 0xa0, 0x3d, 0x8b, 0xd2, 0x64, 0x3d, 0x87, 0xab, 0xc1, 0xbd, 0x04, 0x27, 0xf1, 0xbb, 0x80, 0xe8, 0x2b, 0x3e, 0xf6, 0xb1, 0x20, 0xbc, 0xc9, 0xc3, 0x26, 0x3e, 0xb5, 0x56, 0x64, 0x3d, 
0x55, 0x7d, 0x64, 0x3e, 0x03, 0x09, 0xd8, 0xbd, 0x89, 0x1a, 0x81, 0xbb, 0x00, 0xb1, 0x4c, 0x3c, 0x85, 0x28, 0x41, 0x3e, 0x16, 0xbf, 0xd0, 0x3d, 0xcf, 0xfb, 0x31, 0xbd, 0x28, 0xe9, 0x36, 0xbd, 
0xa2, 0x41, 0x4e, 0xbc, 0x6c, 0x21, 0x63, 0x3d, 0xb7, 0x36, 0x01, 0x3d, 0xaf, 0xc1, 0x9b, 0xb9, 0xcd, 0x38, 0x12, 0xbe, 0x22, 0x64, 0x4e, 0xbe, 0xd4, 0x0c, 0x00, 0xbd, 0xe8, 0x45, 0xe7, 0x3d, 
0x9a, 0xfb, 0x27, 0x3e, 0x74, 0xda, 0x0f, 0x3e, 0xaf, 0xbf, 0x13, 0xbd, 0xd1, 0x39, 0x09, 0x3e, 0x43, 0x95, 0x13, 0xbb, 0x08, 0x54, 0xd7, 0x3d, 0xb8, 0xe1, 0x12, 0x3e, 0x28, 0x58, 0xd9, 0xbd, 
0x57, 0x7e, 0x1f, 0xbd, 0x7c, 0x2f, 0x88, 0x3c, 0xdb, 0x99, 0x3a, 0xbd, 0x5f, 0x5b, 0x0d, 0xbe, 0xdc, 0xe3, 0xb3, 0xbc, 0x32, 0xad, 0x41, 0x3d, 0x87, 0xd3, 0xfd, 0xba, 0x9b, 0xcf, 0x1c, 0xbc, 
0x4c, 0x55, 0xa0, 0x3d, 0x0a, 0xbb, 0x9c, 0x3c, 0xb9, 0x9d, 0x15, 0x3c, 0x34, 0x7e, 0x21, 0xbc, 0x88, 0x93, 0x25, 0x3d, 0xa6, 0x16, 0x25, 0xbe, 0x6e, 0xaa, 0xef, 0x3c, 0xda, 0x13, 0x10, 0xbe, 
0xfc, 0x8b, 0x5f, 0xbe, 0x15, 0xae, 0x1c, 0xbe, 0xb0, 0xb9, 0x86, 0xbe, 0x2b, 0x62, 0xc6, 0xbd, 0xfb, 0xde, 0x07, 0xbd, 0xf9, 0x40, 0xc7, 0x39, 0x17, 0x6d, 0xa0, 0xbd, 0x7c, 0x3a, 0xe9, 0x3c, 
0x19, 0xc6, 0xe3, 0xbd, 0x86, 0x19, 0x71, 0xbd, 0xbd, 0xd7, 0x83, 0xbe, 0x4f, 0x20, 0x6d, 0xbe, 0xe8, 0x1a, 0x03, 0xbe, 0x02, 0x74, 0x80, 0xbd, 0x34, 0x57, 0x8a, 0x3d, 0xd0, 0xf0, 0x18, 0xbd, 
0x62, 0x91, 0x23, 0x3b, 0x6b, 0xbe, 0x4a, 0x3d, 0xb9, 0x10, 0x46, 0xbd, 0x13, 0x07, 0x44, 0x3d, 0xb5, 0x07, 0x21, 0x3d, 0x4d, 0x9a, 0x8a, 0xbb, 0xb0, 0x71, 0xc5, 0xbc, 0x56, 0xaf, 0x06, 0x3e, 
0x25, 0x0f, 0x65, 0xbe, 0x1d, 0xd4, 0x0a, 0xbe, 0x5a, 0x58, 0x3f, 0xbd, 0x6a, 0xd2, 0x0d, 0xbe, 0x2f, 0x2b, 0x9e, 0xbe, 0x8b, 0x03, 0xd3, 0xbc, 0xc6, 0x07, 0x2f, 0xbe, 0x4e, 0xc2, 0x6e, 0x3e, 
0x3f, 0xf9, 0xcb, 0x3e, 0xa6, 0xa1, 0x5a, 0x3e, 0xca, 0xc1, 0xa4, 0x3e, 0x79, 0x93, 0xaf, 0x3d, 0xd4, 0xb6, 0x5d, 0x3e, 0x4d, 0xf9, 0xb4, 0x3e, 0xb7, 0x61, 0x50, 0xbe, 0x68, 0x1a, 0xc7, 0xbd, 
0x77, 0x67, 0x6b, 0xbe, 0xc0, 0xa0, 0x4a, 0xbe, 0xf2, 0x19, 0xab, 0xbd, 0x5f, 0x44, 0x6a, 0xbe, 0x20, 0x08, 0x02, 0xbf, 0x10, 0xe0, 0xd3, 0xbd, 0x77, 0xe1, 0x88, 0xbe, 0xc9, 0x1f, 0xe7, 0xbc, 
0xcc, 0x40, 0xdf, 0x3d, 0xf1, 0x0a, 0xa5, 0x3c, 0xdb, 0x2b, 0xee, 0xbc, 0x96, 0x89, 0x9f, 0xbd, 0x4b, 0x38, 0xa2, 0xbd, 0xd5, 0x6f, 0x1a, 0xbe, 0xcc, 0xca, 0x1c, 0xbe, 0x86, 0xfc, 0xca, 0xbd, 
0x18, 0x91, 0x53, 0xbc, 0x4e, 0x51, 0xa8, 0x3b, 0xf6, 0xb9, 0x03, 0xbe, 0x3a, 0xba, 0x4f, 0xbe, 0x38, 0x54, 0x47, 0xbe, 0x21, 0xab, 0xff, 0xbd, 0xb9, 0x62, 0x69, 0xbc, 0x2a, 0x0c, 0x55, 0xbd, 
0x8c, 0x8e, 0x49, 0xbb, 0x78, 0x60, 0xa0, 0xbc, 0x8a, 0xe3, 0xb9, 0x3d, 0xd8, 0xc5, 0xe4, 0xbc, 0xf3, 0x03, 0xb2, 0x3c, 0x87, 0x94, 0xe8, 0x3d, 0xde, 0x55, 0xaf, 0x3d, 0x8f, 0x4a, 0x6a, 0x3d, 
0xe5, 0xd3, 0xc3, 0xbb, 0x50, 0x4e, 0xb9, 0x3d, 0xfb, 0x41, 0xc0, 0x3b, 0x26, 0x78, 0xd3, 0x3c, 0xba, 0x40, 0xd8, 0x3c, 0xed, 0xf9, 0xe5, 0xbd, 0xaf, 0xe8, 0xab, 0xbd, 0xa5, 0xa9, 0x15, 0x3c, 
0xc7, 0xf5, 0x1e, 0xbe, 0xc2, 0x23, 0x3e, 0xbc, 0x8d, 0x6d, 0x00, 0x3d, 0xd7, 0x3b, 0x2e, 0x3d, 0xbf, 0xcf, 0x41, 0x3d, 0xcd, 0xf7, 0x56, 0xbd, 0x95, 0x9d, 0x66, 0x3d, 0x52, 0x58, 0xa3, 0xbb, 
0xe3, 0xfc, 0xec, 0x3d, 0xee, 0x63, 0xa9, 0xbd, 0x49, 0xf7, 0x36, 0xbd, 0x09, 0xd9, 0x50, 0x3d, 0xf0, 0xc9, 0x98, 0xbc, 0x8c, 0xbf, 0xd2, 0xbd, 0x01, 0x2b, 0x80, 0x3e, 0xfc, 0xa1, 0xa2, 0x3d, 
0xb5, 0x6a, 0x2a, 0xbe, 0xae, 0xfb, 0x73, 0xbd, 0x22, 0x53, 0x9f, 0x3d, 0x25, 0x4a, 0x02, 0x3d, 0x88, 0x7f, 0x1d, 0xbe, 0xdf, 0x7f, 0xd8, 0xbe, 0x3d, 0x41, 0x2a, 0x3e, 0xb1, 0xef, 0x29, 0x3d, 
0x8d, 0x35, 0x65, 0x3d, 0x0d, 0x43, 0xde, 0x3c, 0x5f, 0x19, 0xdd, 0x3c, 0x58, 0x9a, 0x06, 0xbd, 0x77, 0xbf, 0xa6, 0xbc, 0x0d, 0x64, 0x9e, 0x3d, 0xd5, 0x41, 0x27, 0x3d, 0x79, 0x3f, 0xee, 0x3c, 
0x38, 0x8f, 0x84, 0xbd, 0x98, 0x34, 0xb2, 0xbd, 0x99, 0xb8, 0xe0, 0x3d, 0x6f, 0xf2, 0xed, 0xbd, 0x9f, 0x5f, 0x89, 0xbe, 0xd4, 0x64, 0xd9, 0xbd, 0xc9, 0x21, 0xe7, 0x3d, 0xe8, 0x63, 0xf7, 0x3d, 
0x01, 0x62, 0x17, 0x3e, 0x9b, 0xb5, 0xae, 0xbc, 0xd4, 0xd5, 0x60, 0x3e, 0x1e, 0xa2, 0xb2, 0x3d, 0xcc, 0xd0, 0x0b, 0x3d, 0xcf, 0x3c, 0x2f, 0xbd, 0x37, 0x78, 0x15, 0x3e, 0xc8, 0xa6, 0x57, 0xbd, 
0x49, 0x1f, 0xde, 0xbd, 0xe8, 0xc1, 0x00, 0x3c, 0xe5, 0x06, 0x5a, 0xbd, 0xbb, 0xe3, 0x08, 0xbe, 0xa8, 0x79, 0xc7, 0xbd, 0xd2, 0xd4, 0x4a, 0xbd, 0x7f, 0x04, 0xc7, 0xbc, 0xc7, 0xd4, 0xac, 0xbe, 
0xe4, 0xae, 0x2f, 0xbe, 0x44, 0x12, 0xf7, 0xbd, 0xbd, 0x46, 0x03, 0x3e, 0x63, 0x71, 0x1b, 0x3e, 0x61, 0x02, 0xa5, 0xbd, 0x49, 0x5a, 0xf5, 0x3c, 0xc5, 0xdf, 0x11, 0x3e, 0xff, 0x17, 0x64, 0xbe, 
0x1b, 0xfc, 0xae, 0xbe, 0x30, 0x29, 0x22, 0x3d, 0x09, 0xed, 0x2d, 0xbe, 0xee, 0xb3, 0xc9, 0xbd, 0xa1, 0xe7, 0x3f, 0xbc, 0xc9, 0x82, 0x5a, 0xbd, 0x51, 0xea, 0xb2, 0x3e, 0xe2, 0xb7, 0x46, 0x3e, 
0x6a, 0xe7, 0x43, 0x3e, 0x5c, 0x20, 0xe5, 0x3d, 0x34, 0x5c, 0x77, 0x3e, 0x2d, 0x09, 0x83, 0x3e, 0xfd, 0x39, 0x26, 0x3e, 0xae, 0x33, 0x6c, 0x3e, 0xb7, 0xdf, 0xcb, 0xbd, 0x80, 0x76, 0xc3, 0xbd, 
0x39, 0xdc, 0xc6, 0x3d, 0x9f, 0x53, 0x3c, 0x3d, 0x59, 0x81, 0xbc, 0x3d, 0xb4, 0x66, 0x3b, 0x3e, 0xd4, 0x95, 0x85, 0x3d, 0x01, 0xdb, 0xc4, 0x3c, 0x8b, 0x1f, 0xbe, 0x3c, 0x2e, 0xd4, 0x71, 0xbd, 
0xea, 0x96, 0x8d, 0xbd, 0x8d, 0x97, 0x0a, 0x3b, 0x59, 0x97, 0x39, 0x3d, 0x71, 0x34, 0xc2, 0xbd, 0x1c, 0x6b, 0x84, 0x3d, 0x8d, 0xa5, 0x62, 0xbd, 0x82, 0x0b, 0xf7, 0xbd, 0x73, 0xf0, 0xe5, 0xbd, 
0x5e, 0x93, 0x9e, 0xbd, 0xf3, 0x3a, 0xab, 0xbb, 0x8a, 0x4b, 0x14, 0xbe, 0xa1, 0xfe, 0x0d, 0xbe, 0x9a, 0x92, 0x7b, 0x3d, 0x18, 0xc4, 0x08, 0xbd, 0x8e, 0x70, 0x1a, 0xbd, 0x01, 0xc7, 0x8d, 0x3d, 
0xf2, 0x7c, 0x77, 0x3d, 0x80, 0xf5, 0x8c, 0x3a, 0xfe, 0x13, 0x7d, 0x3d, 0x98, 0x09, 0x80, 0x3d, 0x15, 0x5f, 0xdc, 0x3d, 0x93, 0x70, 0xdd, 0x3b, 0x86, 0x2e, 0x1d, 0xbb, 0xc2, 0x6b, 0x15, 0x3e, 
0x61, 0xdf, 0x21, 0xbe, 0x8b, 0xee, 0xd3, 0xbe, 0x93, 0x3a, 0xfe, 0xbc, 0x09, 0x06, 0xd4, 0xbd, 0x27, 0xb2, 0xca, 0xbd, 0x97, 0xc7, 0xd6, 0xbd, 0x51, 0x78, 0x53, 0xbd, 0x83, 0xf4, 0x90, 0x3e, 
0xf7, 0x3c, 0x3b, 0x3e, 0x4b, 0xe6, 0x59, 0xbc, 0x58, 0x9b, 0xda, 0xbd, 0x6a, 0x5c, 0x6c, 0xbd, 0x8c, 0x99, 0x07, 0x3e, 0xa8, 0x69, 0x52, 0x3e, 0x19, 0xad, 0x28, 0xbd, 0x0e, 0x92, 0xe6, 0x3d, 
0xe0, 0x37, 0x89, 0x3d, 0xdc, 0xbc, 0xe4, 0x3c, 0x50, 0x66, 0x92, 0x3d, 0x81, 0x0f, 0x55, 0x3d, 0x39, 0x7e, 0x59, 0xbc, 0x27, 0x63, 0xf0, 0xbd, 0x60, 0x79, 0x6b, 0x3d, 0x53, 0xfd, 0x8f, 0xbc, 
0x6f, 0xbd, 0xad, 0x3c, 0x79, 0x95, 0x27, 0xbe, 0x0e, 0x61, 0x96, 0xbe, 0xd1, 0x35, 0x85, 0xbe, 0xa4, 0x91, 0x15, 0xbe, 0x20, 0x65, 0x94, 0xb9, 0xaa, 0x1b, 0x6c, 0x3d, 0xc0, 0xc2, 0x93, 0x3b, 
0x25, 0x85, 0x28, 0xba, 0x4f, 0xa9, 0x0d, 0x3d, 0xce, 0x92, 0x71, 0x3d, 0x8c, 0xf8, 0xc9, 0xbd, 0x15, 0x95, 0xef, 0xbe, 0x22, 0x4a, 0x10, 0xbd, 0x8e, 0x81, 0xd7, 0xbd, 0x1b, 0xf2, 0x0f, 0x3d, 
0x41, 0xd5, 0xac, 0xbd, 0x57, 0x17, 0x3f, 0xbd, 0x3d, 0xd9, 0x18, 0x3e, 0xb2, 0x72, 0x54, 0x3e, 0xe8, 0x30, 0x08, 0x3e, 0x53, 0x65, 0x9d, 0x3d, 0x3e, 0x8f, 0xf8, 0x3d, 0xbf, 0xe3, 0xa8, 0x3d, 
0x08, 0x01, 0xbc, 0x3d, 0x05, 0xd8, 0x20, 0x3d, 0x06, 0xdf, 0xe6, 0x3d, 0x8b, 0x33, 0x92, 0x3b, 0x7e, 0x90, 0x3b, 0xbe, 0x91, 0xbf, 0x4e, 0xbe, 0x60, 0xfe, 0x68, 0x3d, 0x09, 0x3a, 0xc1, 0x3a, 
0xa7, 0x11, 0xa0, 0x38, 0xe1, 0x7c, 0x79, 0x3c, 0xf9, 0x76, 0x26, 0xbe, 0x80, 0x2e, 0xbb, 0xbd, 0x96, 0x54, 0x45, 0xbd, 0x6f, 0x9d, 0x18, 0x3e, 0xa9, 0xe4, 0xc0, 0x3b, 0xcd, 0xc7, 0x1e, 0x3e, 
0x65, 0x6b, 0xa8, 0x3e, 0x40, 0x48, 0xb3, 0x3d, 0x6f, 0xd2, 0x7a, 0x3d, 0xc5, 0xb3, 0x74, 0x3e, 0xc2, 0x05, 0x64, 0x3e, 0x50, 0xed, 0x40, 0x3e, 0x16, 0xc2, 0x97, 0xbd, 0xe2, 0x71, 0xb1, 0xbd, 
0x46, 0x70, 0x14, 0xbe, 0x22, 0xd2, 0xd0, 0xbd, 0x2c, 0xc7, 0x07, 0xbe, 0xd0, 0xd5, 0x65, 0xbe, 0xc7, 0x29, 0x38, 0xbe, 0x5f, 0x84, 0x57, 0xbe, 0x0b, 0x28, 0x18, 0x3e, 0x94, 0xf3, 0xcb, 0x3d, 
0x62, 0x39, 0xaa, 0xbd, 0xe4, 0x93, 0x75, 0xbd, 0xb0, 0x34, 0xc2, 0x3d, 0x6c, 0x19, 0x3e, 0x3e, 0x6e, 0xc1, 0x97, 0xbd, 0xb7, 0xde, 0x11, 0x3e, 0x11, 0xcd, 0x63, 0x3e, 0xc9, 0xdd, 0x8c, 0x3d, 
0x14, 0x47, 0xcc, 0xbc, 0x34, 0xf4, 0x5f, 0xbd, 0xd9, 0x41, 0xda, 0x3e, 0x5f, 0x3d, 0x2d, 0xbe, 0xee, 0x25, 0x26, 0xbe, 0xe7, 0x20, 0x75, 0xbd, 0x00, 0xae, 0xa5, 0xbd, 0xb9, 0x81, 0x9e, 0xbe, 
0xf8, 0xbe, 0x52, 0xbe, 0x0e, 0x94, 0xe4, 0xbd, 0x4c, 0x13, 0x9a, 0xbd, 0x5e, 0xe5, 0xc8, 0x3d, 0x5a, 0xd7, 0x42, 0x3e, 0x06, 0x83, 0xb8, 0x3a, 0x01, 0x95, 0x15, 0xbe, 0x60, 0xd2, 0xfa, 0xbd, 
0x95, 0x66, 0x18, 0x3d, 0x81, 0x59, 0x05, 0x3d, 0x4e, 0x5f, 0xa3, 0x3d, 0x56, 0x1b, 0x12, 0xbc, 0xfd, 0x08, 0x1c, 0xbd, 0xef, 0x2d, 0xb0, 0x3c, 0x6a, 0x59, 0x6d, 0x3d, 0x84, 0xb2, 0xe8, 0x3d, 
0xa3, 0xff, 0x50, 0x3d, 0x7f, 0xd2, 0x1f, 0xbd, 0xfd, 0xb5, 0x88, 0x3d, 0xc2, 0x98, 0x0d, 0x3c, 0x87, 0xb3, 0xcd, 0xbb, 0x32, 0xc2, 0xe2, 0x3c, 0x03, 0x5a, 0xa9, 0xbd, 0xd5, 0xe1, 0x97, 0x3c, 
0x59, 0x46, 0xd5, 0x39, 0x72, 0x81, 0x2c, 0x3e, 0x49, 0x0d, 0x94, 0xbc, 0xef, 0xda, 0x2e, 0x3d, 0x2b, 0x66, 0xd8, 0xbd, 0xc3, 0x9d, 0x01, 0x3e, 0xcb, 0x32, 0xfd, 0xbd, 0x88, 0x8f, 0x21, 0xbe, 
0x20, 0xd3, 0xc5, 0xbd, 0xff, 0x52, 0x5d, 0xbd, 0x62, 0x41, 0x6c, 0xbd, 0xc9, 0x4f, 0x9d, 0x3d, 0x2f, 0x93, 0xf7, 0x3d, 0x1c, 0xbb, 0xab, 0x3e, 0xb2, 0xf9, 0x2e, 0x3e, 0x4d, 0x94, 0x31, 0xbd, 
0x7a, 0x72, 0x19, 0xbe, 0xa8, 0xdf, 0xf9, 0xbd, 0x7c, 0x11, 0x02, 0x3e, 0x9a, 0x0a, 0xa6, 0x3e, 0x69, 0x04, 0xf9, 0xbd, 0xc4, 0x09, 0xcf, 0xbb, 0xbb, 0xe8, 0xf9, 0x3c, 0xed, 0x8e, 0x4c, 0xbd, 
0xfa, 0xc9, 0xc2, 0xbc, 0xb0, 0x9a, 0xa6, 0xbc, 0xa8, 0x62, 0x0f, 0x3c, 0xa8, 0x6d, 0x64, 0xbe, 0x42, 0x6f, 0x40, 0x3e, 0x95, 0x77, 0xe5, 0xbd, 0xc7, 0x58, 0x5a, 0x3d, 0xb4, 0x7c, 0xf2, 0xbd, 
0x8c, 0xa3, 0xc5, 0xbd, 0x2a, 0xff, 0x15, 0xbe, 0x20, 0xa1, 0x54, 0x3d, 0x26, 0x37, 0x96, 0x3d, 0x2c, 0x1d, 0xc8, 0x3d, 0x46, 0xb2, 0x14, 0xbd, 0x7e, 0xed, 0x07, 0xbd, 0x93, 0x62, 0xbd, 0xbd, 
0x8a, 0x41, 0xd4, 0xbc, 0xb3, 0x9d, 0x16, 0x3c, 0xc4, 0xdf, 0x31, 0xbd, 0xb1, 0xc4, 0x18, 0xbd, 0xda, 0x64, 0x14, 0x3e, 0x2e, 0x6e, 0xfb, 0x3c, 0x2e, 0x3d, 0x4d, 0x3e, 0x7b, 0xdf, 0x23, 0x3e, 
0x11, 0xe1, 0x80, 0xbe, 0x5f, 0xb5, 0xa4, 0x3d, 0xc2, 0x62, 0x33, 0xbc, 0x4b, 0x71, 0xac, 0x3d, 0x90, 0xdb, 0x2b, 0xbd, 0x98, 0x51, 0x15, 0x3e, 0xe7, 0xde, 0xd7, 0xbd, 0xa9, 0xf1, 0x42, 0x3e, 
0xea, 0x5d, 0x7c, 0x3e, 0xc9, 0x22, 0x59, 0xbe, 0x06, 0x06, 0xd9, 0x3d, 0xa4, 0x78, 0x2f, 0x3e, 0xe6, 0xcd, 0x3e, 0xbe, 0xc6, 0xea, 0x90, 0x3c, 0xb9, 0x2e, 0xa7, 0xbe, 0x66, 0x5a, 0x97, 0xbe, 
0xaf, 0x9d, 0xae, 0xbe, 0x5c, 0x2f, 0x45, 0xbe, 0x02, 0xac, 0xa0, 0xbd, 0x8e, 0x2a, 0x86, 0x3d, 0x35, 0x9f, 0x28, 0xbe, 0x72, 0x4a, 0xd1, 0xbe, 0xe6, 0xd6, 0xec, 0xbe, 0x1c, 0x47, 0x8e, 0xbe, 
0x69, 0x21, 0x8d, 0xbd, 0x96, 0x5e, 0x9a, 0xbe, 0x1c, 0x34, 0xb6, 0x3d, 0x9b, 0x3b, 0x97, 0x3e, 0x3d, 0xb1, 0x10, 0x3e, 0x8a, 0xf1, 0xb2, 0x3c, 0xa8, 0x20, 0x47, 0xbd, 0xa9, 0x1e, 0x1e, 0xbd, 
0x0e, 0xae, 0x66, 0xbd, 0xbf, 0x64, 0x6e, 0x3b, 0xfa, 0x1c, 0x91, 0xbc, 0xaa, 0x31, 0x6f, 0x3d, 0x35, 0x7e, 0x86, 0x3d, 0x74, 0xa9, 0x09, 0x3e, 0x95, 0xcb, 0x00, 0x3d, 0x30, 0xe8, 0x91, 0xbc, 
0x94, 0x87, 0x6b, 0x3d, 0xc4, 0xb0, 0x2b, 0xbd, 0x7f, 0x65, 0x06, 0xbe, 0xa4, 0xae, 0x16, 0x3e, 0x44, 0xfa, 0xf9, 0xbc, 0x69, 0x8e, 0x47, 0x3e, 0x00, 0x96, 0x08, 0xbe, 0xd4, 0x5e, 0xd8, 0x3d, 
0xc0, 0x02, 0x76, 0xbd, 0x5d, 0x45, 0x0e, 0x3e, 0xb1, 0x47, 0xd9, 0x3d, 0x4a, 0xda, 0x98, 0x3d, 0x71, 0x40, 0x59, 0x3d, 0xc1, 0x52, 0x5f, 0xb9, 0xf0, 0xa6, 0x1c, 0x3e, 0xd0, 0x0e, 0x3c, 0x3e, 
0xd3, 0xa7, 0x33, 0xbd, 0x56, 0x09, 0x9e, 0x3c, 0xee, 0x9d, 0xdf, 0x3b, 0x0f, 0x98, 0xb2, 0x3d, 0xad, 0x30, 0xed, 0x3d, 0x45, 0x46, 0x95, 0xbd, 0xbb, 0x31, 0xd8, 0xbd, 0xe0, 0x8b, 0x04, 0xbe, 
0x8f, 0x25, 0x41, 0xbe, 0x95, 0xec, 0x5c, 0xbe, 0x94, 0x51, 0x66, 0xbc, 0x8e, 0x23, 0x71, 0xbb, 0xe5, 0x2b, 0x84, 0xbd, 0xed, 0x87, 0xa4, 0x3d, 0x4f, 0x17, 0x52, 0xbe, 0xeb, 0x32, 0xed, 0xbd, 
0xd9, 0x5c, 0x7f, 0xbd, 0x90, 0x22, 0x0f, 0x3c, 0xa3, 0x16, 0x5c, 0xbd, 0xb1, 0x61, 0x87, 0xbd, 0x30, 0xcf, 0x50, 0x3e, 0x59, 0x41, 0x12, 0x3e, 0x99, 0xde, 0x90, 0xbc, 0x2b, 0x94, 0x5a, 0xbd, 
0xd1, 0x24, 0x46, 0xbd, 0x19, 0xa2, 0xc3, 0xbc, 0x77, 0x87, 0x85, 0x3b, 0xff, 0x66, 0x2b, 0x3e, 0xe2, 0xaa, 0x32, 0x3e, 0x17, 0x64, 0x06, 0xbe, 0x3b, 0xf1, 0xc6, 0x3d, 0xbc, 0x84, 0x6d, 0x3e, 
0xee, 0xe8, 0x58, 0x3d, 0xef, 0x9a, 0xff, 0xbc, 0xd7, 0xd2, 0xce, 0x3d, 0xae, 0x67, 0x6b, 0xbe, 0x3e, 0xf7, 0xdd, 0xbd, 0x3c, 0x23, 0xd3, 0x3d, 0x78, 0xd6, 0x31, 0x3e, 0xa1, 0xf1, 0x5b, 0x3e, 
0xea, 0xad, 0x7d, 0x3d, 0x62, 0x4e, 0x5d, 0x3d, 0x25, 0x56, 0x4e, 0xbd, 0x5d, 0xed, 0xce, 0x3c, 0x1a, 0x56, 0x35, 0x3d, 0x58, 0x2b, 0x18, 0x3d, 0xe8, 0x16, 0x9d, 0xbc, 0xd1, 0xf3, 0x15, 0x3c, 
0x01, 0x79, 0x96, 0x3c, 0xf8, 0x26, 0x58, 0x3e, 0xb8, 0x06, 0x81, 0x3d, 0x4c, 0xc9, 0x07, 0x3e, 0x07, 0xbd, 0x30, 0x3e, 0xd7, 0x4d, 0x20, 0x3d, 0x9d, 0x40, 0x29, 0xbd, 0x45, 0x8f, 0x8c, 0xbe, 
0x7e, 0xc5, 0x73, 0x3e, 0x03, 0x2e, 0x2a, 0x3d, 0x44, 0x9a, 0x36, 0xbd, 0xc0, 0x83, 0xaf, 0xbd, 0xfe, 0x51, 0x38, 0x3c, 0x31, 0xc8, 0x91, 0xbd, 0x5c, 0x2c, 0x89, 0xbd, 0xad, 0xbd, 0x33, 0xbe, 
0xe9, 0x47, 0x3e, 0xbd, 0xbb, 0xa0, 0x6e, 0xbe, 0xc9, 0x17, 0x63, 0xbe, 0xa6, 0x7a, 0x99, 0xbd, 0x52, 0xb0, 0x33, 0xbe, 0xb1, 0x56, 0x68, 0xbd, 0xf4, 0x1b, 0x11, 0x3e, 0xb0, 0xeb, 0x8d, 0x3e, 
0x46, 0xdc, 0x7d, 0x3e, 0xb2, 0xdf, 0x20, 0x3e, 0x38, 0xc0, 0x77, 0x3d, 0x05, 0x15, 0xc4, 0x3d, 0xa5, 0x6a, 0x5f, 0x3d, 0x1b, 0x17, 0xdb, 0x3d, 0xb9, 0x6a, 0xb4, 0xbd, 0x64, 0x02, 0xa4, 0x3c, 
0x43, 0x34, 0x0d, 0x3e, 0x3b, 0x68, 0x75, 0xbe, 0x85, 0x49, 0xf7, 0xba, 0x77, 0x05, 0x4b, 0x3d, 0x89, 0x7e, 0x08, 0x3e, 0x24, 0xee, 0x80, 0xbe, 0x5f, 0x5e, 0x3c, 0xbe, 0x93, 0x3c, 0xc5, 0xbd, 
0x99, 0x03, 0x68, 0x3d, 0x76, 0x1f, 0x2e, 0xbe, 0xca, 0x8f, 0x77, 0x3d, 0x79, 0x14, 0x3f, 0x3e, 0x4e, 0x78, 0xa2, 0x3c, 0xcf, 0xa8, 0xa4, 0xbd, 0x8b, 0xc3, 0x71, 0x3d, 0x8f, 0x4b, 0xc9, 0x3d, 
0x33, 0x16, 0x18, 0xbe, 0xcc, 0x45, 0x84, 0xbd, 0xc8, 0x86, 0x54, 0xbc, 0xb7, 0xc4, 0x12, 0xbc, 0x5d, 0x1d, 0x84, 0x3c, 0x3f, 0xdb, 0x7b, 0xbd, 0xf8, 0x02, 0x96, 0xbd, 0x82, 0x58, 0x72, 0x3d, 
0x31, 0xd0, 0xc4, 0x3d, 0xa8, 0x75, 0x57, 0xbd, 0x5f, 0x4f, 0x16, 0xbe, 0x06, 0xcf, 0x44, 0xbd, 0xa1, 0x24, 0xe2, 0x3b, 0xc9, 0x55, 0x3f, 0xbe, 0xe0, 0x0d, 0xbf, 0xbd, 0x40, 0x6b, 0x3b, 0xbd, 
0x46, 0x1a, 0xc0, 0xbb, 0xfb, 0x41, 0xd3, 0x3d, 0xa6, 0x10, 0x4b, 0xbd, 0xcf, 0x2c, 0x0d, 0x3d, 0x5e, 0x54, 0xc5, 0xbd, 0xed, 0x3b, 0xb8, 0xbd, 0x2a, 0xab, 0x9a, 0x3c, 0x17, 0xb9, 0x02, 0x3e, 
0xd7, 0x9a, 0xa4, 0xbd, 0x0c, 0x20, 0x0d, 0xbc, 0xce, 0xb5, 0x31, 0x3e, 0x34, 0xa0, 0x3e, 0x3e, 0xef, 0xcf, 0xc1, 0xbd, 0x66, 0x35, 0x2f, 0xbd, 0xf9, 0x5c, 0xe9, 0xbd, 0x05, 0x81, 0xa4, 0x3c, 
0x36, 0x92, 0xe2, 0xbd, 0x91, 0xc8, 0xa3, 0xbd, 0xd5, 0x79, 0x06, 0x3d, 0xbe, 0x00, 0x9d, 0x3d, 0x20, 0x2b, 0x30, 0xbd, 0x08, 0x9f, 0xa5, 0x3d, 0x0f, 0xca, 0xef, 0xba, 0x48, 0xcd, 0xe3, 0x3c, 
0xd4, 0xaf, 0x67, 0x3d, 0x5d, 0xd4, 0xe1, 0x3c, 0xf4, 0x98, 0x22, 0xbd, 0x37, 0x9a, 0x72, 0xbe, 0x50, 0x56, 0xe1, 0xbd, 0xfa, 0x72, 0x9d, 0xbc, 0x0d, 0xdd, 0x5a, 0xbc, 0xfd, 0xb3, 0x24, 0xbd, 
0x19, 0xab, 0x16, 0x3e, 0x0b, 0x31, 0x11, 0xbd, 0xac, 0x54, 0xab, 0xbd, 0x50, 0xfb, 0x22, 0xbe, 0xad, 0x39, 0x91, 0xbe, 0xe7, 0xca, 0x78, 0xbe, 0x14, 0xd4, 0x9f, 0xbd, 0xcf, 0x92, 0x5b, 0xbe, 
0xd3, 0xf7, 0x14, 0xbc, 0xb1, 0x43, 0x16, 0xbe, 0xbb, 0xe1, 0x49, 0x3e, 0xf9, 0xcb, 0x45, 0x3d, 0x53, 0x98, 0x31, 0xbe, 0xe0, 0x12, 0x75, 0xbd, 0x21, 0xd5, 0x09, 0xbe, 0x17, 0xc9, 0x65, 0xbe, 
0x6f, 0x00, 0x85, 0xbe, 0x82, 0x5a, 0x2e, 0x3e, 0xd7, 0xa2, 0xf8, 0x3d, 0xd7, 0xf6, 0x3e, 0x3d, 0xd9, 0x56, 0xce, 0x3d, 0xe2, 0xf1, 0x72, 0x3d, 0xe4, 0x20, 0x30, 0xbe, 0x98, 0x35, 0x3a, 0xbe, 
0x06, 0x74, 0x2e, 0xbc, 0x19, 0x2e, 0x5b, 0x3e, 0x7b, 0x0f, 0xf5, 0xbd, 0x9e, 0xea, 0xb4, 0xbc, 0xf5, 0x2d, 0xa4, 0x3d, 0xf8, 0x22, 0x32, 0xbe, 0x76, 0xd0, 0x5d, 0xbd, 0xa5, 0xbe, 0x95, 0x3e, 
0x74, 0xcc, 0x01, 0x3e, 0x74, 0xaf, 0xc5, 0xbd, 0x33, 0xb0, 0xe6, 0x3d, 0xf4, 0xd2, 0xfc, 0x3d, 0xa0, 0x70, 0xc1, 0x3e, 0xe4, 0x22, 0x05, 0x3f, 0xbb, 0x4c, 0xdb, 0xbe, 0x13, 0x6f, 0x32, 0x3d, 
0xff, 0x21, 0x11, 0xbe, 0x4a, 0x5e, 0x6f, 0xbb, 0x82, 0xf8, 0x3c, 0x3e, 0x49, 0x85, 0x2a, 0x3e, 0x90, 0x73, 0xfb, 0x3c, 0xfa, 0x15, 0xbb, 0xbe, 0xfc, 0xf2, 0x75, 0x3d, 0x5c, 0x0e, 0xea, 0xbe, 
0x93, 0x7c, 0x82, 0xbe, 0x8b, 0x9f, 0x15, 0x3e, 0xcd, 0x05, 0x75, 0xbe, 0x04, 0x32, 0xd1, 0xbe, 0x3e, 0x1e, 0x65, 0x3e, 0x4f, 0x51, 0x96, 0x3d, 0xdc, 0x06, 0x55, 0x3d, 0xae, 0x4c, 0xae, 0x3a, 
0x0c, 0xf6, 0x22, 0x3d, 0xa1, 0x1c, 0xdc, 0x3d, 0x1d, 0x4a, 0x09, 0x3e, 0x40, 0xaa, 0x6b, 0xbd, 0x51, 0xd3, 0x93, 0x3d, 0x36, 0x34, 0x11, 0xbe, 0x5d, 0x0d, 0x12, 0xbc, 0x63, 0x6a, 0x5e, 0x3d, 
0xa4, 0xe4, 0x51, 0xbd, 0x4c, 0x40, 0x5d, 0xbe, 0x37, 0x08, 0x9c, 0xbd, 0x19, 0xea, 0x8f, 0xbd, 0xaa, 0xce, 0x15, 0xbe, 0x46, 0x22, 0x02, 0x3e, 0xed, 0xc3, 0x18, 0xbd, 0x4b, 0x3d, 0xeb, 0x3d, 
0xd9, 0x0a, 0xef, 0x3b, 0x85, 0x52, 0x07, 0x3d, 0xc7, 0x40, 0x2d, 0x3c, 0x87, 0xb2, 0x30, 0xbe, 0x81, 0x28, 0xb7, 0xbd, 0xac, 0x3f, 0xd7, 0xbd, 0xe7, 0xc3, 0x2b, 0xbe, 0x81, 0xb2, 0x80, 0xbe, 
0x78, 0x41, 0x3e, 0xbe, 0x7e, 0x2c, 0xd7, 0xbb, 0xe5, 0x6e, 0x10, 0xbd, 0x95, 0x34, 0x38, 0xbd, 0xfc, 0xac, 0x43, 0x3e, 0xe0, 0xf3, 0x62, 0x3e, 0x3b, 0x3d, 0x8f, 0xbc, 0x68, 0x4c, 0xdc, 0x3b, 
0x4b, 0x8f, 0x73, 0xbd, 0x87, 0x2b, 0x14, 0xbe, 0xed, 0x65, 0xb3, 0xbc, 0x98, 0x95, 0x14, 0xbb, 0xa6, 0xba, 0x19, 0x3e, 0x3b, 0x95, 0x38, 0x3d, 0x17, 0x30, 0xfd, 0xbc, 0xe1, 0x23, 0x27, 0xbc, 
0x86, 0xcb, 0x9c, 0x3d, 0x14, 0x84, 0x0d, 0xbe, 0xd6, 0xe7, 0x08, 0xbe, 0x66, 0xce, 0xbe, 0xbd, 0xb3, 0x4e, 0x77, 0xba, 0x6e, 0xa0, 0x27, 0x3d, 0x1c, 0xe3, 0x57, 0x3d, 0xf6, 0x4a, 0x2e, 0x3d, 
0x06, 0xa0, 0xc6, 0x3d, 0x22, 0x52, 0xa6, 0x3a, 0xa5, 0x4b, 0x45, 0xbc, 0xe1, 0x31, 0xa6, 0xbd, 0x16, 0x1a, 0x72, 0x3d, 0x4d, 0xdf, 0xe5, 0x3e, 0x05, 0xad, 0xee, 0x3c, 0xa0, 0x43, 0xda, 0x3d, 
0xe7, 0x47, 0x3b, 0x3e, 0xda, 0x4a, 0xd1, 0x3e, 0x60, 0xa5, 0x5b, 0x3e, 0x6a, 0x24, 0x33, 0x3d, 0xd1, 0x9b, 0xa4, 0x3e, 0x08, 0xef, 0x88, 0xbe, 0x7c, 0xc2, 0x84, 0x3e, 0xca, 0x45, 0x7a, 0xbe, 
0x05, 0x03, 0x97, 0x3e, 0x97, 0xea, 0x21, 0xbe, 0xf1, 0xb6, 0xa1, 0x3d, 0xfe, 0x9a, 0x74, 0xb9, 0xd2, 0xd1, 0x00, 0xbd, 0xce, 0x12, 0xaf, 0x3b, 0xf4, 0x3e, 0xd5, 0x3d, 0xd2, 0xc4, 0xfa, 0x3c, 
0x74, 0xa9, 0xc6, 0x3c, 0x69, 0x3b, 0x8b, 0xbe, 0x19, 0x4c, 0xc1, 0xbd, 0x8b, 0x22, 0x3a, 0x3e, 0x04, 0x91, 0x2b, 0x3d, 0x0d, 0xd0, 0xa7, 0xbe, 0xf5, 0x9a, 0x8b, 0xbd, 0xaf, 0x53, 0xbd, 0xbc, 
0x72, 0xe6, 0x8b, 0x3d, 0x8d, 0xd8, 0x58, 0x3d, 0x2b, 0xad, 0x18, 0x3e, 0x88, 0x1a, 0x92, 0xbd, 0x6d, 0x20, 0x16, 0xbe, 0xf0, 0xbd, 0xd8, 0xbd, 0x9d, 0x1b, 0x95, 0xbe, 0x13, 0x3d, 0x09, 0x3d, 
0xd5, 0x94, 0x2d, 0xbe, 0xee, 0x50, 0x4a, 0xbc, 0xdb, 0xf6, 0x30, 0xbd, 0xa6, 0xbf, 0x8b, 0x3d, 0x16, 0x81, 0xbb, 0x3d, 0xf9, 0xf2, 0x33, 0xbd, 0xe3, 0x8f, 0x97, 0x3d, 0x7c, 0xc6, 0xa5, 0x3d, 
0xa2, 0xef, 0x87, 0x3c, 0x46, 0x13, 0x86, 0x3d, 0x62, 0x8d, 0x0a, 0xbd, 0x43, 0x14, 0xc6, 0x3c, 0x53, 0x39, 0x5b, 0x3d, 0xe5, 0x1b, 0xaf, 0x3d, 0xa6, 0xda, 0x75, 0xbc, 0xfc, 0x3a, 0x8a, 0xbc, 
0x36, 0x2b, 0x72, 0xbd, 0x20, 0xea, 0xac, 0x3d, 0x78, 0x7b, 0x3d, 0xbd, 0x56, 0x62, 0x59, 0xbe, 0x7f, 0x8a, 0x06, 0xbe, 0x65, 0x71, 0xcd, 0xbc, 0x0a, 0x7e, 0x8b, 0xbe, 0x96, 0xdb, 0xa6, 0x3d, 
0xa8, 0x98, 0xe2, 0xbb, 0x4e, 0x96, 0x1d, 0xbe, 0x36, 0x11, 0x07, 0x3e, 0x66, 0x19, 0x12, 0x3d, 0x6c, 0x32, 0x91, 0xbd, 0x86, 0x0a, 0xec, 0xbd, 0x0a, 0xf2, 0x4f, 0x3d, 0xbe, 0x9e, 0x41, 0x3e, 
0x3c, 0x92, 0x8c, 0x3e, 0x05, 0x7f, 0x41, 0x3d, 0xef, 0x2e, 0xe8, 0xbc, 0xb1, 0x48, 0xc9, 0xbb, 0xd5, 0xe1, 0x17, 0x3e, 0x22, 0x32, 0xee, 0x3d, 0x0a, 0x34, 0x88, 0xbd, 0x55, 0x7e, 0x14, 0xbe, 
0xbe, 0x8d, 0xf7, 0xbd, 0xcf, 0x51, 0x48, 0x3d, 0x3a, 0x0b, 0x50, 0x3d, 0x73, 0x91, 0x48, 0xbc, 0x70, 0x89, 0xa1, 0xbd, 0xf7, 0x6b, 0x87, 0x3b, 0xda, 0xbd, 0xa6, 0x3d, 0x79, 0x4f, 0x89, 0xbc, 
0x09, 0xa4, 0x42, 0xbe, 0x34, 0x00, 0x45, 0xbd, 0x0f, 0x80, 0xf9, 0xbd, 0xe1, 0xe6, 0x9f, 0xbd, 0x72, 0xb1, 0x10, 0x3d, 0x14, 0xa6, 0x94, 0xbc, 0x80, 0x3a, 0x92, 0xbc, 0x0b, 0xd0, 0xf4, 0x3c, 
0x93, 0x64, 0x22, 0x3e, 0xa4, 0x2f, 0x95, 0x3c, 0xf5, 0xcf, 0xb4, 0x39, 0xa0, 0x51, 0xc2, 0xbd, 0xd0, 0xd1, 0xfe, 0x3b, 0x10, 0xa7, 0x7d, 0xbd, 0xef, 0x34, 0x33, 0x3e, 0xb6, 0x62, 0x05, 0x3e, 
0xda, 0x30, 0x1b, 0x3e, 0xd5, 0xa0, 0x2b, 0x3d, 0xdf, 0x36, 0x92, 0xbd, 0xc5, 0xd3, 0xaa, 0xbd, 0xb6, 0x82, 0xe0, 0xbd, 0x91, 0x75, 0x39, 0xbe, 0xda, 0x20, 0x67, 0x3d, 0x30, 0x54, 0x5e, 0xbe, 
0xae, 0x84, 0x8f, 0x3d, 0xfc, 0x4d, 0xbe, 0x3b, 0xe0, 0xb8, 0xff, 0x3c, 0x82, 0xfc, 0xd3, 0xbd, 0xb3, 0x02, 0x3f, 0x3e, 0x52, 0x7e, 0x10, 0xbb, 0x13, 0xce, 0x72, 0x3d, 0xcf, 0x3e, 0xc8, 0x3d, 
0x26, 0x8d, 0x3c, 0x3d, 0x95, 0xba, 0xf1, 0x3d, 0x81, 0x3e, 0x2a, 0x3e, 0xd5, 0x4c, 0x85, 0xbd, 0x94, 0xdd, 0x01, 0x3d, 0x5c, 0x7b, 0xc3, 0x3c, 0x56, 0x81, 0x92, 0x3c, 0x07, 0xd9, 0x0e, 0x3d, 
0x26, 0xcd, 0xe3, 0xbc, 0xf0, 0xec, 0x6d, 0x3d, 0x7d, 0x45, 0xe0, 0x3d, 0xe7, 0xef, 0x68, 0xbb, 0xdc, 0x32, 0x70, 0x3d, 0x16, 0xf3, 0x9f, 0x3d, 0xd7, 0x14, 0x85, 0x3e, 0x36, 0x8d, 0x3e, 0x3e, 
0xcf, 0xbd, 0x81, 0x3e, 0x40, 0x78, 0xed, 0xbd, 0xca, 0x9a, 0xd1, 0xbd, 0x5c, 0x84, 0x2d, 0x3a, 0x1e, 0x9f, 0x88, 0xbd, 0xad, 0x67, 0x4d, 0xbd, 0x09, 0x06, 0xed, 0xbd, 0x9d, 0xa5, 0xa5, 0xbc, 
0xb0, 0x13, 0x79, 0x3e, 0xb6, 0xd3, 0xc3, 0xbd, 0xfb, 0x3f, 0x05, 0x3e, 0xf2, 0x6b, 0x65, 0x3e, 0x9b, 0xf1, 0xfc, 0x3d, 0x95, 0x0e, 0x59, 0x3d, 0x7f, 0x64, 0x0e, 0x3e, 0x45, 0x21, 0x39, 0xbe, 
0x7e, 0x31, 0x7f, 0xbe, 0x06, 0xf4, 0x66, 0xbe, 0xa2, 0x5f, 0xf0, 0xbd, 0x5b, 0x41, 0x2f, 0x3d, 0x49, 0x7d, 0x55, 0xbe, 0xc2, 0x5e, 0xe5, 0xbd, 0x30, 0x54, 0x08, 0x3c, 0xf5, 0xa5, 0x81, 0x3d, 
0xb2, 0x72, 0x0a, 0x3e, 0xf3, 0xe6, 0x68, 0x3d, 0x12, 0xf9, 0x14, 0x3e, 0xd0, 0x1c, 0x0d, 0xbe, 0xf2, 0x28, 0x3d, 0xbd, 0x80, 0x19, 0xa2, 0x3d, 0x0b, 0x31, 0xe3, 0xbe, 0x9a, 0xa6, 0xb1, 0x3d, 
0x44, 0x62, 0xd2, 0xbd, 0xd2, 0x13, 0x98, 0xbe, 0x95, 0xc1, 0x16, 0x3e, 0xcc, 0x37, 0x44, 0xbe, 0x36, 0x36, 0x1e, 0xbe, 0x2b, 0xb9, 0xab, 0xbd, 0x1e, 0x1b, 0x25, 0xbd, 0x85, 0xa9, 0x0d, 0x3e, 
0xec, 0x04, 0x02, 0xbe, 0xbb, 0x38, 0x06, 0xbe, 0x17, 0xa4, 0x7a, 0xbe, 0x4c, 0x29, 0x28, 0xbe, 0x0c, 0xf8, 0x35, 0xbe, 0x77, 0xda, 0xad, 0xbd, 0x70, 0x4c, 0x96, 0xbc, 0x7b, 0x33, 0x0c, 0x3d, 
0xc4, 0x9e, 0xa9, 0xbc, 0xce, 0x1c, 0xfc, 0xbc, 0xe2, 0xfd, 0xd1, 0x3d, 0xac, 0x6b, 0xc7, 0x3d, 0x5d, 0xa3, 0x0c, 0x3e, 0x62, 0xa1, 0x5f, 0x3d, 0x45, 0x11, 0x90, 0x3d, 0x6c, 0xda, 0x83, 0x3d, 
0xa8, 0xde, 0x78, 0x3e, 0x73, 0x51, 0x38, 0xbc, 0xbe, 0x69, 0x0b, 0x3d, 0xb5, 0xe8, 0x4a, 0x3e, 0x3c, 0xdc, 0x6a, 0x3e, 0x45, 0x50, 0x2b, 0x3d, 0xf1, 0x3d, 0x3e, 0x3d, 0x0a, 0x6d, 0x21, 0xbd, 
0x73, 0xe7, 0x99, 0xbd, 0xba, 0x80, 0xb7, 0xbd, 0x2b, 0x86, 0x7a, 0xbe, 0xd5, 0xe1, 0x5a, 0xbc, 0x34, 0x8c, 0x76, 0xbe, 0xb2, 0xf7, 0x9d, 0xbe, 0x2e, 0x47, 0x99, 0xbe, 0x08, 0x5e, 0x8b, 0x3e, 
0xbf, 0x1b, 0x51, 0x3d, 0x7d, 0xa7, 0x53, 0xbd, 0x68, 0x75, 0x76, 0xbd, 0x72, 0xb7, 0x95, 0x3d, 0xb4, 0xa9, 0x82, 0x3e, 0x64, 0x3f, 0x61, 0x3e, 0xa7, 0x8f, 0x1d, 0x3c, 0xb3, 0x4c, 0xda, 0x3c, 
0xb9, 0xf5, 0xf2, 0x3c, 0x99, 0x47, 0x27, 0x3d, 0x87, 0x54, 0xad, 0xbd, 0xb8, 0xb2, 0x22, 0xbd, 0x00, 0xb1, 0x88, 0x3c, 0x2b, 0xa2, 0x0f, 0xbe, 0xa4, 0x54, 0xc4, 0xbd, 0x9e, 0xa0, 0x1c, 0xbe, 
0x83, 0x51, 0x0c, 0xbe, 0x35, 0xa6, 0xe6, 0xbd, 0x1e, 0xf7, 0x6d, 0xbe, 0x86, 0x90, 0x92, 0xbe, 0xc4, 0xbf, 0x56, 0xbe, 0xf0, 0x1e, 0x34, 0xbe, 0xd1, 0xa2, 0x63, 0xbe, 0x11, 0xd9, 0xc0, 0xbd, 
0xb7, 0x39, 0x24, 0xbe, 0xb8, 0xfb, 0xa0, 0xbe, 0xab, 0x3d, 0x0f, 0xbe, 0x8a, 0x7e, 0xdb, 0x3c, 0xf5, 0x54, 0x3b, 0xbe, 0x76, 0x3d, 0x96, 0xbe, 0x80, 0x92, 0xe1, 0xbd, 0x0d, 0x5f, 0x0c, 0xbe, 
0xe1, 0xc3, 0xa1, 0xbb, 0x08, 0x9e, 0x4e, 0xbe, 0x3d, 0x9b, 0x2f, 0x3c, 0x2b, 0xfc, 0xf6, 0xbc, 0x8a, 0x66, 0x5a, 0x3d, 0xd8, 0x4d, 0x97, 0x3d, 0x97, 0xbe, 0x53, 0x3d, 0xb5, 0x67, 0x50, 0x3d, 
0xbf, 0xa8, 0xa2, 0x3d, 0x1e, 0xe7, 0xb3, 0x3d, 0x71, 0x51, 0x6e, 0xbd, 0xeb, 0xfb, 0x04, 0x3d, 0xf3, 0x7d, 0xe0, 0xbd, 0xf8, 0x80, 0xf7, 0x3d, 0x5e, 0x50, 0xe2, 0xbd, 0xfe, 0x39, 0xa6, 0x3d, 
0x2f, 0x96, 0xdc, 0x3c, 0xa7, 0xef, 0x39, 0xbd, 0xd4, 0x79, 0xef, 0xbd, 0x6e, 0x52, 0x98, 0xbd, 0xa7, 0xd7, 0xb6, 0xbd, 0x77, 0x66, 0x01, 0xbd, 0x98, 0x02, 0xd6, 0xbd, 0x4d, 0xea, 0x1b, 0x3e, 
0xd3, 0xb4, 0x89, 0x3e, 0x79, 0xe8, 0xc5, 0x3e, 0x72, 0x26, 0x46, 0x3e, 0xca, 0xdd, 0x36, 0x3e, 0xdb, 0x15, 0xc3, 0x3e, 0x59, 0xcd, 0x50, 0x3e, 0xbc, 0x5b, 0x1a, 0xbe, 0x68, 0xc2, 0x84, 0xbd, 
0x16, 0x3d, 0xe6, 0xbd, 0x44, 0xc3, 0x69, 0x3d, 0x1c, 0x55, 0x0e, 0xbc, 0xe7, 0x1d, 0x15, 0xbe, 0xea, 0xfc, 0x87, 0xbe, 0xfd, 0xae, 0x99, 0xbe, 0x97, 0xc6, 0x24, 0xbe, 0x57, 0x1c, 0x2e, 0xbd, 
0xd6, 0x03, 0xc3, 0xbd, 0x26, 0x2d, 0x0e, 0xbc, 0x3c, 0xe5, 0xb9, 0xbd, 0x05, 0x38, 0x02, 0x3e, 0x0e, 0x52, 0xab, 0x3d, 0x99, 0x37, 0x7a, 0x3e, 0xf3, 0xc8, 0x15, 0x3e, 0x90, 0x2f, 0x28, 0x3d, 
0x43, 0xa7, 0x78, 0x3d, 0x76, 0x6b, 0x47, 0x3e, 0x6e, 0x28, 0xc3, 0x3e, 0xea, 0x61, 0x6f, 0xbe, 0x84, 0x8b, 0x58, 0xbd, 0x26, 0x4e, 0xa7, 0xbd, 0xec, 0x96, 0xbc, 0x3c, 0x41, 0x98, 0x76, 0xbb, 
0x54, 0x28, 0x21, 0x3d, 0x51, 0x49, 0xa6, 0x3d, 0xec, 0xe3, 0x8b, 0x3d, 0x8e, 0x7a, 0xa6, 0x3c, 0x0c, 0xba, 0xb2, 0x3d, 0x6b, 0xdd, 0x9b, 0x3c, 0x7b, 0x21, 0x4a, 0xbc, 0x37, 0xa6, 0x92, 0x3d, 
0x97, 0xae, 0x03, 0x3e, 0x89, 0xa4, 0xba, 0x3c, 0xe3, 0x74, 0x85, 0xbc, 0xf6, 0x02, 0x13, 0xbd, 0x39, 0x79, 0x49, 0xbb, 0x3c, 0xfd, 0x33, 0x3c, 0x2a, 0xd7, 0x96, 0x3c, 0x7f, 0x2b, 0x92, 0x3c, 
0xab, 0x8b, 0x82, 0x3d, 0x85, 0x5f, 0x61, 0x3d, 0x86, 0xd3, 0x80, 0x3d, 0x9d, 0x40, 0xd5, 0x3d, 0xc3, 0xd7, 0x22, 0xbd, 0x45, 0xe0, 0x3d, 0xbd, 0x44, 0x9c, 0x64, 0x3d, 0x9e, 0x01, 0x4f, 0x3e, 
0x32, 0xfe, 0x2e, 0x3e, 0x02, 0xd4, 0x62, 0xbe, 0xfe, 0x20, 0x67, 0xbe, 0x75, 0x66, 0x31, 0xbe, 0xa1, 0x40, 0xa3, 0xbe, 0x72, 0xc2, 0x02, 0xbe, 0x4f, 0x7f, 0xb8, 0x3d, 0x9e, 0x53, 0x40, 0x3d, 
0x0c, 0x56, 0xb6, 0xbc, 0xa3, 0xd2, 0xca, 0xbc, 0x8a, 0x97, 0xaa, 0xbd, 0xd0, 0x94, 0x00, 0xbd, 0x7a, 0xa7, 0x0a, 0xbe, 0xda, 0x7b, 0xa0, 0xbe, 0x30, 0xf5, 0x2d, 0x3d, 0x9a, 0xd4, 0x01, 0x3e, 
0xac, 0xc9, 0x7a, 0x3d, 0x69, 0x0d, 0x6a, 0x3c, 0xed, 0x0f, 0x83, 0xbd, 0x21, 0x0f, 0x3f, 0xbe, 0x00, 0xbd, 0xdb, 0xbb, 0xe2, 0x49, 0xb4, 0x3d, 0xf1, 0x73, 0xf7, 0x3b, 0xa2, 0x1f, 0x65, 0x3d, 
0x30, 0x77, 0xac, 0x3d, 0xcc, 0xce, 0x13, 0xbe, 0x9f, 0x44, 0x9b, 0xbd, 0xcd, 0x17, 0xcc, 0xbb, 0x2a, 0x4f, 0x1e, 0xbe, 0x5a, 0x52, 0x31, 0x3d, 0x89, 0x71, 0x82, 0x3c, 0x42, 0x75, 0x90, 0x3e, 
0xec, 0x83, 0x0b, 0x3e, 0x97, 0x2b, 0x33, 0x3d, 0x69, 0xfb, 0x8e, 0xbd, 0x6f, 0xbf, 0x82, 0xbe, 0x0f, 0x9b, 0xe9, 0xbe, 0x9f, 0x8c, 0xf3, 0xbd, 0x7e, 0x9c, 0x24, 0xbe, 0x36, 0x1f, 0x34, 0xbe, 
0x79, 0x26, 0xb5, 0x3d, 0x30, 0x9c, 0xf0, 0x3d, 0x22, 0xc0, 0xe5, 0xbc, 0x54, 0xfb, 0x1d, 0xbd, 0x10, 0x8b, 0xa1, 0xbd, 0xf5, 0xed, 0xe5, 0x3c, 0xd1, 0x74, 0xd4, 0x3d, 0xe2, 0xfa, 0xb4, 0xbd, 
0x37, 0x96, 0x8f, 0xbd, 0x6a, 0x03, 0xc1, 0x3d, 0xb5, 0x02, 0x94, 0xbb, 0xdd, 0x93, 0xfd, 0xbd, 0x05, 0xaf, 0xd9, 0xbd, 0x60, 0x60, 0x48, 0xbd, 0x99, 0x29, 0x22, 0x3e, 0x40, 0x92, 0xee, 0xbd, 
0x32, 0xe0, 0x8c, 0xbe, 0x0a, 0xe1, 0xaf, 0xbc, 0xa8, 0x1c, 0x2c, 0xbe, 0x1f, 0xec, 0xa2, 0xbe, 0x7e, 0xd6, 0x32, 0xbc, 0x90, 0xfe, 0x3f, 0xbe, 0x13, 0xdf, 0x8d, 0x3e, 0x1e, 0xbd, 0x8c, 0x3e, 
0xf7, 0xcc, 0xde, 0x3e, 0xb0, 0x6d, 0x11, 0x3e, 0xca, 0x23, 0x32, 0x3d, 0x4b, 0x76, 0x29, 0x3e, 0x56, 0x55, 0x09, 0x3e, 0x6f, 0x47, 0xb7, 0x3d, 0x46, 0x79, 0xd8, 0x3d, 0x21, 0x01, 0x9a, 0x3d, 
0xed, 0xe6, 0x03, 0x3e, 0xe6, 0x69, 0x5e, 0x3d, 0x78, 0x2e, 0x7b, 0x3d, 0xb9, 0xcc, 0xff, 0x3d, 0x7b, 0xbf, 0xb8, 0xbd, 0xfa, 0x22, 0x2d, 0x3b, 0xf0, 0x91, 0x46, 0x3d, 0xce, 0x55, 0xef, 0x3c, 
0xeb, 0xe3, 0x27, 0x3d, 0x07, 0x1f, 0x17, 0xbd, 0xf7, 0xfb, 0x21, 0xbe, 0x2c, 0xc7, 0x51, 0xbe, 0x91, 0x5a, 0xea, 0xbd, 0x92, 0xfe, 0x23, 0xbe, 0x0d, 0x17, 0x53, 0xbd, 0x75, 0xd6, 0x8d, 0xbd, 
0xf3, 0x13, 0x0e, 0xbe, 0xe8, 0x16, 0x22, 0xbb, 0xf4, 0xf7, 0x49, 0xbe, 0x85, 0x5f, 0xf7, 0xbd, 0x4e, 0x93, 0x12, 0x3c, 0x9c, 0x3d, 0x32, 0xbd, 0x56, 0xc5, 0xd9, 0xbc, 0x53, 0xb8, 0x83, 0xbd, 
0xfe, 0x5b, 0xa4, 0xbd, 0x6e, 0xbd, 0x11, 0x3d, 0x1c, 0x0c, 0x44, 0x3d, 0x7c, 0xcf, 0x16, 0x3d, 0x38, 0x10, 0xab, 0x3d, 0x83, 0xcd, 0xfd, 0x3d, 0xcc, 0x63, 0x80, 0x3c, 0x71, 0x1a, 0x5d, 0x3d, 
0x74, 0xbb, 0x23, 0x3e, 0x3f, 0x34, 0xdb, 0xbc, 0xbc, 0x2c, 0x32, 0x3d, 0x5c, 0x6c, 0x75, 0xbe, 0xd2, 0xcc, 0xb6, 0xbd, 0x81, 0x4a, 0x5a, 0x3d, 0x0e, 0xbe, 0x09, 0xbe, 0xbd, 0xfc, 0x56, 0xbe, 
0xc8, 0xa3, 0xf9, 0x3d, 0x79, 0xfe, 0xc6, 0x3d, 0xc0, 0xd5, 0xa6, 0x3d, 0x57, 0xc8, 0xcb, 0x3d, 0x60, 0x47, 0x15, 0x3c, 0xfa, 0x62, 0x04, 0xbd, 0x4f, 0x6c, 0x36, 0x3e, 0xf7, 0xdd, 0x44, 0xbd, 
0x68, 0x10, 0x05, 0x3e, 0x2c, 0x57, 0xdb, 0x3d, 0x1b, 0xa9, 0xa4, 0x3d, 0x54, 0x2a, 0xb6, 0x3d, 0x46, 0x0c, 0x82, 0xbd, 0x13, 0xca, 0x2d, 0x3d, 0xd6, 0xf9, 0x9a, 0x3d, 0x16, 0x32, 0x53, 0x3c, 
0xe7, 0x9f, 0x69, 0xbd, 0x66, 0xd5, 0x77, 0x3e, 0x90, 0x65, 0x13, 0x3d, 0xd6, 0x16, 0x56, 0x3d, 0x92, 0x53, 0x0d, 0xbc, 0xd3, 0x09, 0x25, 0x3c, 0x79, 0xf1, 0xcc, 0xbd, 0xc1, 0x5f, 0xd3, 0xbd, 
0x2d, 0x0a, 0x9e, 0x3d, 0x80, 0x97, 0x03, 0x3e, 0x80, 0x7a, 0xd6, 0x3d, 0xee, 0xc9, 0xee, 0x3d, 0x37, 0x4a, 0x21, 0xbe, 0x27, 0x06, 0x2e, 0xbd, 0x5d, 0xec, 0x3a, 0xbe, 0xb7, 0xe3, 0xa2, 0x3d, 
0x28, 0x51, 0x46, 0x3e, 0x81, 0x01, 0xee, 0x3a, 0xd9, 0x01, 0x06, 0xbe, 0x6d, 0x02, 0xf8, 0xbd, 0x7f, 0x64, 0x84, 0xbe, 0xae, 0xf1, 0x3f, 0xbd, 0x9b, 0x38, 0xb0, 0x3d, 0x5a, 0x0d, 0xd7, 0x3c, 
0xdc, 0x26, 0x88, 0x3d, 0x53, 0xd3, 0x57, 0xbe, 0xfb, 0x74, 0x79, 0xbc, 0x5f, 0x82, 0xea, 0x3c, 0xe5, 0x87, 0x65, 0xbd, 0xb1, 0xe8, 0x8d, 0x3a, 0x35, 0xa0, 0x84, 0x3e, 0xba, 0x41, 0x07, 0xbd, 
0x83, 0x05, 0x28, 0xbd, 0xda, 0x29, 0xa3, 0x3e, 0x4f, 0xcf, 0x7f, 0x3e, 0xb5, 0x81, 0x8c, 0xbd, 0x8d, 0xc9, 0xb9, 0xbc, 0xed, 0xf3, 0xa9, 0xbd, 0x8e, 0xfb, 0x91, 0xbe, 0xe4, 0x80, 0x26, 0xbe, 
0x20, 0x48, 0x8f, 0xbc, 0x34, 0x14, 0x9d, 0x3e, 0xf0, 0x3a, 0x93, 0x3d, 0x3b, 0x01, 0x16, 0x3e, 0x10, 0xa3, 0x83, 0x3d, 0x57, 0x6d, 0x11, 0xbe, 0xc4, 0xf9, 0x0d, 0x3e, 0x26, 0x28, 0xff, 0x3d, 
0x09, 0x5d, 0x07, 0x3d, 0xa2, 0x55, 0xac, 0xbc, 0xe6, 0x97, 0x50, 0xbc, 0x1b, 0x1a, 0x6c, 0xbe, 0xac, 0xaf, 0x21, 0xbe, 0xe4, 0xf4, 0x3c, 0xbe, 0xda, 0xb5, 0x5c, 0xbe, 0x11, 0x20, 0x11, 0x3e, 
0xf0, 0x1c, 0x3b, 0x3e, 0xa2, 0x51, 0x84, 0x3e, 0x27, 0x6b, 0xac, 0xbc, 0x61, 0x67, 0x73, 0xbd, 0x8e, 0x24, 0x0a, 0xbe, 0x17, 0xc0, 0x95, 0xbe, 0x11, 0x05, 0x48, 0x3c, 0xf3, 0xc9, 0xff, 0xbb, 
0xad, 0xcb, 0x3e, 0xbd, 0x66, 0xbd, 0xfe, 0xbd, 0xd6, 0xf9, 0x4f, 0xbd, 0x0c, 0x98, 0xab, 0xbd, 0xcd, 0x53, 0x3e, 0xbe, 0xa7, 0xf1, 0x5a, 0xbd, 0x51, 0x37, 0x10, 0x3d, 0x5a, 0x7b, 0x22, 0xbd, 
0xc9, 0x38, 0xce, 0x3d, 0xd2, 0x90, 0x01, 0x3e, 0xda, 0x9b, 0x14, 0x3e, 0x20, 0x6a, 0xe5, 0xbd, 0xed, 0x1c, 0xde, 0xbd, 0x78, 0x70, 0xfa, 0x3c, 0xf0, 0xd2, 0xe2, 0x3d, 0xdd, 0x3e, 0xf1, 0x3d, 
0xe1, 0xd2, 0xe8, 0x3d, 0x35, 0xba, 0x54, 0x3c, 0x62, 0x7a, 0xfb, 0x3c, 0x10, 0xcf, 0x38, 0xbd, 0x3f, 0x5f, 0x0d, 0x3d, 0xb0, 0x0b, 0x5f, 0x3d, 0x80, 0x4c, 0x0d, 0xbd, 0x72, 0xa4, 0x0d, 0xbd, 
0x2c, 0xa2, 0xbe, 0xbc, 0x8e, 0x68, 0x72, 0xbd, 0x80, 0x53, 0x38, 0x3c, 0xac, 0xfb, 0x83, 0xbd, 0xda, 0x12, 0x16, 0xbe, 0xf6, 0x3b, 0xd8, 0xbd, 0x15, 0x60, 0x43, 0xbe, 0x36, 0x58, 0x10, 0xbd, 
0xac, 0xfd, 0x8b, 0x3c, 0x6b, 0xd3, 0x6f, 0x3e, 0x0d, 0x35, 0x2e, 0x3e, 0xbc, 0x3e, 0x94, 0x3d, 0xcc, 0xba, 0x36, 0xbd, 0xc8, 0xd6, 0xfc, 0x3d, 0x49, 0x68, 0x89, 0xbd, 0xb3, 0x51, 0x9a, 0xbd, 
0xfe, 0x7c, 0x6d, 0xbd, 0xf8, 0xbc, 0x95, 0xbd, 0x2b, 0x9f, 0x34, 0xbd, 0x78, 0x47, 0x0c, 0xbe, 0x15, 0xb1, 0xf8, 0xbc, 0x62, 0x88, 0x36, 0x3e, 0x9a, 0x96, 0x84, 0x3d, 0xa7, 0x39, 0xb4, 0x3d, 
0x36, 0x07, 0x58, 0x3c, 0x92, 0xaa, 0x01, 0xbd, 0x4f, 0x9a, 0x93, 0x3b, 0x5b, 0xb8, 0x2d, 0x3e, 0xe7, 0x27, 0xf8, 0xbd, 0x63, 0x4f, 0x72, 0x3c, 0x40, 0xa3, 0x95, 0xbc, 0xce, 0xba, 0x15, 0x3e, 
0x64, 0x63, 0xd5, 0xbc, 0x2c, 0x01, 0x14, 0x3e, 0xfd, 0x74, 0xbc, 0x3d, 0x98, 0xd1, 0x9a, 0xbe, 0xbf, 0x1d, 0x1e, 0x3e, 0x96, 0x26, 0x5d, 0xbe, 0x76, 0xe1, 0xdc, 0xbd, 0x2d, 0x12, 0x08, 0xbd, 
0x1d, 0x88, 0xdc, 0xbe, 0x45, 0x1d, 0x24, 0xbe, 0xe0, 0xb7, 0xd8, 0x3d, 0xd4, 0x0d, 0x21, 0x3c, 0x3c, 0x6f, 0xcf, 0x3d, 0x41, 0x91, 0x0e, 0x3e, 0x5c, 0x8d, 0x1b, 0x3d, 0xe5, 0x88, 0xde, 0xbc, 
0x95, 0x8a, 0x03, 0xbd, 0xa4, 0x93, 0x0a, 0x3d, 0xe4, 0x97, 0xb8, 0x3d, 0x20, 0x22, 0x9e, 0x3c, 0x43, 0x35, 0x2b, 0x3d, 0x60, 0x66, 0xc2, 0x3d, 0x23, 0x11, 0x27, 0x3e, 0x80, 0x4f, 0x63, 0x3e, 
0x94, 0xe5, 0x83, 0x3c, 0xe3, 0x27, 0xac, 0x3e, 0x06, 0xde, 0x33, 0x3d, 0x1f, 0x9a, 0x58, 0x3e, 0xa6, 0xdf, 0xbc, 0xbc, 0xba, 0xb1, 0x5a, 0x3e, 0xa5, 0xfe, 0x4b, 0xbe, 0x21, 0xf4, 0x28, 0xbd, 
0x23, 0x1b, 0x9c, 0x3d, 0xfa, 0x5d, 0x13, 0xbe, 0x92, 0xba, 0x43, 0x3e, 0x87, 0xb4, 0x17, 0x3e, 0xd0, 0xfa, 0x25, 0xbd, 0x1d, 0xde, 0x3c, 0x3e, 0x09, 0x8f, 0x86, 0xbe, 0x7f, 0x68, 0xa1, 0xbc, 
0x30, 0x23, 0x2f, 0xbe, 0x3a, 0x07, 0x24, 0xbe, 0x2b, 0x88, 0x95, 0xbe, 0xb4, 0x13, 0x82, 0xbc, 0x96, 0x64, 0x74, 0xbd, 0x87, 0xc2, 0xa2, 0x3a, 0x03, 0xe4, 0x2a, 0xbe, 0x10, 0xa3, 0xe8, 0xbd, 
0xe1, 0xee, 0xa9, 0xbd, 0x81, 0xbc, 0x6b, 0x3c, 0x4b, 0xd8, 0xd8, 0x3d, 0x6f, 0x92, 0xad, 0x3e, 0xb5, 0x54, 0x05, 0x3e, 0x3e, 0xf2, 0x2d, 0x3e, 0xf9, 0x4f, 0xdc, 0x3d, 0x82, 0x67, 0x65, 0x3e, 
0x7e, 0x73, 0x80, 0x3d, 0x61, 0xbe, 0x93, 0x3e, 0x6a, 0xa9, 0xb2, 0x3e, 0x87, 0x6c, 0xed, 0x3c, 0xc6, 0x2b, 0xc3, 0xbc, 0x02, 0x4e, 0x5a, 0x3d, 0xbf, 0x86, 0x99, 0xbd, 0x01, 0xc6, 0xf3, 0xbd, 
0x49, 0x13, 0x41, 0xbe, 0x66, 0x86, 0xee, 0xbd, 0x1e, 0x2c, 0xb2, 0x3d, 0x91, 0x2a, 0xba, 0x3d, 0xfc, 0xe5, 0x8e, 0x3c, 0x15, 0x4c, 0x1c, 0x3e, 0x89, 0x52, 0xac, 0xbd, 0xf8, 0x61, 0x2f, 0x3d, 
