__attribute__((section("network_model_sec"), aligned(16))) char model_pte[] = {
0x3c, 0x00, 0x00, 0x00, 0x45, 0x54, 0x31, 0x32, 0x65, 0x68, 0x30, 0x30, 0x18, 0x00, 0x00, 0x00, 0xf0, 0x13, 0x00, 0x00, 0x00, 0x00, 0x00, 0x00, 0x00, 0x14, 0x00, 0x00, 0x00, 0x00, 0x00, 0x00, 
0x00, 0x00, 0x00, 0x00, 0x00, 0x00, 0x00, 0x00, 0x00, 0x00, 0x00, 0x00, 0x10, 0x00, 0x18, 0x00, 0x00, 0x00, 0x04, 0x00, 0x08, 0x00, 0x0c, 0x00, 0x10, 0x00, 0x14, 0x00, 0x10, 0x00, 0x00, 0x00, 
0x84, 0x00, 0x00, 0x00, 0x7c, 0x00, 0x00, 0x00, 0x74, 0x00, 0x00, 0x00, 0x50, 0x00, 0x00, 0x00, 0x04, 0x00, 0x00, 0x00, 0x40, 0xfa, 0xff, 0xff, 0x04, 0x00, 0x00, 0x00, 0x07, 0x00, 0x00, 0x00, 
0x00, 0x00, 0x00, 0x00, 0x00, 0x00, 0x00, 0x00, 0x00, 0x00, 0x00, 0x00, 0x00, 0x00, 0x00, 0x00, 0x30, 0x00, 0x00, 0x00, 0x00, 0x00, 0x00, 0x00, 0x40, 0x00, 0x00, 0x00, 0x00, 0x00, 0x00, 0x00, 
0x40, 0x10, 0x00, 0x00, 0x00, 0x00, 0x00, 0x00, 0x80, 0x10, 0x00, 0x00, 0x00, 0x00, 0x00, 0x00, 0x00, 0x11, 0x00, 0x00, 0x00, 0x00, 0x00, 0x00, 0x00, 0x00, 0x00, 0x00, 0x01, 0x00, 0x00, 0x00, 
0x0c, 0x00, 0x00, 0x00, 0x08, 0x00, 0x10, 0x00, 0x00, 0x00, 0x04, 0x00, 0x08, 0x00, 0x00, 0x00, 0x08, 0x11, 0x00, 0x00, 0x00, 0x00, 0x00, 0x00, 0x00, 0x00, 0x00, 0x00, 0x00, 0x00, 0x00, 0x00, 
0x00, 0x00, 0x00, 0x00, 0x01, 0x00, 0x00, 0x00, 0x1c, 0x00, 0x00, 0x00, 0x00, 0x00, 0x16, 0x00, 0x28, 0x00, 0x04, 0x00, 0x08, 0x00, 0x0c, 0x00, 0x10, 0x00, 0x14, 0x00, 0x18, 0x00, 0x1c, 0x00, 
0x20, 0x00, 0x24, 0x00, 0x16, 0x00, 0x00, 0x00, 0xfc, 0x12, 0x00, 0x00, 0xa8, 0x11, 0x00, 0x00, 0x7c, 0x05, 0x00, 0x00, 0x70, 0x05, 0x00, 0x00, 0x64, 0x05, 0x00, 0x00, 0x10, 0x02, 0x00, 0x00, 
0x28, 0x00, 0x00, 0x00, 0x20, 0x00, 0x00, 0x00, 0x04, 0x00, 0x00, 0x00, 0x02, 0x00, 0x00, 0x00, 0x00, 0x00, 0x00, 0x00, 0x00, 0x00, 0x00, 0x00, 0x90, 0x15, 0x00, 0x00, 0x00, 0x00, 0x00, 0x00, 
0x00, 0x00, 0x00, 0x00, 0x00, 0x00, 0x00, 0x00, 0x0a, 0x00, 0x00, 0x00, 0xb4, 0x01, 0x00, 0x00, 0x8c, 0x01, 0x00, 0x00, 0x58, 0x01, 0x00, 0x00, 0x1c, 0x01, 0x00, 0x00, 0xe4, 0x00, 0x00, 0x00, 
0xb4, 0x00, 0x00, 0x00, 0x80, 0x00, 0x00, 0x00, 0x58, 0x00, 0x00, 0x00, 0x30, 0x00, 0x00, 0x00, 0x04, 0x00, 0x00, 0x00, 0xc8, 0xee, 0xff, 0xff, 0x10, 0x00, 0x00, 0x00, 0x04, 0x00, 0x00, 0x00, 
0x03, 0x00, 0x00, 0x00, 0x6f, 0x75, 0x74, 0x00, 0x0e, 0x00, 0x00, 0x00, 0x61, 0x74, 0x65, 0x6e, 0x3a, 0x3a, 0x5f, 0x73, 0x6f, 0x66, 0x74, 0x6d, 0x61, 0x78, 0x00, 0x00, 0xf0, 0xee, 0xff, 0xff, 
0x10, 0x00, 0x00, 0x00, 0x04, 0x00, 0x00, 0x00, 0x03, 0x00, 0x00, 0x00, 0x6f, 0x75, 0x74, 0x00, 0x0b, 0x00, 0x00, 0x00, 0x61, 0x74, 0x65, 0x6e, 0x3a, 0x3a, 0x61, 0x64, 0x64, 0x6d, 0x6d, 0x00, 
0x14, 0xef, 0xff, 0xff, 0x10, 0x00, 0x00, 0x00, 0x04, 0x00, 0x00, 0x00, 0x03, 0x00, 0x00, 0x00, 0x6f, 0x75, 0x74, 0x00, 0x09, 0x00, 0x00, 0x00, 0x61, 0x74, 0x65, 0x6e, 0x3a, 0x3a, 0x63, 0x61, 
0x74, 0x00, 0x00, 0x00, 0x38, 0xef, 0xff, 0xff, 0x14, 0x00, 0x00, 0x00, 0x04, 0x00, 0x00, 0x00, 0x07, 0x00, 0x00, 0x00, 0x69, 0x6e, 0x74, 0x5f, 0x6f, 0x75, 0x74, 0x00, 0x11, 0x00, 0x00, 0x00, 
0x61, 0x74, 0x65, 0x6e, 0x3a, 0x3a, 0x73, 0x65, 0x6c, 0x65, 0x63, 0x74, 0x5f, 0x63, 0x6f, 0x70, 0x79, 0x00, 0x00, 0x00, 0x68, 0xef, 0xff, 0xff, 0x10, 0x00, 0x00, 0x00, 0x04, 0x00, 0x00, 0x00, 
0x03, 0x00, 0x00, 0x00, 0x6f, 0x75, 0x74, 0x00, 0x12, 0x00, 0x00, 0x00, 0x61, 0x74, 0x65, 0x6e, 0x3a, 0x3a, 0x70, 0x65, 0x72, 0x6d, 0x75, 0x74, 0x65, 0x5f, 0x63, 0x6f, 0x70, 0x79, 0x00, 0x00, 
0x94, 0xef, 0xff, 0xff, 0x18, 0x00, 0x00, 0x00, 0x04, 0x00, 0x00, 0x00, 0x08, 0x00, 0x00, 0x00, 0x64, 0x69, 0x6d, 0x73, 0x5f, 0x6f, 0x75, 0x74, 0x00, 0x00, 0x00, 0x00, 0x12, 0x00, 0x00, 0x00, 
0x61, 0x74, 0x65, 0x6e, 0x3a, 0x3a, 0x73, 0x71, 0x75, 0x65, 0x65, 0x7a, 0x65, 0x5f, 0x63, 0x6f, 0x70, 0x79, 0x00, 0x00, 0xc8, 0xef, 0xff, 0xff, 0x10, 0x00, 0x00, 0x00, 0x04, 0x00, 0x00, 0x00, 
0x03, 0x00, 0x00, 0x00, 0x6f, 0x75, 0x74, 0x00, 0x1d, 0x00, 0x00, 0x00, 0x61, 0x74, 0x65, 0x6e, 0x3a, 0x3a, 0x6d, 0x61, 0x78, 0x5f, 0x70, 0x6f, 0x6f, 0x6c, 0x32, 0x64, 0x5f, 0x77, 0x69, 0x74, 
0x68, 0x5f, 0x69, 0x6e, 0x64, 0x69, 0x63, 0x65, 0x73, 0x00, 0x00, 0x00, 0x00, 0xf0, 0xff, 0xff, 0x10, 0x00, 0x00, 0x00, 0x04, 0x00, 0x00, 0x00, 0x03, 0x00, 0x00, 0x00, 0x6f, 0x75, 0x74, 0x00, 
0x14, 0x00, 0x00, 0x00, 0x61, 0x74, 0x65, 0x6e, 0x3a, 0x3a, 0x75, 0x6e, 0x73, 0x71, 0x75, 0x65, 0x65, 0x7a, 0x65, 0x5f, 0x63, 0x6f, 0x70, 0x79, 0x00, 0x00, 0x00, 0x00, 0x30, 0xf0, 0xff, 0xff, 
0x10, 0x00, 0x00, 0x00, 0x04, 0x00, 0x00, 0x00, 0x03, 0x00, 0x00, 0x00, 0x6f, 0x75, 0x74, 0x00, 0x0a, 0x00, 0x00, 0x00, 0x61, 0x74, 0x65, 0x6e, 0x3a, 0x3a, 0x72, 0x65, 0x6c, 0x75, 0x00, 0x00, 
0x54, 0xf0, 0xff, 0xff, 0x10, 0x00, 0x00, 0x00, 0x04, 0x00, 0x00, 0x00, 0x03, 0x00, 0x00, 0x00, 0x6f, 0x75, 0x74, 0x00, 0x11, 0x00, 0x00, 0x00, 0x61, 0x74, 0x65, 0x6e, 0x3a, 0x3a, 0x63, 0x6f, 
0x6e, 0x76, 0x6f, 0x6c, 0x75, 0x74, 0x69, 0x6f, 0x6e, 0x00, 0x00, 0x00, 0x01, 0x00, 0x00, 0x00, 0x10, 0x00, 0x00, 0x00, 0x00, 0x00, 0x0a, 0x00, 0x10, 0x00, 0x04, 0x00, 0x08, 0x00, 0x0c, 0x00, 
0x0a, 0x00, 0x00, 0x00, 0x34, 0x03, 0x00, 0x00, 0x2c, 0x03, 0x00, 0x00, 0x04, 0x00, 0x00, 0x00, 0x0f, 0x00, 0x00, 0x00, 0xd4, 0x02, 0x00, 0x00, 0xa8, 0x02, 0x00, 0x00, 0x78, 0x02, 0x00, 0x00, 
0x34, 0x02, 0x00, 0x00, 0x04, 0x02, 0x00, 0x00, 0xd4, 0x01, 0x00, 0x00, 0xa0, 0x01, 0x00, 0x00, 0x6c, 0x01, 0x00, 0x00, 0x3c, 0x01, 0x00, 0x00, 0x0c, 0x01, 0x00, 0x00, 0xd0, 0x00, 0x00, 0x00, 
0xa4, 0x00, 0x00, 0x00, 0x74, 0x00, 0x00, 0x00, 0x38, 0x00, 0x00, 0x00, 0x04, 0x00, 0x00, 0x00, 0x34, 0xf1, 0xff, 0xff, 0x00, 0x00, 0x00, 0x01, 0x04, 0x00, 0x00, 0x00, 0xf0, 0xf0, 0xff, 0xff, 
0x09, 0x00, 0x00, 0x00, 0x04, 0x00, 0x00, 0x00, 0x05, 0x00, 0x00, 0x00, 0x42, 0x00, 0x00, 0x00, 0x46, 0x00, 0x00, 0x00, 0x47, 0x00, 0x00, 0x00, 0x45, 0x00, 0x00, 0x00, 0x45, 0x00, 0x00, 0x00, 
0x64, 0xf1, 0xff, 0xff, 0x00, 0x00, 0x00, 0x01, 0x04, 0x00, 0x00, 0x00, 0x20, 0xf1, 0xff, 0xff, 0x08, 0x00, 0x00, 0x00, 0x04, 0x00, 0x00, 0x00, 0x07, 0x00, 0x00, 0x00, 0x05, 0x00, 0x00, 0x00, 
0x3d, 0x00, 0x00, 0x00, 0x3e, 0x00, 0x00, 0x00, 0x43, 0x00, 0x00, 0x00, 0x44, 0x00, 0x00, 0x00, 0x42, 0x00, 0x00, 0x00, 0x42, 0x00, 0x00, 0x00, 0x9c, 0xf1, 0xff, 0xff, 0x00, 0x00, 0x00, 0x01, 
0x04, 0x00, 0x00, 0x00, 0x58, 0xf1, 0xff, 0xff, 0x05, 0x00, 0x00, 0x00, 0x04, 0x00, 0x00, 0x00, 0x04, 0x00, 0x00, 0x00, 0x04, 0x00, 0x00, 0x00, 0x41, 0x00, 0x00, 0x00, 0x3e, 0x00, 0x00, 0x00, 
0x3e, 0x00, 0x00, 0x00, 0xc8, 0xf1, 0xff, 0xff, 0x00, 0x00, 0x00, 0x01, 0x04, 0x00, 0x00, 0x00, 0x84, 0xf1, 0xff, 0xff, 0x01, 0x00, 0x00, 0x00, 0x04, 0x00, 0x00, 0x00, 0x03, 0x00, 0x00, 0x00, 
0x3a, 0x00, 0x00, 0x00, 0x3d, 0x00, 0x00, 0x00, 0x3d, 0x00, 0x00, 0x00, 0xf0, 0xf1, 0xff, 0xff, 0x00, 0x00, 0x00, 0x01, 0x04, 0x00, 0x00, 0x00, 0xac, 0xf1, 0xff, 0xff, 0x08, 0x00, 0x00, 0x00, 
0x04, 0x00, 0x00, 0x00, 0x07, 0x00, 0x00, 0x00, 0x03, 0x00, 0x00, 0x00, 0x33, 0x00, 0x00, 0x00, 0x36, 0x00, 0x00, 0x00, 0x3b, 0x00, 0x00, 0x00, 0x3c, 0x00, 0x00, 0x00, 0x3a, 0x00, 0x00, 0x00, 
0x3a, 0x00, 0x00, 0x00, 0x28, 0xf2, 0xff, 0xff, 0x00, 0x00, 0x00, 0x01, 0x04, 0x00, 0x00, 0x00, 0xe4, 0xf1, 0xff, 0xff, 0x05, 0x00, 0x00, 0x00, 0x04, 0x00, 0x00, 0x00, 0x04, 0x00, 0x00, 0x00, 
0x02, 0x00, 0x00, 0x00, 0x39, 0x00, 0x00, 0x00, 0x36, 0x00, 0x00, 0x00, 0x36, 0x00, 0x00, 0x00, 0x54, 0xf2, 0xff, 0xff, 0x00, 0x00, 0x00, 0x01, 0x04, 0x00, 0x00, 0x00, 0x10, 0xf2, 0xff, 0xff, 
0x07, 0x00, 0x00, 0x00, 0x04, 0x00, 0x00, 0x00, 0x04, 0x00, 0x00, 0x00, 0x34, 0x00, 0x00, 0x00, 0x35, 0x00, 0x00, 0x00, 0x33, 0x00, 0x00, 0x00, 0x33, 0x00, 0x00, 0x00, 0x80, 0xf2, 0xff, 0xff, 
0x00, 0x00, 0x00, 0x01, 0x04, 0x00, 0x00, 0x00, 0x3c, 0xf2, 0xff, 0xff, 0x06, 0x00, 0x00, 0x00, 0x04, 0x00, 0x00, 0x00, 0x05, 0x00, 0x00, 0x00, 0x28, 0x00, 0x00, 0x00, 0x31, 0x00, 0x00, 0x00, 
0x32, 0x00, 0x00, 0x00, 0x30, 0x00, 0x00, 0x00, 0x30, 0x00, 0x00, 0x00, 0xb0, 0xf2, 0xff, 0xff, 0x00, 0x00, 0x00, 0x01, 0x04, 0x00, 0x00, 0x00, 0x6c, 0xf2, 0xff, 0xff, 0x06, 0x00, 0x00, 0x00, 
0x04, 0x00, 0x00, 0x00, 0x05, 0x00, 0x00, 0x00, 0x28, 0x00, 0x00, 0x00, 0x2e, 0x00, 0x00, 0x00, 0x2f, 0x00, 0x00, 0x00, 0x2d, 0x00, 0x00, 0x00, 0x2d, 0x00, 0x00, 0x00, 0xe0, 0xf2, 0xff, 0xff, 
0x00, 0x00, 0x00, 0x01, 0x04, 0x00, 0x00, 0x00, 0x9c, 0xf2, 0xff, 0xff, 0x05, 0x00, 0x00, 0x00, 0x04, 0x00, 0x00, 0x00, 0x04, 0x00, 0x00, 0x00, 0x25, 0x00, 0x00, 0x00, 0x2c, 0x00, 0x00, 0x00, 
0x28, 0x00, 0x00, 0x00, 0x28, 0x00, 0x00, 0x00, 0x0c, 0xf3, 0xff, 0xff, 0x00, 0x00, 0x00, 0x01, 0x04, 0x00, 0x00, 0x00, 0xc8, 0xf2, 0xff, 0xff, 0x04, 0x00, 0x00, 0x00, 0x04, 0x00, 0x00, 0x00, 
0x04, 0x00, 0x00, 0x00, 0x15, 0x00, 0x00, 0x00, 0x27, 0x00, 0x00, 0x00, 0x25, 0x00, 0x00, 0x00, 0x25, 0x00, 0x00, 0x00, 0x38, 0xf3, 0xff, 0xff, 0x00, 0x00, 0x00, 0x01, 0x04, 0x00, 0x00, 0x00, 
0xf4, 0xf2, 0xff, 0xff, 0x03, 0x00, 0x00, 0x00, 0x04, 0x00, 0x00, 0x00, 0x09, 0x00, 0x00, 0x00, 0x13, 0x00, 0x00, 0x00, 0x19, 0x00, 0x00, 0x00, 0x1c, 0x00, 0x00, 0x00, 0x1f, 0x00, 0x00, 0x00, 
0x22, 0x00, 0x00, 0x00, 0x23, 0x00, 0x00, 0x00, 0x15, 0x00, 0x00, 0x00, 0x16, 0x00, 0x00, 0x00, 0x24, 0x00, 0x00, 0x00, 0x78, 0xf3, 0xff, 0xff, 0x00, 0x00, 0x00, 0x01, 0x04, 0x00, 0x00, 0x00, 
0x34, 0xf3, 0xff, 0xff, 0x02, 0x00, 0x00, 0x00, 0x04, 0x00, 0x00, 0x00, 0x04, 0x00, 0x00, 0x00, 0x12, 0x00, 0x00, 0x00, 0x14, 0x00, 0x00, 0x00, 0x13, 0x00, 0x00, 0x00, 0x13, 0x00, 0x00, 0x00, 
0xa4, 0xf3, 0xff, 0xff, 0x00, 0x00, 0x00, 0x01, 0x04, 0x00, 0x00, 0x00, 0x60, 0xf3, 0xff, 0xff, 0x01, 0x00, 0x00, 0x00, 0x04, 0x00, 0x00, 0x00, 0x03, 0x00, 0x00, 0x00, 0x07, 0x00, 0x00, 0x00, 
0x12, 0x00, 0x00, 0x00, 0x12, 0x00, 0x00, 0x00, 0xcc, 0xf3, 0xff, 0xff, 0x00, 0x00, 0x00, 0x01, 0x0c, 0x00, 0x00, 0x00, 0x08, 0x00, 0x08, 0x00, 0x00, 0x00, 0x04, 0x00, 0x08, 0x00, 0x00, 0x00, 
0x04, 0x00, 0x00, 0x00, 0x0b, 0x00, 0x00, 0x00, 0x06, 0x00, 0x00, 0x00, 0x00, 0x00, 0x00, 0x00, 0x01, 0x00, 0x00, 0x00, 0x09, 0x00, 0x00, 0x00, 0x0b, 0x00, 0x00, 0x00, 0x0d, 0x00, 0x00, 0x00, 
0x0e, 0x00, 0x00, 0x00, 0x10, 0x00, 0x00, 0x00, 0x11, 0x00, 0x00, 0x00, 0x07, 0x00, 0x00, 0x00, 0x07, 0x00, 0x00, 0x00, 0x00, 0x00, 0x00, 0x00, 0x00, 0x00, 0x00, 0x00, 0x01, 0x00, 0x00, 0x00, 
0x45, 0x00, 0x00, 0x00, 0x01, 0x00, 0x00, 0x00, 0x06, 0x00, 0x00, 0x00, 0x48, 0x00, 0x00, 0x00, 0xd4, 0x0b, 0x00, 0x00, 0x98, 0x0b, 0x00, 0x00, 0x60, 0x0b, 0x00, 0x00, 0x2c, 0x0b, 0x00, 0x00, 
0xf4, 0x0a, 0x00, 0x00, 0xc0, 0x0a, 0x00, 0x00, 0x60, 0x0a, 0x00, 0x00, 0xfc, 0x09, 0x00, 0x00, 0xd8, 0x09, 0x00, 0x00, 0xb4, 0x09, 0x00, 0x00, 0x9c, 0x09, 0x00, 0x00, 0x74, 0x09, 0x00, 0x00, 
0x58, 0x09, 0x00, 0x00, 0x34, 0x09, 0x00, 0x00, 0x20, 0x09, 0x00, 0x00, 0x0c, 0x09, 0x00, 0x00, 0xe8, 0x08, 0x00, 0x00, 0xcc, 0x08, 0x00, 0x00, 0x88, 0x08, 0x00, 0x00, 0x3c, 0x08, 0x00, 0x00, 
0x20, 0x08, 0x00, 0x00, 0xd8, 0x07, 0x00, 0x00, 0x78, 0x07, 0x00, 0x00, 0x5c, 0x07, 0x00, 0x00, 0x40, 0x07, 0x00, 0x00, 0x14, 0x07, 0x00, 0x00, 0xf8, 0x06, 0x00, 0x00, 0xdc, 0x06, 0x00, 0x00, 
0xb0, 0x06, 0x00, 0x00, 0x9c, 0x06, 0x00, 0x00, 0x88, 0x06, 0x00, 0x00, 0x5c, 0x06, 0x00, 0x00, 0x40, 0x06, 0x00, 0x00, 0x24, 0x06, 0x00, 0x00, 0xf8, 0x05, 0x00, 0x00, 0xe4, 0x05, 0x00, 0x00, 
0xc0, 0x05, 0x00, 0x00, 0x78, 0x05, 0x00, 0x00, 0x50, 0x05, 0x00, 0x00, 0x2c, 0x05, 0x00, 0x00, 0xe8, 0x04, 0x00, 0x00, 0xd4, 0x04, 0x00, 0x00, 0xb8, 0x04, 0x00, 0x00, 0x9c, 0x04, 0x00, 0x00, 
0x68, 0x04, 0x00, 0x00, 0x24, 0x04, 0x00, 0x00, 0x08, 0x04, 0x00, 0x00, 0xf4, 0x03, 0x00, 0x00, 0xb0, 0x03, 0x00, 0x00, 0x94, 0x03, 0x00, 0x00, 0x78, 0x03, 0x00, 0x00, 0x38, 0x03, 0x00, 0x00, 
0x14, 0x03, 0x00, 0x00, 0xf4, 0x02, 0x00, 0x00, 0xb0, 0x02, 0x00, 0x00, 0x94, 0x02, 0x00, 0x00, 0x80, 0x02, 0x00, 0x00, 0x54, 0x02, 0x00, 0x00, 0x10, 0x02, 0x00, 0x00, 0xf4, 0x01, 0x00, 0x00, 
0xd8, 0x01, 0x00, 0x00, 0x98, 0x01, 0x00, 0x00, 0x54, 0x01, 0x00, 0x00, 0x34, 0x01, 0x00, 0x00, 0x20, 0x01, 0x00, 0x00, 0xf4, 0x00, 0x00, 0x00, 0xb0, 0x00, 0x00, 0x00, 0x94, 0x00, 0x00, 0x00, 
0x78, 0x00, 0x00, 0x00, 0x34, 0x00, 0x00, 0x00, 0x18, 0x00, 0x00, 0x00, 0x04, 0x00, 0x00, 0x00, 0x54, 0xf5, 0xff, 0xff, 0x00, 0x00, 0x00, 0x03, 0x04, 0x00, 0x00, 0x00, 0x5c, 0xf7, 0xff, 0xff, 
0x64, 0xf5, 0xff, 0xff, 0x00, 0x00, 0x00, 0x02, 0x04, 0x00, 0x00, 0x00, 0x36, 0xf7, 0xff, 0xff, 0x01, 0x00, 0x00, 0x00, 0x00, 0x00, 0x00, 0x00, 0x7c, 0xf5, 0xff, 0xff, 0x00, 0x00, 0x00, 0x05, 
0x04, 0x00, 0x00, 0x00, 0x2e, 0xf7, 0xff, 0xff, 0x00, 0x00, 0x06, 0x01, 0x20, 0x00, 0x00, 0x00, 0x14, 0x00, 0x00, 0x00, 0x04, 0x00, 0x00, 0x00, 0x4c, 0xf5, 0xff, 0xff, 0x01, 0x00, 0x00, 0x00, 
0x00, 0x15, 0x00, 0x00, 0x02, 0x00, 0x00, 0x00, 0x00, 0x01, 0x00, 0x00, 0x02, 0x00, 0x00, 0x00, 0x01, 0x00, 0x00, 0x00, 0x02, 0x00, 0x00, 0x00, 0xbc, 0xf5, 0xff, 0xff, 0x00, 0x00, 0x00, 0x02, 
0x04, 0x00, 0x00, 0x00, 0x8e, 0xf7, 0xff, 0xff, 0x01, 0x00, 0x00, 0x00, 0x00, 0x00, 0x00, 0x00, 0xd4, 0xf5, 0xff, 0xff, 0x00, 0x00, 0x00, 0x02, 0x04, 0x00, 0x00, 0x00, 0xa6, 0xf7, 0xff, 0xff, 
0x01, 0x00, 0x00, 0x00, 0x00, 0x00, 0x00, 0x00, 0xec, 0xf5, 0xff, 0xff, 0x00, 0x00, 0x00, 0x05, 0x04, 0x00, 0x00, 0x00, 0x9e, 0xf7, 0xff, 0xff, 0x00, 0x00, 0x06, 0x01, 0x20, 0x00, 0x00, 0x00, 
0x14, 0x00, 0x00, 0x00, 0x04, 0x00, 0x00, 0x00, 0xbc, 0xf5, 0xff, 0xff, 0x01, 0x00, 0x00, 0x00, 0x80, 0x15, 0x00, 0x00, 0x02, 0x00, 0x00, 0x00, 0x00, 0x01, 0x00, 0x00, 0x02, 0x00, 0x00, 0x00, 
0x01, 0x00, 0x00, 0x00, 0x02, 0x00, 0x00, 0x00, 0x2c, 0xf6, 0xff, 0xff, 0x00, 0x00, 0x00, 0x07, 0x04, 0x00, 0x00, 0x00, 0x56, 0xf7, 0xff, 0xff, 0x04, 0x00, 0x00, 0x00, 0x02, 0x00, 0x00, 0x00, 
0x3f, 0x00, 0x00, 0x00, 0x00, 0x00, 0x00, 0x00, 0x40, 0x00, 0x00, 0x00, 0x00, 0x00, 0x00, 0x00, 0x54, 0xf6, 0xff, 0xff, 0x00, 0x00, 0x00, 0x02, 0x04, 0x00, 0x00, 0x00, 0x5c, 0xf8, 0xff, 0xff, 
0x64, 0xf6, 0xff, 0xff, 0x00, 0x00, 0x00, 0x02, 0x04, 0x00, 0x00, 0x00, 0x46, 0xfc, 0xff, 0xff, 0x01, 0x00, 0x00, 0x00, 0x00, 0x00, 0x00, 0x00, 0x00, 0x00, 0x00, 0x00, 0x80, 0xf6, 0xff, 0xff, 
0x00, 0x00, 0x00, 0x05, 0x04, 0x00, 0x00, 0x00, 0x32, 0xf8, 0xff, 0xff, 0x00, 0x00, 0x06, 0x01, 0x20, 0x00, 0x00, 0x00, 0x14, 0x00, 0x00, 0x00, 0x04, 0x00, 0x00, 0x00, 0x50, 0xf6, 0xff, 0xff, 
0x01, 0x00, 0x00, 0x00, 0x00, 0x15, 0x00, 0x00, 0x02, 0x00, 0x00, 0x00, 0x00, 0x01, 0x00, 0x00, 0x02, 0x00, 0x00, 0x00, 0x10, 0x00, 0x00, 0x00, 0x02, 0x00, 0x00, 0x00, 0xc0, 0xf6, 0xff, 0xff, 
0x00, 0x00, 0x00, 0x05, 0x04, 0x00, 0x00, 0x00, 0x72, 0xf8, 0xff, 0xff, 0x00, 0x00, 0x06, 0x01, 0x1c, 0x00, 0x00, 0x00, 0x10, 0x00, 0x00, 0x00, 0x04, 0x00, 0x00, 0x00, 0xfe, 0xf7, 0xff, 0xff, 
0x01, 0x00, 0x00, 0x00, 0x02, 0x00, 0x00, 0x00, 0x00, 0x01, 0x00, 0x00, 0x02, 0x00, 0x00, 0x00, 0x01, 0x00, 0x00, 0x00, 0x10, 0x00, 0x00, 0x00, 0xfc, 0xf6, 0xff, 0xff, 0x00, 0x00, 0x00, 0x02, 
0x04, 0x00, 0x00, 0x00, 0xce, 0xf8, 0xff, 0xff, 0x01, 0x00, 0x00, 0x00, 0x00, 0x00, 0x00, 0x00, 0x14, 0xf7, 0xff, 0xff, 0x00, 0x00, 0x00, 0x02, 0x04, 0x00, 0x00, 0x00, 0xe6, 0xf8, 0xff, 0xff, 
0x01, 0x00, 0x00, 0x00, 0x00, 0x00, 0x00, 0x00, 0x2c, 0xf7, 0xff, 0xff, 0x00, 0x00, 0x00, 0x05, 0x04, 0x00, 0x00, 0x00, 0xde, 0xf8, 0xff, 0xff, 0x00, 0x00, 0x06, 0x01, 0x20, 0x00, 0x00, 0x00, 
0x14, 0x00, 0x00, 0x00, 0x04, 0x00, 0x00, 0x00, 0xfc, 0xf6, 0xff, 0xff, 0x01, 0x00, 0x00, 0x00, 0x00, 0x15, 0x00, 0x00, 0x02, 0x00, 0x00, 0x00, 0x00, 0x01, 0x00, 0x00, 0x02, 0x00, 0x00, 0x00, 
0x01, 0x00, 0x00, 0x00, 0x10, 0x00, 0x00, 0x00, 0x6c, 0xf7, 0xff, 0xff, 0x00, 0x00, 0x00, 0x07, 0x04, 0x00, 0x00, 0x00, 0x96, 0xf8, 0xff, 0xff, 0x04, 0x00, 0x00, 0x00, 0x02, 0x00, 0x00, 0x00, 
0x37, 0x00, 0x00, 0x00, 0x00, 0x00, 0x00, 0x00, 0x38, 0x00, 0x00, 0x00, 0x00, 0x00, 0x00, 0x00, 0x94, 0xf7, 0xff, 0xff, 0x00, 0x00, 0x00, 0x02, 0x04, 0x00, 0x00, 0x00, 0x9c, 0xf9, 0xff, 0xff, 
0xa4, 0xf7, 0xff, 0xff, 0x00, 0x00, 0x00, 0x02, 0x04, 0x00, 0x00, 0x00, 0x76, 0xf9, 0xff, 0xff, 0x01, 0x00, 0x00, 0x00, 0x00, 0x00, 0x00, 0x00, 0xbc, 0xf7, 0xff, 0xff, 0x00, 0x00, 0x00, 0x05, 
0x04, 0x00, 0x00, 0x00, 0x6e, 0xf9, 0xff, 0xff, 0x00, 0x00, 0x06, 0x01, 0x20, 0x00, 0x00, 0x00, 0x14, 0x00, 0x00, 0x00, 0x04, 0x00, 0x00, 0x00, 0x8c, 0xf7, 0xff, 0xff, 0x01, 0x00, 0x00, 0x00, 
0x00, 0x03, 0x00, 0x00, 0x02, 0x00, 0x00, 0x00, 0x00, 0x01, 0x00, 0x00, 0x02, 0x00, 0x00, 0x00, 0x40, 0x00, 0x00, 0x00, 0x10, 0x00, 0x00, 0x00, 0xfc, 0xf7, 0xff, 0xff, 0x00, 0x00, 0x00, 0x02, 
0x04, 0x00, 0x00, 0x00, 0xde, 0xfd, 0xff, 0xff, 0x01, 0x00, 0x00, 0x00, 0x00, 0x00, 0x00, 0x00, 0x00, 0x00, 0x00, 0x00, 0x18, 0xf8, 0xff, 0xff, 0x00, 0x00, 0x00, 0x0a, 0x04, 0x00, 0x00, 0x00, 
0x42, 0xf9, 0xff, 0xff, 0x04, 0x00, 0x00, 0x00, 0x02, 0x00, 0x00, 0x00, 0x2d, 0x00, 0x00, 0x00, 0x30, 0x00, 0x00, 0x00, 0x38, 0xf8, 0xff, 0xff, 0x00, 0x00, 0x00, 0x05, 0x04, 0x00, 0x00, 0x00, 
0xea, 0xf9, 0xff, 0xff, 0x00, 0x00, 0x06, 0x01, 0x1c, 0x00, 0x00, 0x00, 0x10, 0x00, 0x00, 0x00, 0x04, 0x00, 0x00, 0x00, 0x76, 0xf9, 0xff, 0xff, 0x01, 0x00, 0x00, 0x00, 0x02, 0x00, 0x00, 0x00, 
0x00, 0x01, 0x00, 0x00, 0x02, 0x00, 0x00, 0x00, 0x01, 0x00, 0x00, 0x00, 0x40, 0x00, 0x00, 0x00, 0x74, 0xf8, 0xff, 0xff, 0x00, 0x00, 0x00, 0x02, 0x04, 0x00, 0x00, 0x00, 0x46, 0xfa, 0xff, 0xff, 
0x01, 0x00, 0x00, 0x00, 0x00, 0x00, 0x00, 0x00, 0x8c, 0xf8, 0xff, 0xff, 0x00, 0x00, 0x00, 0x02, 0x04, 0x00, 0x00, 0x00, 0x5e, 0xfa, 0xff, 0xff, 0x02, 0x00, 0x00, 0x00, 0x00, 0x00, 0x00, 0x00, 
0xa4, 0xf8, 0xff, 0xff, 0x00, 0x00, 0x00, 0x05, 0x04, 0x00, 0x00, 0x00, 0x56, 0xfa, 0xff, 0xff, 0x00, 0x00, 0x06, 0x01, 0x20, 0x00, 0x00, 0x00, 0x14, 0x00, 0x00, 0x00, 0x04, 0x00, 0x00, 0x00, 
0x74, 0xf8, 0xff, 0xff, 0x01, 0x00, 0x00, 0x00, 0x00, 0x15, 0x00, 0x00, 0x02, 0x00, 0x00, 0x00, 0x00, 0x01, 0x00, 0x00, 0x02, 0x00, 0x00, 0x00, 0x01, 0x00, 0x00, 0x00, 0x20, 0x00, 0x00, 0x00, 
0xe4, 0xf8, 0xff, 0xff, 0x00, 0x00, 0x00, 0x02, 0x04, 0x00, 0x00, 0x00, 0xec, 0xfa, 0xff, 0xff, 0xf4, 0xf8, 0xff, 0xff, 0x00, 0x00, 0x00, 0x02, 0x04, 0x00, 0x00, 0x00, 0xc6, 0xfa, 0xff, 0xff, 
0x02, 0x00, 0x00, 0x00, 0x00, 0x00, 0x00, 0x00, 0x0c, 0xf9, 0xff, 0xff, 0x00, 0x00, 0x00, 0x05, 0x04, 0x00, 0x00, 0x00, 0xbe, 0xfa, 0xff, 0xff, 0x00, 0x00, 0x06, 0x01, 0x20, 0x00, 0x00, 0x00, 
0x14, 0x00, 0x00, 0x00, 0x04, 0x00, 0x00, 0x00, 0xdc, 0xf8, 0xff, 0xff, 0x01, 0x00, 0x00, 0x00, 0x00, 0x13, 0x00, 0x00, 0x02, 0x00, 0x00, 0x00, 0x00, 0x01, 0x00, 0x00, 0x02, 0x00, 0x00, 0x00, 
0x01, 0x00, 0x00, 0x00, 0x20, 0x00, 0x00, 0x00, 0x4c, 0xf9, 0xff, 0xff, 0x00, 0x00, 0x00, 0x07, 0x04, 0x00, 0x00, 0x00, 0x76, 0xfa, 0xff, 0xff, 0x04, 0x00, 0x00, 0x00, 0x03, 0x00, 0x00, 0x00, 
0x29, 0x00, 0x00, 0x00, 0x00, 0x00, 0x00, 0x00, 0x2a, 0x00, 0x00, 0x00, 0x00, 0x00, 0x00, 0x00, 0x2b, 0x00, 0x00, 0x00, 0x00, 0x00, 0x00, 0x00, 0x7c, 0xf9, 0xff, 0xff, 0x00, 0x00, 0x00, 0x02, 
0x04, 0x00, 0x00, 0x00, 0x4e, 0xfb, 0xff, 0xff, 0x01, 0x00, 0x00, 0x00, 0x00, 0x00, 0x00, 0x00, 0x94, 0xf9, 0xff, 0xff, 0x00, 0x00, 0x00, 0x02, 0x04, 0x00, 0x00, 0x00, 0x66, 0xfb, 0xff, 0xff, 
0x02, 0x00, 0x00, 0x00, 0x00, 0x00, 0x00, 0x00, 0xac, 0xf9, 0xff, 0xff, 0x00, 0x00, 0x00, 0x02, 0x04, 0x00, 0x00, 0x00, 0xb4, 0xfb, 0xff, 0xff, 0xbc, 0xf9, 0xff, 0xff, 0x00, 0x00, 0x00, 0x05, 
0x04, 0x00, 0x00, 0x00, 0x6e, 0xfb, 0xff, 0xff, 0x00, 0x00, 0x06, 0x01, 0x1c, 0x00, 0x00, 0x00, 0x10, 0x00, 0x00, 0x00, 0x04, 0x00, 0x00, 0x00, 0xfa, 0xfa, 0xff, 0xff, 0x01, 0x00, 0x00, 0x00, 
0x03, 0x00, 0x00, 0x00, 0x00, 0x01, 0x02, 0x00, 0x03, 0x00, 0x00, 0x00, 0x01, 0x00, 0x00, 0x00, 0x20, 0x00, 0x00, 0x00, 0x02, 0x00, 0x00, 0x00, 0xfc, 0xf9, 0xff, 0xff, 0x00, 0x00, 0x00, 0x07, 
0x04, 0x00, 0x00, 0x00, 0x26, 0xfb, 0xff, 0xff, 0x04, 0x00, 0x00, 0x00, 0x01, 0x00, 0x00, 0x00, 0x26, 0x00, 0x00, 0x00, 0x00, 0x00, 0x00, 0x00, 0x78, 0xfb, 0xff, 0xff, 0x00, 0x00, 0x00, 0x02, 
0x0c, 0x00, 0x00, 0x00, 0x00, 0x00, 0x06, 0x00, 0x10, 0x00, 0x04, 0x00, 0x06, 0x00, 0x00, 0x00, 0xfe, 0xff, 0xff, 0xff, 0xff, 0xff, 0xff, 0xff, 0x00, 0x00, 0x00, 0x00, 0x40, 0xfa, 0xff, 0xff, 
0x00, 0x00, 0x00, 0x05, 0x04, 0x00, 0x00, 0x00, 0xf2, 0xfb, 0xff, 0xff, 0x00, 0x00, 0x06, 0x01, 0x20, 0x00, 0x00, 0x00, 0x14, 0x00, 0x00, 0x00, 0x04, 0x00, 0x00, 0x00, 0x10, 0xfa, 0xff, 0xff, 
0x01, 0x00, 0x00, 0x00, 0x00, 0x13, 0x00, 0x00, 0x03, 0x00, 0x00, 0x00, 0x00, 0x01, 0x02, 0x00, 0x03, 0x00, 0x00, 0x00, 0x01, 0x00, 0x00, 0x00, 0x02, 0x00, 0x00, 0x00, 0x20, 0x00, 0x00, 0x00, 
0x84, 0xfa, 0xff, 0xff, 0x00, 0x00, 0x00, 0x0a, 0x04, 0x00, 0x00, 0x00, 0xae, 0xfb, 0xff, 0xff, 0x04, 0x00, 0x00, 0x00, 0x02, 0x00, 0x00, 0x00, 0x15, 0x00, 0x00, 0x00, 0x16, 0x00, 0x00, 0x00, 
0xa4, 0xfa, 0xff, 0xff, 0x00, 0x00, 0x00, 0x03, 0x04, 0x00, 0x00, 0x00, 0xac, 0xfc, 0xff, 0xff, 0xb4, 0xfa, 0xff, 0xff, 0x00, 0x00, 0x00, 0x07, 0x04, 0x00, 0x00, 0x00, 0xde, 0xfb, 0xff, 0xff, 
0x04, 0x00, 0x00, 0x00, 0x02, 0x00, 0x00, 0x00, 0x20, 0x00, 0x00, 0x00, 0x00, 0x00, 0x00, 0x00, 0x21, 0x00, 0x00, 0x00, 0x00, 0x00, 0x00, 0x00, 0xdc, 0xfa, 0xff, 0xff, 0x00, 0x00, 0x00, 0x02, 
0x04, 0x00, 0x00, 0x00, 0xae, 0xfc, 0xff, 0xff, 0x01, 0x00, 0x00, 0x00, 0x00, 0x00, 0x00, 0x00, 0xf4, 0xfa, 0xff, 0xff, 0x00, 0x00, 0x00, 0x02, 0x04, 0x00, 0x00, 0x00, 0xc6, 0xfc, 0xff, 0xff, 
0x01, 0x00, 0x00, 0x00, 0x00, 0x00, 0x00, 0x00, 0x0c, 0xfb, 0xff, 0xff, 0x00, 0x00, 0x00, 0x07, 0x04, 0x00, 0x00, 0x00, 0x36, 0xfc, 0xff, 0xff, 0x04, 0x00, 0x00, 0x00, 0x02, 0x00, 0x00, 0x00, 
0x1d, 0x00, 0x00, 0x00, 0x00, 0x00, 0x00, 0x00, 0x1e, 0x00, 0x00, 0x00, 0x00, 0x00, 0x00, 0x00, 0x34, 0xfb, 0xff, 0xff, 0x00, 0x00, 0x00, 0x02, 0x04, 0x00, 0x00, 0x00, 0x3c, 0xfd, 0xff, 0xff, 
0x44, 0xfb, 0xff, 0xff, 0x00, 0x00, 0x00, 0x02, 0x04, 0x00, 0x00, 0x00, 0x4c, 0xfd, 0xff, 0xff, 0x54, 0xfb, 0xff, 0xff, 0x00, 0x00, 0x00, 0x07, 0x04, 0x00, 0x00, 0x00, 0x7e, 0xfc, 0xff, 0xff, 
0x04, 0x00, 0x00, 0x00, 0x02, 0x00, 0x00, 0x00, 0x1a, 0x00, 0x00, 0x00, 0x00, 0x00, 0x00, 0x00, 0x1b, 0x00, 0x00, 0x00, 0x00, 0x00, 0x00, 0x00, 0x7c, 0xfb, 0xff, 0xff, 0x00, 0x00, 0x00, 0x02, 
0x04, 0x00, 0x00, 0x00, 0x4e, 0xfd, 0xff, 0xff, 0x03, 0x00, 0x00, 0x00, 0x00, 0x00, 0x00, 0x00, 0x94, 0xfb, 0xff, 0xff, 0x00, 0x00, 0x00, 0x02, 0x04, 0x00, 0x00, 0x00, 0x66, 0xfd, 0xff, 0xff, 
0x01, 0x00, 0x00, 0x00, 0x00, 0x00, 0x00, 0x00, 0xac, 0xfb, 0xff, 0xff, 0x00, 0x00, 0x00, 0x07, 0x04, 0x00, 0x00, 0x00, 0xd6, 0xfc, 0xff, 0xff, 0x04, 0x00, 0x00, 0x00, 0x02, 0x00, 0x00, 0x00, 
0x17, 0x00, 0x00, 0x00, 0x00, 0x00, 0x00, 0x00, 0x18, 0x00, 0x00, 0x00, 0x00, 0x00, 0x00, 0x00, 0xd4, 0xfb, 0xff, 0xff, 0x00, 0x00, 0x00, 0x02, 0x04, 0x00, 0x00, 0x00, 0xa6, 0xfd, 0xff, 0xff, 
0x03, 0x00, 0x00, 0x00, 0x00, 0x00, 0x00, 0x00, 0xec, 0xfb, 0xff, 0xff, 0x00, 0x00, 0x00, 0x02, 0x04, 0x00, 0x00, 0x00, 0xbe, 0xfd, 0xff, 0xff, 0x01, 0x00, 0x00, 0x00, 0x00, 0x00, 0x00, 0x00, 
0x60, 0xfd, 0xff, 0xff, 0x00, 0x00, 0x00, 0x05, 0x18, 0x00, 0x00, 0x00, 0x00, 0x00, 0x12, 0x00, 0x14, 0x00, 0x07, 0x00, 0x00, 0x00, 0x08, 0x00, 0x0c, 0x00, 0x00, 0x00, 0x00, 0x00, 0x10, 0x00, 
0x12, 0x00, 0x00, 0x00, 0x00, 0x00, 0x00, 0x04, 0x20, 0x00, 0x00, 0x00, 0x14, 0x00, 0x00, 0x00, 0x04, 0x00, 0x00, 0x00, 0xe8, 0xfb, 0xff, 0xff, 0x01, 0x00, 0x00, 0x00, 0x00, 0x13, 0x00, 0x00, 
0x04, 0x00, 0x00, 0x00, 0x00, 0x01, 0x02, 0x03, 0x04, 0x00, 0x00, 0x00, 0x01, 0x00, 0x00, 0x00, 0x02, 0x00, 0x00, 0x00, 0x01, 0x00, 0x00, 0x00, 0x20, 0x00, 0x00, 0x00, 0x60, 0xfc, 0xff, 0xff, 
0x00, 0x00, 0x00, 0x05, 0x04, 0x00, 0x00, 0x00, 0x12, 0xfe, 0xff, 0xff, 0x00, 0x00, 0x06, 0x01, 0x1c, 0x00, 0x00, 0x00, 0x10, 0x00, 0x00, 0x00, 0x04, 0x00, 0x00, 0x00, 0x9e, 0xfd, 0xff, 0xff, 
0x01, 0x00, 0x00, 0x00, 0x04, 0x00, 0x00, 0x00, 0x00, 0x01, 0x02, 0x03, 0x04, 0x00, 0x00, 0x00, 0x01, 0x00, 0x00, 0x00, 0x02, 0x00, 0x00, 0x00, 0x01, 0x00, 0x00, 0x00, 0x20, 0x00, 0x00, 0x00, 
0xa4, 0xfc, 0xff, 0xff, 0x00, 0x00, 0x00, 0x02, 0x04, 0x00, 0x00, 0x00, 0x76, 0xfe, 0xff, 0xff, 0xfe, 0xff, 0xff, 0xff, 0xff, 0xff, 0xff, 0xff, 0xbc, 0xfc, 0xff, 0xff, 0x00, 0x00, 0x00, 0x05, 
0x04, 0x00, 0x00, 0x00, 0x6e, 0xfe, 0xff, 0xff, 0x00, 0x00, 0x06, 0x01, 0x20, 0x00, 0x00, 0x00, 0x14, 0x00, 0x00, 0x00, 0x04, 0x00, 0x00, 0x00, 0x8c, 0xfc, 0xff, 0xff, 0x01, 0x00, 0x00, 0x00, 
0x00, 0x03, 0x00, 0x00, 0x04, 0x00, 0x00, 0x00, 0x00, 0x01, 0x02, 0x03, 0x04, 0x00, 0x00, 0x00, 0x01, 0x00, 0x00, 0x00, 0x02, 0x00, 0x00, 0x00, 0x01, 0x00, 0x00, 0x00, 0x60, 0x00, 0x00, 0x00, 
0x04, 0xfd, 0xff, 0xff, 0x00, 0x00, 0x00, 0x05, 0x04, 0x00, 0x00, 0x00, 0xb6, 0xfe, 0xff, 0xff, 0x00, 0x00, 0x06, 0x01, 0x1c, 0x00, 0x00, 0x00, 0x10, 0x00, 0x00, 0x00, 0x04, 0x00, 0x00, 0x00, 
0x42, 0xfe, 0xff, 0xff, 0x01, 0x00, 0x00, 0x00, 0x03, 0x00, 0x00, 0x00, 0x00, 0x01, 0x02, 0x00, 0x03, 0x00, 0x00, 0x00, 0x01, 0x00, 0x00, 0x00, 0x02, 0x00, 0x00, 0x00, 0x60, 0x00, 0x00, 0x00, 
0x44, 0xfd, 0xff, 0xff, 0x00, 0x00, 0x00, 0x02, 0x04, 0x00, 0x00, 0x00, 0x16, 0xff, 0xff, 0xff, 0x01, 0x00, 0x00, 0x00, 0x00, 0x00, 0x00, 0x00, 0x5c, 0xfd, 0xff, 0xff, 0x00, 0x00, 0x00, 0x07, 
0x04, 0x00, 0x00, 0x00, 0x86, 0xfe, 0xff, 0xff, 0x04, 0x00, 0x00, 0x00, 0x01, 0x00, 0x00, 0x00, 0x0f, 0x00, 0x00, 0x00, 0x00, 0x00, 0x00, 0x00, 0x7c, 0xfd, 0xff, 0xff, 0x00, 0x00, 0x00, 0x02, 
0x04, 0x00, 0x00, 0x00, 0x84, 0xff, 0xff, 0xff, 0x8c, 0xfd, 0xff, 0xff, 0x00, 0x00, 0x00, 0x03, 0x04, 0x00, 0x00, 0x00, 0x94, 0xff, 0xff, 0xff, 0x9c, 0xfd, 0xff, 0xff, 0x00, 0x00, 0x00, 0x07, 
0x04, 0x00, 0x00, 0x00, 0xc6, 0xfe, 0xff, 0xff, 0x04, 0x00, 0x00, 0x00, 0x01, 0x00, 0x00, 0x00, 0x0c, 0x00, 0x00, 0x00, 0x00, 0x00, 0x00, 0x00, 0xbc, 0xfd, 0xff, 0xff, 0x00, 0x00, 0x00, 0x02, 
0x04, 0x00, 0x00, 0x00, 0x8e, 0xff, 0xff, 0xff, 0x01, 0x00, 0x00, 0x00, 0x00, 0x00, 0x00, 0x00, 0xd4, 0xfd, 0xff, 0xff, 0x00, 0x00, 0x00, 0x07, 0x04, 0x00, 0x00, 0x00, 0xfe, 0xfe, 0xff, 0xff, 
0x04, 0x00, 0x00, 0x00, 0x01, 0x00, 0x00, 0x00, 0x0a, 0x00, 0x00, 0x00, 0x00, 0x00, 0x00, 0x00, 0x00, 0x00, 0x00, 0x00, 0xf8, 0xfd, 0xff, 0xff, 0x00, 0x00, 0x00, 0x02, 0x08, 0x00, 0x00, 0x00, 
0x04, 0x00, 0x04, 0x00, 0x04, 0x00, 0x00, 0x00, 0x0c, 0xfe, 0xff, 0xff, 0x00, 0x00, 0x00, 0x07, 0x04, 0x00, 0x00, 0x00, 0x36, 0xff, 0xff, 0xff, 0x04, 0x00, 0x00, 0x00, 0x01, 0x00, 0x00, 0x00, 
0x08, 0x00, 0x00, 0x00, 0x00, 0x00, 0x00, 0x00, 0x88, 0xff, 0xff, 0xff, 0x00, 0x00, 0x00, 0x02, 0x0c, 0x00, 0x00, 0x00, 0x00, 0x00, 0x06, 0x00, 0x0c, 0x00, 0x04, 0x00, 0x06, 0x00, 0x00, 0x00, 
0x01, 0x00, 0x00, 0x00, 0x00, 0x00, 0x00, 0x00, 0xa8, 0xff, 0xff, 0xff, 0x00, 0x00, 0x00, 0x05, 0x18, 0x00, 0x00, 0x00, 0x00, 0x00, 0x12, 0x00, 0x14, 0x00, 0x06, 0x00, 0x00, 0x00, 0x08, 0x00, 
0x0c, 0x00, 0x07, 0x00, 0x00, 0x00, 0x10, 0x00, 0x12, 0x00, 0x00, 0x00, 0x00, 0x00, 0x06, 0x01, 0x20, 0x00, 0x00, 0x00, 0x14, 0x00, 0x00, 0x00, 0x04, 0x00, 0x00, 0x00, 0x30, 0xfe, 0xff, 0xff, 
0x01, 0x00, 0x00, 0x00, 0x00, 0x03, 0x00, 0x00, 0x03, 0x00, 0x00, 0x00, 0x00, 0x01, 0x02, 0x00, 0x03, 0x00, 0x00, 0x00, 0x01, 0x00, 0x00, 0x00, 0x02, 0x00, 0x00, 0x00, 0x60, 0x00, 0x00, 0x00, 
0x08, 0x00, 0x0e, 0x00, 0x07, 0x00, 0x08, 0x00, 0x08, 0x00, 0x00, 0x00, 0x00, 0x00, 0x00, 0x05, 0x18, 0x00, 0x00, 0x00, 0x00, 0x00, 0x12, 0x00, 0x16, 0x00, 0x07, 0x00, 0x00, 0x00, 0x08, 0x00, 
0x0c, 0x00, 0x00, 0x00, 0x00, 0x00, 0x10, 0x00, 0x12, 0x00, 0x00, 0x00, 0x00, 0x00, 0x00, 0x06, 0x24, 0x00, 0x00, 0x00, 0x18, 0x00, 0x00, 0x00, 0x0c, 0x00, 0x00, 0x00, 0x00, 0x00, 0x06, 0x00, 
0x08, 0x00, 0x04, 0x00, 0x06, 0x00, 0x00, 0x00, 0x01, 0x00, 0x00, 0x00, 0x03, 0x00, 0x00, 0x00, 0x00, 0x01, 0x02, 0x00, 0x03, 0x00, 0x00, 0x00, 0x01, 0x00, 0x00, 0x00, 0x01, 0x00, 0x00, 0x00, 
0x64, 0x00, 0x00, 0x00, 0x08, 0xff, 0xff, 0xff, 0x00, 0x00, 0x00, 0x05, 0x04, 0x00, 0x00, 0x00, 0x00, 0xff, 0xff, 0xff, 0x00, 0x00, 0x06, 0x01, 0x14, 0x00, 0x00, 0x00, 0x08, 0x00, 0x00, 0x00, 
0x06, 0x00, 0x00, 0x00, 0x01, 0x00, 0x00, 0x00, 0x00, 0x00, 0x00, 0x00, 0x01, 0x00, 0x00, 0x00, 0x02, 0x00, 0x00, 0x00, 0x38, 0xff, 0xff, 0xff, 0x00, 0x00, 0x00, 0x05, 0x04, 0x00, 0x00, 0x00, 
0x30, 0xff, 0xff, 0xff, 0x00, 0x00, 0x06, 0x01, 0x14, 0x00, 0x00, 0x00, 0x08, 0x00, 0x00, 0x00, 0x05, 0x00, 0x00, 0x00, 0x02, 0x00, 0x00, 0x00, 0x00, 0x01, 0x00, 0x00, 0x02, 0x00, 0x00, 0x00, 
0x02, 0x00, 0x00, 0x00, 0x10, 0x00, 0x00, 0x00, 0x6c, 0xff, 0xff, 0xff, 0x00, 0x00, 0x00, 0x05, 0x04, 0x00, 0x00, 0x00, 0x64, 0xff, 0xff, 0xff, 0x00, 0x00, 0x06, 0x01, 0x14, 0x00, 0x00, 0x00, 
0x08, 0x00, 0x00, 0x00, 0x04, 0x00, 0x00, 0x00, 0x01, 0x00, 0x00, 0x00, 0x00, 0x00, 0x00, 0x00, 0x01, 0x00, 0x00, 0x00, 0x10, 0x00, 0x00, 0x00, 0x9c, 0xff, 0xff, 0xff, 0x00, 0x00, 0x00, 0x05, 
0x04, 0x00, 0x00, 0x00, 0x94, 0xff, 0xff, 0xff, 0x00, 0x00, 0x06, 0x01, 0x14, 0x00, 0x00, 0x00, 0x08, 0x00, 0x00, 0x00, 0x03, 0x00, 0x00, 0x00, 0x02, 0x00, 0x00, 0x00, 0x00, 0x01, 0x00, 0x00, 
0x02, 0x00, 0x00, 0x00, 0x10, 0x00, 0x00, 0x00, 0x40, 0x00, 0x00, 0x00, 0xd0, 0xff, 0xff, 0xff, 0x00, 0x00, 0x00, 0x05, 0x04, 0x00, 0x00, 0x00, 0xc8, 0xff, 0xff, 0xff, 0x00, 0x00, 0x06, 0x01, 
0x14, 0x00, 0x00, 0x00, 0x08, 0x00, 0x00, 0x00, 0x02, 0x00, 0x00, 0x00, 0x01, 0x00, 0x00, 0x00, 0x00, 0x00, 0x00, 0x00, 0x01, 0x00, 0x00, 0x00, 0x02, 0x00, 0x00, 0x00, 0x08, 0x00, 0x0c, 0x00, 
0x07, 0x00, 0x08, 0x00, 0x08, 0x00, 0x00, 0x00, 0x00, 0x00, 0x00, 0x05, 0x14, 0x00, 0x00, 0x00, 0x10, 0x00, 0x14, 0x00, 0x06, 0x00, 0x00, 0x00, 0x08, 0x00, 0x0c, 0x00, 0x07, 0x00, 0x10, 0x00, 
0x10, 0x00, 0x00, 0x00, 0x00, 0x00, 0x06, 0x01, 0x14, 0x00, 0x00, 0x00, 0x08, 0x00, 0x00, 0x00, 0x01, 0x00, 0x00, 0x00, 0x03, 0x00, 0x00, 0x00, 0x00, 0x01, 0x02, 0x00, 0x03, 0x00, 0x00, 0x00, 
0x02, 0x00, 0x00, 0x00, 0x01, 0x00, 0x00, 0x00, 0x05, 0x00, 0x00, 0x00, 0x08, 0x00, 0x0c, 0x00, 0x04, 0x00, 0x08, 0x00, 0x08, 0x00, 0x00, 0x00, 0x48, 0x00, 0x00, 0x00, 0x04, 0x00, 0x00, 0x00, 
0x39, 0x00, 0x00, 0x00, 0x5b, 0x31, 0x2c, 0x20, 0x7b, 0x22, 0x74, 0x79, 0x70, 0x65, 0x22, 0x3a, 0x20, 0x6e, 0x75, 0x6c, 0x6c, 0x2c, 0x20, 0x22, 0x63, 0x6f, 0x6e, 0x74, 0x65, 0x78, 0x74, 0x22, 
0x3a, 0x20, 0x6e, 0x75, 0x6c, 0x6c, 0x2c, 0x20, 0x22, 0x63, 0x68, 0x69, 0x6c, 0x64, 0x72, 0x65, 0x6e, 0x5f, 0x73, 0x70, 0x65, 0x63, 0x22, 0x3a, 0x20, 0x5b, 0x5d, 0x7d, 0x5d, 0x00, 0x00, 0x00, 
0xfe, 0x00, 0x00, 0x00, 0x5b, 0x31, 0x2c, 0x20, 0x7b, 0x22, 0x74, 0x79, 0x70, 0x65, 0x22, 0x3a, 0x20, 0x22, 0x62, 0x75, 0x69, 0x6c, 0x74, 0x69, 0x6e, 0x73, 0x2e, 0x74, 0x75, 0x70, 0x6c, 0x65, 
0x22, 0x2c, 0x20, 0x22, 0x63, 0x6f, 0x6e, 0x74, 0x65, 0x78, 0x74, 0x22, 0x3a, 0x20, 0x22, 0x6e, 0x75, 0x6c, 0x6c, 0x22, 0x2c, 0x20, 0x22, 0x63, 0x68, 0x69, 0x6c, 0x64, 0x72, 0x65, 0x6e, 0x5f, 
0x73, 0x70, 0x65, 0x63, 0x22, 0x3a, 0x20, 0x5b, 0x7b, 0x22, 0x74, 0x79, 0x70, 0x65, 0x22, 0x3a, 0x20, 0x22, 0x62, 0x75, 0x69, 0x6c, 0x74, 0x69, 0x6e, 0x73, 0x2e, 0x74, 0x75, 0x70, 0x6c, 0x65, 
0x22, 0x2c, 0x20, 0x22, 0x63, 0x6f, 0x6e, 0x74, 0x65, 0x78, 0x74, 0x22, 0x3a, 0x20, 0x22, 0x6e, 0x75, 0x6c, 0x6c, 0x22, 0x2c, 0x20, 0x22, 0x63, 0x68, 0x69, 0x6c, 0x64, 0x72, 0x65, 0x6e, 0x5f, 
0x73, 0x70, 0x65, 0x63, 0x22, 0x3a, 0x20, 0x5b, 0x7b, 0x22, 0x74, 0x79, 0x70, 0x65, 0x22, 0x3a, 0x20, 0x6e, 0x75, 0x6c, 0x6c, 0x2c, 0x20, 0x22, 0x63, 0x6f, 0x6e, 0x74, 0x65, 0x78, 0x74, 0x22, 
0x3a, 0x20, 0x6e, 0x75, 0x6c, 0x6c, 0x2c, 0x20, 0x22, 0x63, 0x68, 0x69, 0x6c, 0x64, 0x72, 0x65, 0x6e, 0x5f, 0x73, 0x70, 0x65, 0x63, 0x22, 0x3a, 0x20, 0x5b, 0x5d, 0x7d, 0x5d, 0x7d, 0x2c, 0x20, 
0x7b, 0x22, 0x74, 0x79, 0x70, 0x65, 0x22, 0x3a, 0x20, 0x22, 0x62, 0x75, 0x69, 0x6c, 0x74, 0x69, 0x6e, 0x73, 0x2e, 0x64, 0x69, 0x63, 0x74, 0x22, 0x2c, 0x20, 0x22, 0x63, 0x6f, 0x6e, 0x74, 0x65, 
0x78, 0x74, 0x22, 0x3a, 0x20, 0x22, 0x5b, 0x5d, 0x22, 0x2c, 0x20, 0x22, 0x63, 0x68, 0x69, 0x6c, 0x64, 0x72, 0x65, 0x6e, 0x5f, 0x73, 0x70, 0x65, 0x63, 0x22, 0x3a, 0x20, 0x5b, 0x5d, 0x7d, 0x5d, 
0x7d, 0x5d, 0x00, 0x00, 0x07, 0x00, 0x00, 0x00, 0x66, 0x6f, 0x72, 0x77, 0x61, 0x72, 0x64, 0x00, 0x00, 0x00, 0x00, 0x00, 0x00, 0x00, 0x00, 0x00, 0x00, 0x00, 0x00, 0x00, 0x00, 0x00, 0x00, 0x00, 
0xfc, 0xae, 0x1a, 0xbe, 0x87, 0xe1, 0xe5, 0xbd, 0xfd, 0x63, 0x48, 0x3c, 0xf6, 0xec, 0x01, 0x3f, 0xd5, 0x86, 0xa0, 0xbe, 0x2a, 0xcc, 0x86, 0xbe, 0x37, 0x3a, 0x75, 0x3e, 0xd7, 0x86, 0xc7, 0x3e, 
0x5f, 0xe5, 0x58, 0x3e, 0xec, 0xf6, 0xb8, 0xbd, 0x00, 0x00, 0x00, 0x00, 0x00, 0x00, 0x00, 0x00, 0x75, 0x00, 0x30, 0x3f, 0x15, 0xe6, 0x0c, 0x3f, 0x00, 0x00, 0x00, 0x00, 0x00, 0x00, 0x00, 0x00, 
0x4f, 0xa0, 0x24, 0xbd, 0xd8, 0xd4, 0x3a, 0xbd, 0x3d, 0xf6, 0x3c, 0x3d, 0xf9, 0x25, 0x0a, 0xbc, 0xee, 0xf3, 0x1b, 0x3d, 0xf0, 0x18, 0x6e, 0x3c, 0x6f, 0xf8, 0xc1, 0xbc, 0x16, 0x2a, 0xe1, 0xbd, 
0x9f, 0x75, 0x32, 0x3d, 0x14, 0x4c, 0xf1, 0x3c, 0xce, 0x25, 0x16, 0x3a, 0xe1, 0x7e, 0xbd, 0x3c, 0xd2, 0xd3, 0xad, 0xbd, 0xc7, 0x53, 0xe5, 0x3c, 0xdf, 0x23, 0xac, 0x3b, 0xf0, 0x33, 0x3e, 0xbd, 
0xf4, 0xd5, 0x2a, 0xbd, 0x01, 0x9b, 0xb0, 0x3d, 0xad, 0x4c, 0xe9, 0xbd, 0x16, 0x65, 0xf8, 0xbd, 0x11, 0xbd, 0xa4, 0xbd, 0x23, 0x25, 0x7c, 0xbc, 0xf3, 0x83, 0xeb, 0x3b, 0x32, 0x0c, 0xe2, 0x3d, 
0x3f, 0xa0, 0xf5, 0xbc, 0xa9, 0x31, 0x9c, 0x3d, 0x6f, 0x02, 0x5c, 0xbc, 0x93, 0x77, 0x89, 0xbd, 0x47, 0x72, 0xfc, 0x3c, 0xa1, 0xb7, 0xe2, 0x3b, 0xd5, 0xd3, 0x7b, 0xbd, 0xf1, 0xba, 0xcd, 0x3d, 
0x32, 0x27, 0x98, 0xbd, 0xf1, 0xc1, 0x67, 0x3c, 0x28, 0x47, 0x81, 0xbc, 0x0c, 0xf2, 0x89, 0xbb, 0xb9, 0x53, 0x7c, 0x3d, 0x89, 0xb0, 0x75, 0x3d, 0x1b, 0xa2, 0x6a, 0x3c, 0xbc, 0x97, 0xc1, 0xbd, 
0x17, 0x48, 0x46, 0xbd, 0x6c, 0x48, 0x77, 0x3d, 0x5a, 0xd6, 0x85, 0x3c, 0xb1, 0x62, 0x47, 0xbd, 0x98, 0xce, 0x59, 0xbc, 0x65, 0xef, 0xaa, 0x3d, 0xc9, 0xc4, 0xe3, 0xbd, 0xa4, 0xba, 0xa0, 0x3d, 
0x7b, 0x01, 0xb1, 0x3d, 0x60, 0x90, 0x39, 0x3d, 0xa6, 0x72, 0x84, 0x3d, 0x58, 0x85, 0x55, 0x3d, 0xb4, 0xec, 0x5a, 0xbd, 0x4e, 0xd0, 0xd2, 0x3d, 0x93, 0x9c, 0x59, 0x3d, 0x89, 0xcc, 0xc4, 0xbd, 
0x72, 0x2a, 0x57, 0xbd, 0x41, 0x9a, 0xee, 0x3d, 0x85, 0x20, 0xbf, 0xbc, 0x09, 0x64, 0xde, 0x3d, 0xe3, 0xaf, 0x2f, 0xbd, 0xdc, 0xf3, 0xa0, 0xbd, 0x74, 0x5e, 0x59, 0xbc, 0x52, 0xe3, 0x69, 0xbd, 
0x74, 0xa0, 0x3a, 0xbd, 0x4a, 0x9f, 0xb4, 0x3d, 0xba, 0xd8, 0xb6, 0x3d, 0x8a, 0x5b, 0xdc, 0xbd, 0x98, 0x98, 0xbc, 0xbd, 0x24, 0x14, 0xfe, 0x3d, 0x90, 0xd9, 0x56, 0xbc, 0x98, 0xc3, 0xe5, 0xbc, 
0xc2, 0xb4, 0xcd, 0xbd, 0xe0, 0x98, 0xf5, 0xbc, 0xa0, 0x60, 0x1f, 0x3d, 0x20, 0x0c, 0x9e, 0xbc, 0x00, 0xa4, 0x8e, 0x3a, 0xfc, 0xfb, 0xbf, 0xbd, 0x2e, 0x2d, 0xe0, 0xbd, 0xa2, 0xdb, 0xfd, 0x3d, 
0x80, 0xf6, 0xe2, 0xbc, 0xc8, 0x95, 0x88, 0xbc, 0xe2, 0x29, 0xe5, 0xbd, 0x20, 0xcd, 0x90, 0xbc, 0xee, 0xd3, 0xb5, 0x3d, 0xf0, 0x9e, 0x56, 0x3c, 0x58, 0xdd, 0x8a, 0x3c, 0xb0, 0xc5, 0x54, 0xbd, 
0x2c, 0x9a, 0x20, 0x3d, 0x80, 0x3c, 0x13, 0xbb, 0x2c, 0x23, 0xd6, 0x3d, 0x50, 0xaa, 0xd6, 0x3c, 0x50, 0xa7, 0xe4, 0x3c, 0x60, 0x32, 0xe2, 0xbb, 0x3a, 0x97, 0xdb, 0x3d, 0x50, 0x47, 0x4b, 0xbd, 
0xb0, 0x0e, 0x94, 0xbc, 0xe0, 0xa9, 0x73, 0xbc, 0xd6, 0x58, 0x95, 0xbd, 0xa8, 0x62, 0x2a, 0xbd, 0x88, 0xe2, 0x29, 0xbd, 0xa4, 0x3c, 0xc4, 0xbd, 0xce, 0x3e, 0xc6, 0x3d, 0x7e, 0xd3, 0x8a, 0x3d, 
0xe0, 0xf1, 0xa7, 0x3d, 0x90, 0x88, 0xf4, 0x3d, 0xd0, 0x0b, 0xfc, 0xbc, 0x18, 0x41, 0x4d, 0xbd, 0x4c, 0xc4, 0x34, 0xbd, 0xc8, 0x14, 0x59, 0x3d, 0x26, 0xd7, 0xde, 0x3d, 0x96, 0x62, 0xcd, 0xbd, 
0xb8, 0x8b, 0xbe, 0x3c, 0x7e, 0xb3, 0x9f, 0xbd, 0x82, 0x8d, 0xa5, 0x3d, 0x20, 0xfd, 0xc8, 0xbd, 0x8e, 0x11, 0xce, 0xbd, 0x20, 0xf5, 0xe8, 0x3b, 0x38, 0x03, 0x04, 0xbd, 0x76, 0xbf, 0xdc, 0xbd, 
0xe4, 0x43, 0x66, 0x3d, 0x00, 0x8e, 0xa0, 0xba, 0xc8, 0x8b, 0xbe, 0xbd, 0x6c, 0xc4, 0xd5, 0xbd, 0xac, 0x6b, 0x8d, 0xbd, 0x6e, 0x6d, 0xc2, 0x3d, 0xec, 0x44, 0x8e, 0xbd, 0xe8, 0xc9, 0x55, 0xbd, 
0x36, 0x30, 0xab, 0x3c, 0x28, 0xf8, 0x0c, 0xbc, 0x95, 0x3f, 0xd1, 0xbd, 0x76, 0x80, 0xc9, 0x3d, 0x5a, 0x65, 0xb2, 0x3d, 0xa2, 0xa3, 0x7a, 0xbd, 0x77, 0x9a, 0xa5, 0x3c, 0x58, 0x3c, 0x99, 0xbd, 
0x56, 0xb4, 0x1e, 0xbc, 0xd1, 0xb3, 0xe4, 0xbd, 0x2a, 0xd4, 0x2e, 0xbc, 0x9f, 0x32, 0xc3, 0x3d, 0xfe, 0xd9, 0x05, 0x3d, 0xbc, 0x77, 0xd8, 0xbd, 0xba, 0xa0, 0xc0, 0xbd, 0xd7, 0x44, 0xae, 0xbd, 
0x96, 0x6e, 0x54, 0xbd, 0x00, 0xcf, 0xa6, 0xbd, 0x52, 0x3e, 0x1a, 0x3d, 0x7a, 0x27, 0x54, 0x3d, 0xbd, 0xf7, 0xb4, 0x3a, 0xc3, 0x99, 0x4b, 0xbd, 0xf2, 0x40, 0xde, 0xbd, 0xf6, 0x62, 0x28, 0x3d, 
0x8e, 0x9a, 0xb9, 0x3c, 0x9e, 0x50, 0x85, 0xbd, 0xfd, 0xd5, 0xb8, 0x3d, 0xe8, 0x45, 0xeb, 0xbc, 0x71, 0xcc, 0x72, 0xbd, 0x80, 0x0b, 0xaf, 0x3d, 0xf9, 0x17, 0xa7, 0xbd, 0x8d, 0x98, 0xbb, 0xbd, 
0x09, 0x48, 0xd8, 0x3d, 0x6d, 0x46, 0x82, 0xbd, 0x3f, 0xa4, 0x4b, 0xbd, 0x2b, 0x53, 0x79, 0xbd, 0x0c, 0xe2, 0xa9, 0xbd, 0x6c, 0x22, 0x0e, 0x3d, 0x41, 0x54, 0xff, 0x3d, 0xc0, 0x3a, 0x0d, 0x3c, 
0x12, 0xf1, 0xda, 0xbd, 0x3c, 0x6d, 0x72, 0x3d, 0x6d, 0x7e, 0xc3, 0x3d, 0x4e, 0xe9, 0xb8, 0x3d, 0x7c, 0x15, 0x52, 0xbd, 0x92, 0x58, 0xce, 0x3d, 0xa7, 0x22, 0xf4, 0x3d, 0xb9, 0xb1, 0xf8, 0x3d, 
0x42, 0xe3, 0xc5, 0xbd, 0xb5, 0x1f, 0xc5, 0x3d, 0x49, 0x89, 0x6b, 0x3d, 0x48, 0xa6, 0xd3, 0x3d, 0x06, 0xa7, 0x8e, 0x3d, 0x4c, 0x39, 0x0c, 0x3e, 0x68, 0x26, 0xa4, 0x3d, 0x34, 0xb6, 0x96, 0x3d, 
0xd1, 0x60, 0xe6, 0x3d, 0x57, 0x6c, 0xd8, 0x3d, 0x4d, 0x38, 0x06, 0x3e, 0x38, 0xb3, 0xd3, 0xbd, 0x2a, 0xad, 0xdb, 0x3b, 0xb7, 0x59, 0x8d, 0xbd, 0xe6, 0x3c, 0xbe, 0x3d, 0x7b, 0x0a, 0xae, 0xbd, 
0xa5, 0x76, 0xc5, 0x3d, 0x8c, 0x64, 0xa9, 0xbd, 0xbe, 0x73, 0xbb, 0xbc, 0x91, 0xb4, 0xa9, 0x3c, 0x29, 0xa7, 0x34, 0xbd, 0x05, 0x35, 0x3a, 0x3d, 0x47, 0xab, 0x10, 0x3d, 0xb8, 0xf0, 0xd4, 0x3c, 
0xee, 0x0f, 0x9b, 0xbc, 0x55, 0x1c, 0x09, 0x3e, 0x28, 0x5d, 0xdb, 0xbd, 0x31, 0x98, 0x88, 0x3d, 0xc5, 0x79, 0x07, 0x3d, 0x9c, 0xef, 0x90, 0x3d, 0x42, 0x00, 0x32, 0x3d, 0x40, 0x06, 0x8c, 0x3d, 
0xce, 0x05, 0x03, 0x3e, 0x6c, 0xd0, 0x35, 0x3d, 0xaa, 0x56, 0x07, 0xbd, 0x15, 0x2c, 0xa8, 0x3d, 0x7a, 0x78, 0xfe, 0x3c, 0x71, 0x4f, 0xcd, 0xbd, 0x43, 0x0d, 0x1f, 0x3c, 0xdb, 0x01, 0xf2, 0x3d, 
0xf3, 0x99, 0x02, 0x3e, 0xe8, 0xd6, 0xdd, 0x3d, 0x3e, 0xd2, 0xa7, 0xbb, 0xeb, 0x10, 0x0d, 0x3c, 0x78, 0x9e, 0xa1, 0xbc, 0x39, 0xe3, 0xe4, 0x3d, 0x5e, 0x0b, 0x41, 0xba, 0x55, 0x33, 0xa1, 0xbd, 
0x5d, 0x5b, 0x13, 0xbd, 0xe5, 0x6e, 0x82, 0x3b, 0x0e, 0x02, 0x99, 0x3d, 0x9d, 0x02, 0x00, 0xbd, 0xf8, 0x40, 0xff, 0x3c, 0xc1, 0x4b, 0xc9, 0x3d, 0xf1, 0x84, 0x4b, 0x3d, 0x09, 0xd3, 0x95, 0xbd, 
0x1b, 0x80, 0x34, 0xbc, 0x66, 0x09, 0x01, 0x3e, 0x84, 0x14, 0x0e, 0x3d, 0xc0, 0xc1, 0x9c, 0x3d, 0x31, 0x72, 0xe7, 0xbd, 0x1b, 0xe9, 0xbc, 0x3c, 0x90, 0x8d, 0x03, 0x3e, 0x98, 0x7d, 0x9f, 0x3d, 
0x8b, 0x84, 0xd3, 0xbd, 0x2d, 0xa1, 0xca, 0x3d, 0x09, 0x90, 0xae, 0x3d, 0x3d, 0x34, 0xc0, 0xbc, 0x31, 0x9f, 0x20, 0xbd, 0x55, 0x78, 0x74, 0x3d, 0x31, 0xc3, 0x05, 0xbb, 0x91, 0x26, 0x4d, 0xbd, 
0x05, 0x75, 0xd9, 0xbc, 0xa6, 0xc9, 0x91, 0xbd, 0x77, 0x53, 0xd4, 0x3d, 0x99, 0x4b, 0x4c, 0xbc, 0x54, 0xc8, 0xe1, 0x3d, 0x09, 0x04, 0xbe, 0xbd, 0xb7, 0x68, 0x02, 0x3e, 0x84, 0x28, 0xb8, 0x3c, 
0x76, 0xd4, 0xea, 0xba, 0xe1, 0x53, 0x0a, 0xbd, 0x26, 0xf8, 0x01, 0x3e, 0xb8, 0x53, 0x58, 0x3d, 0x57, 0x3b, 0xd6, 0x3d, 0x68, 0x16, 0x27, 0x3d, 0xd8, 0xb0, 0xd5, 0x3d, 0xbc, 0x26, 0xe7, 0x3d, 
0x56, 0x5a, 0x0d, 0x3e, 0x06, 0xc3, 0x0a, 0x3e, 0x11, 0x36, 0xf0, 0x3d, 0xa2, 0x62, 0xa9, 0xbd, 0xdc, 0xe9, 0x0e, 0x3e, 0x32, 0xda, 0xe7, 0x3d, 0x99, 0x01, 0x45, 0x3d, 0xaa, 0xbf, 0x03, 0x3e, 
0xa2, 0x5c, 0x9b, 0xbd, 0x21, 0xd0, 0x88, 0xbd, 0xab, 0xe3, 0x1b, 0x3d, 0xc8, 0x0d, 0xa2, 0x3d, 0x6f, 0xbb, 0xde, 0x3d, 0xda, 0x8a, 0xe4, 0x3c, 0xa2, 0x8e, 0xc3, 0x3d, 0x0b, 0x4e, 0x1e, 0xbd, 
0xa4, 0xa4, 0x4f, 0x3d, 0x8a, 0xcc, 0x08, 0xbd, 0xa2, 0x3f, 0xd5, 0xbc, 0xb8, 0x5f, 0xb9, 0xbd, 0x5c, 0xa0, 0x84, 0x3d, 0x05, 0xc1, 0x77, 0xbc, 0x31, 0xfa, 0x38, 0xbd, 0x33, 0x0b, 0xc1, 0x3d, 
0x71, 0x15, 0x8a, 0x3d, 0xa3, 0x56, 0x36, 0x3d, 0xc3, 0xba, 0x38, 0xbc, 0xb8, 0x94, 0x78, 0xbb, 0x04, 0x04, 0xf5, 0x3d, 0x09, 0x89, 0x0b, 0x3e, 0x15, 0xcf, 0xaf, 0x3d, 0x84, 0xeb, 0xa7, 0x3d, 
0x6c, 0xef, 0xca, 0x3d, 0x4b, 0xd2, 0xfc, 0x3c, 0xac, 0x48, 0x19, 0x3e, 0xad, 0x21, 0x03, 0x3e, 0xca, 0x5a, 0xe3, 0x3d, 0x26, 0x3c, 0x27, 0x3d, 0x45, 0x60, 0xec, 0x3d, 0x5c, 0x15, 0xb4, 0xbd, 
0xe9, 0xd4, 0x44, 0x3d, 0x26, 0x34, 0xed, 0xbc, 0x8c, 0xcb, 0x05, 0x3e, 0x70, 0x66, 0x4a, 0xbd, 0xdb, 0xf1, 0xcd, 0x3d, 0x1c, 0x2f, 0x0a, 0x3e, 0x25, 0xad, 0xa0, 0xbc, 0xad, 0xea, 0x41, 0x3d, 
0x5f, 0xdd, 0xdf, 0x3d, 0x30, 0xe4, 0x47, 0x3d, 0x0c, 0xb7, 0xa7, 0xbc, 0x15, 0x5b, 0xc8, 0x3d, 0x43, 0x03, 0xf3, 0x3d, 0x31, 0x17, 0x90, 0x3d, 0xf6, 0xc9, 0x0b, 0xbc, 0xcb, 0x08, 0xb5, 0x3d, 
0xf1, 0xc3, 0xf1, 0xba, 0x3b, 0x6f, 0xd4, 0x3d, 0xe9, 0x1e, 0x4e, 0x3d, 0xae, 0xeb, 0x39, 0xbd, 0xd8, 0x77, 0x63, 0x3d, 0x8f, 0x62, 0x0f, 0xbd, 0xfb, 0x2c, 0xaf, 0x3d, 0x9c, 0xaf, 0x72, 0xbc, 
0xac, 0x0a, 0x7d, 0x3d, 0xbe, 0x0b, 0xf6, 0xbd, 0x21, 0xd6, 0x9d, 0x3d, 0xd1, 0xb1, 0x6e, 0xbd, 0xa6, 0xbe, 0x5c, 0xbd, 0xe8, 0x7a, 0x18, 0xbd, 0xb9, 0xe4, 0x05, 0xbe, 0x17, 0x35, 0xd0, 0x3d, 
0xe3, 0x2f, 0xe3, 0x3c, 0x0e, 0x42, 0x61, 0x3c, 0x54, 0xd1, 0x40, 0x3d, 0x9c, 0x20, 0xa5, 0x3b, 0x37, 0xd9, 0xdf, 0xbd, 0xb8, 0x2c, 0xd2, 0xbd, 0x3e, 0x29, 0x4f, 0x3c, 0x14, 0x7d, 0x32, 0x3d, 
0xff, 0x78, 0x8a, 0xbd, 0xd1, 0x34, 0xa1, 0xbd, 0x9d, 0xa2, 0x8e, 0xbd, 0xd3, 0x92, 0xdd, 0xbd, 0x3e, 0x6b, 0xbe, 0x3c, 0xac, 0x41, 0xb4, 0xbc, 0x42, 0xb2, 0x8f, 0xbd, 0xd1, 0xfa, 0x9a, 0xbc, 
0x77, 0x2a, 0xd2, 0x3d, 0x01, 0x9b, 0xdf, 0x3c, 0x8a, 0xb6, 0x9c, 0x3c, 0x05, 0x6f, 0x92, 0x3c, 0x47, 0x37, 0x15, 0x3d, 0x11, 0x57, 0x95, 0x3d, 0x95, 0xe2, 0xe0, 0x3d, 0x17, 0xd3, 0xd7, 0x3d, 
0x10, 0x7f, 0x35, 0x3d, 0x02, 0x34, 0x92, 0x3d, 0x7e, 0x3b, 0x16, 0xbd, 0xc6, 0xc0, 0x9c, 0xbd, 0x56, 0x88, 0x8e, 0xbd, 0xab, 0xce, 0x46, 0xbc, 0xa2, 0x43, 0x9d, 0x3d, 0xe4, 0x83, 0x8e, 0xbd, 
0x63, 0xf3, 0x06, 0x3d, 0xfe, 0xbe, 0xbd, 0x3d, 0x5e, 0x82, 0x90, 0x3d, 0xc3, 0x57, 0x2f, 0xbd, 0xc7, 0x63, 0xa1, 0xbd, 0x37, 0xf1, 0x10, 0xbc, 0x28, 0x5f, 0x5e, 0x3d, 0x20, 0x3f, 0xb2, 0x3d, 
0x09, 0x17, 0x54, 0x3d, 0x5d, 0x48, 0x61, 0xbd, 0x5b, 0x0a, 0x34, 0x3d, 0x7c, 0xb3, 0x9a, 0xbb, 0x59, 0x72, 0xf4, 0xbd, 0xf1, 0x75, 0xed, 0xbd, 0x23, 0x34, 0x86, 0xbd, 0x84, 0x69, 0x00, 0x3d, 
0x6b, 0xfc, 0xf9, 0x3d, 0x47, 0x29, 0x4c, 0x3d, 0xfd, 0xdb, 0x5c, 0xbd, 0x04, 0x71, 0x9a, 0xbd, 0xc2, 0x9e, 0x80, 0x3c, 0xf4, 0x50, 0xc9, 0xbd, 0xda, 0x93, 0x50, 0xbd, 0xf1, 0x14, 0xbd, 0xbd, 
0x3c, 0xab, 0xfd, 0x3d, 0x82, 0x4d, 0x0b, 0x3e, 0xca, 0xd2, 0x95, 0x3d, 0x8c, 0xc7, 0xc3, 0xbc, 0x93, 0xe0, 0x0c, 0x3d, 0x4f, 0xab, 0x08, 0x3e, 0x95, 0x75, 0xc3, 0x3d, 0x6a, 0xa8, 0x1a, 0x3d, 
0x18, 0x19, 0x86, 0x3d, 0xb0, 0x55, 0x01, 0x3e, 0xf4, 0x3f, 0x78, 0x3d, 0xa8, 0xb3, 0x0b, 0x3e, 0xcc, 0xae, 0xff, 0xbb, 0x4d, 0xbe, 0xeb, 0x3d, 0x06, 0xfa, 0x13, 0xbd, 0x7a, 0xca, 0xab, 0x3d, 
0x3c, 0x8b, 0x8f, 0x3d, 0x45, 0xab, 0xb3, 0x3d, 0xb0, 0x4c, 0x6d, 0xbd, 0xcb, 0x2e, 0x72, 0xbd, 0x12, 0x1a, 0x94, 0xbd, 0x14, 0xca, 0xaf, 0xbd, 0xae, 0x8b, 0x88, 0x3d, 0xd2, 0x9e, 0x67, 0x3d, 
0xf7, 0x1f, 0xf2, 0xbc, 0xb0, 0x70, 0x51, 0x3b, 0xc2, 0xe2, 0xd7, 0x3d, 0x93, 0x60, 0x03, 0xbd, 0x03, 0x55, 0xfa, 0x3d, 0x82, 0x88, 0x07, 0x3e, 0x5a, 0x41, 0xe6, 0xbc, 0xc3, 0x26, 0xe1, 0x3d, 
0x0b, 0x3f, 0x8a, 0x3d, 0x71, 0xe5, 0xa7, 0xbd, 0x0c, 0xbb, 0xce, 0x3d, 0xb0, 0x8c, 0x00, 0x3e, 0xfe, 0xa7, 0x5a, 0xbd, 0x70, 0xad, 0xbe, 0x3d, 0xd1, 0xc9, 0xa5, 0xbd, 0x7f, 0x89, 0x53, 0x3d, 
0x15, 0xdc, 0x04, 0x3e, 0x93, 0x48, 0x87, 0x3d, 0xe7, 0xdc, 0xe9, 0x3c, 0x48, 0xd1, 0x77, 0xbd, 0x23, 0x29, 0xb1, 0x3d, 0x04, 0x3c, 0x8b, 0x3d, 0x25, 0x2a, 0xf0, 0x3d, 0x4b, 0x2d, 0xab, 0x3d, 
0x2f, 0x7c, 0xc6, 0x3d, 0xca, 0x1b, 0x7d, 0xbd, 0x8a, 0x1c, 0xaf, 0x3a, 0x8e, 0x74, 0x31, 0x3d, 0xb8, 0x39, 0x9a, 0x3d, 0xc5, 0xeb, 0xb4, 0xbd, 0x87, 0x5b, 0x41, 0xbd, 0xb9, 0x3d, 0x48, 0xbd, 
0xe2, 0xa1, 0xf3, 0x3d, 0x80, 0x3c, 0x0c, 0xbc, 0x00, 0xe0, 0x3a, 0xba, 0x50, 0xfc, 0xdb, 0xbc, 0xc0, 0xc7, 0x0c, 0xbb, 0xcc, 0x91, 0x8f, 0xbd, 0x72, 0x43, 0xc6, 0x3d, 0xec, 0x2a, 0x0d, 0xbd, 
0x9c, 0x79, 0xec, 0xbd, 0x78, 0x03, 0xc4, 0xbc, 0x94, 0x9b, 0xd9, 0xbd, 0xd8, 0x32, 0x02, 0xbd, 0x88, 0x5a, 0xb5, 0x3c, 0x28, 0xe5, 0xb6, 0xbd, 0x78, 0x01, 0x9e, 0x3d, 0xd0, 0xf2, 0xab, 0xbd, 
0x40, 0xbb, 0xa1, 0xbb, 0xb0, 0xd3, 0xf6, 0xbc, 0xb8, 0x55, 0x01, 0xbd, 0xd4, 0xc6, 0xdb, 0xbd, 0x30, 0x68, 0x51, 0xbc, 0x0c, 0x2f, 0x3e, 0x3d, 0x30, 0x74, 0x73, 0x3c, 0x2c, 0x14, 0x88, 0x3d, 
0xb0, 0xc4, 0x2b, 0xbd, 0x48, 0xbd, 0xab, 0xbc, 0xb8, 0xfc, 0xa0, 0xbd, 0xa0, 0xcb, 0xd5, 0xbc, 0x9c, 0x4a, 0x71, 0x3d, 0x30, 0xe2, 0x4b, 0xbc, 0x44, 0x52, 0x65, 0x3d, 0xe4, 0xfb, 0xfe, 0xbd, 
0x04, 0xbd, 0xac, 0xbd, 0x8a, 0xa5, 0xc1, 0x3d, 0xce, 0xb6, 0x95, 0xbd, 0xd4, 0x84, 0xc9, 0xbd, 0xe0, 0xa4, 0x17, 0xbc, 0x42, 0x09, 0xef, 0x3d, 0xd2, 0xdf, 0xc1, 0x3d, 0xdc, 0x30, 0x77, 0xbd, 
0x34, 0x1f, 0x9a, 0x3d, 0x58, 0x03, 0xff, 0xbc, 0x1a, 0xf6, 0x84, 0xbd, 0xd6, 0xde, 0xd0, 0x3d, 0x50, 0xfb, 0xad, 0xbd, 0x30, 0xf0, 0xd4, 0xbc, 0x62, 0x51, 0xcc, 0x3d, 0x88, 0xde, 0x5a, 0x3d, 
0x68, 0x2e, 0x46, 0xbd, 0x68, 0xa4, 0x1c, 0xbd, 0x9e, 0x93, 0x9d, 0xbd, 0x90, 0xf1, 0xdc, 0xbc, 0xe4, 0x7a, 0x66, 0x3d, 0xb6, 0xfe, 0xd6, 0xbd, 0xe4, 0xc6, 0x1a, 0x3d, 0xf8, 0x14, 0xa4, 0xbd, 
0x80, 0x95, 0x34, 0x3b, 0x2e, 0x71, 0xef, 0xbd, 0xc8, 0x37, 0xd9, 0xbc, 0x48, 0xbf, 0x34, 0x3d, 0xf8, 0x46, 0x8b, 0xbc, 0xa8, 0x1c, 0x29, 0x3d, 0xe8, 0x9c, 0x53, 0xbd, 0x2c, 0x9a, 0xe5, 0x3d, 
0x70, 0xbc, 0x19, 0xbd, 0x44, 0x33, 0x56, 0xbd, 0xf2, 0x56, 0xba, 0xbd, 0x38, 0x31, 0x84, 0x3c, 0x84, 0x7f, 0x51, 0xbd, 0x30, 0xc9, 0xa3, 0xbc, 0xac, 0x68, 0xf4, 0xbd, 0x14, 0x80, 0x8b, 0x3d, 
0xdc, 0xba, 0xef, 0x3d, 0x2c, 0xbb, 0x38, 0x3d, 0x2a, 0xdf, 0xb6, 0x3d, 0x52, 0x29, 0xf9, 0x3d, 0xc0, 0x4f, 0x99, 0x3d, 0x40, 0x4a, 0x32, 0x3c, 0x3c, 0x5a, 0xaa, 0xbd, 0x04, 0x4b, 0x6a, 0x3d, 
0x60, 0x6f, 0x8e, 0xbc, 0xb4, 0x9f, 0x79, 0xbd, 0x5c, 0x34, 0x78, 0xbd, 0xb0, 0xdb, 0x14, 0xbd, 0xbc, 0x57, 0x6d, 0xbd, 0x40, 0xf3, 0x73, 0x3b, 0x50, 0x0c, 0xee, 0x3d, 0x90, 0x12, 0xa1, 0x3d, 
0xbc, 0xb0, 0xd4, 0xbd, 0x48, 0x3a, 0x20, 0x3d, 0x6a, 0x2b, 0xd2, 0xbd, 0x80, 0xbc, 0x09, 0x3d, 0x62, 0xf0, 0x88, 0xbd, 0x40, 0xd2, 0xb9, 0xbd, 0xa0, 0x12, 0x5a, 0x3d, 0x60, 0x81, 0x62, 0xbc, 
0x2e, 0x60, 0xf1, 0xbd, 0xe0, 0xad, 0xcd, 0xbb, 0x90, 0xa2, 0xcf, 0xbd, 0xbe, 0xfa, 0xae, 0xbd, 0x5c, 0x29, 0x19, 0x3d, 0xc0, 0xa2, 0x17, 0x3c, 0x0a, 0x1c, 0xec, 0x3d, 0x88, 0x06, 0x3f, 0xbd, 
0x84, 0x0c, 0xfe, 0x3d, 0x50, 0xcd, 0x3a, 0x3d, 0x5c, 0x31, 0xc4, 0xbd, 0x24, 0xcf, 0xb4, 0xbd, 0x00, 0x52, 0xad, 0xb9, 0x08, 0x62, 0x27, 0xbd, 0x30, 0x62, 0x79, 0xbd, 0xf2, 0xad, 0xe7, 0xbd, 
0x7c, 0xb2, 0x2e, 0xbd, 0x0c, 0x45, 0x55, 0xbd, 0x00, 0xcd, 0x7a, 0x3a, 0x54, 0xe0, 0xbb, 0x3d, 0xe0, 0x56, 0x10, 0xbc, 0x0a, 0x69, 0x95, 0x3d, 0xc4, 0x60, 0xea, 0xbd, 0x62, 0xa7, 0xb3, 0xbd, 
0x80, 0x1f, 0x80, 0x3a, 0xc4, 0x4d, 0x32, 0x3d, 0x10, 0x45, 0xc4, 0x3d, 0xf4, 0xd6, 0x35, 0xbd, 0x10, 0x8a, 0xd3, 0xbd, 0xb0, 0xa6, 0xcf, 0x3d, 0x34, 0x9a, 0xd0, 0xbd, 0x18, 0xb3, 0x89, 0xbc, 
0x08, 0xbe, 0x74, 0x3c, 0x49, 0x44, 0xbb, 0xbc, 0x26, 0xe1, 0xa8, 0xbd, 0x86, 0xc5, 0x14, 0xbd, 0x8b, 0x2c, 0xf3, 0x3d, 0x7f, 0xcb, 0x35, 0xbd, 0xe6, 0x39, 0xb9, 0x3d, 0x42, 0x74, 0xb4, 0x3b, 
0xce, 0xa7, 0xe9, 0x3d, 0x3f, 0x52, 0x28, 0x3e, 0x7a, 0xa5, 0xa7, 0x3c, 0x06, 0xcd, 0xa7, 0xbd, 0xff, 0x3d, 0x66, 0xbd, 0x2b, 0x81, 0x0b, 0x3e, 0xdb, 0x8c, 0x64, 0x3d, 0xbf, 0xf3, 0x27, 0x3e, 
0x90, 0x0e, 0x89, 0x3d, 0x82, 0xd6, 0xa9, 0x3d, 0xd5, 0x07, 0xd0, 0x3d, 0x43, 0xef, 0x1f, 0x3e, 0x51, 0x65, 0x51, 0x3d, 0x20, 0xc3, 0xf8, 0x3d, 0xdb, 0x2e, 0x85, 0x3c, 0x74, 0xde, 0x12, 0x3c, 
0xad, 0xc7, 0x24, 0xba, 0x86, 0xc0, 0xd7, 0xbc, 0xb2, 0x64, 0x51, 0x3d, 0xf8, 0x8b, 0xbf, 0xb9, 0x1f, 0x77, 0x24, 0x3d, 0x5e, 0x93, 0x01, 0xbd, 0xcb, 0x64, 0xec, 0x3d, 0x0e, 0xf7, 0x0a, 0x3e, 
0xf5, 0x7f, 0xad, 0x3d, 0x39, 0x4d, 0xda, 0xbc, 0xed, 0x05, 0x08, 0x3e, 0xba, 0xf5, 0x1e, 0x3e, 0xac, 0x04, 0x09, 0x3e, 0x68, 0xce, 0x19, 0xbd, 0x74, 0x97, 0x1c, 0x3d, 0xb5, 0x86, 0xa0, 0x3d, 
0x7a, 0xe0, 0x1d, 0xbd, 0x50, 0x0a, 0xc7, 0xba, 0x73, 0x8c, 0xe6, 0x3d, 0xd7, 0xa2, 0x10, 0x3e, 0x94, 0x38, 0x9c, 0xbd, 0x1b, 0x75, 0x18, 0xbc, 0xd8, 0x38, 0x0d, 0xbd, 0xbd, 0x8d, 0x13, 0x3d, 
0x32, 0xac, 0xe2, 0x3d, 0x0b, 0x89, 0x1e, 0x3e, 0xc2, 0xf7, 0x98, 0x3d, 0xc3, 0x7e, 0x20, 0x3e, 0x7f, 0xe2, 0x8b, 0x3d, 0x30, 0x1c, 0x21, 0x3d, 0x88, 0x38, 0x6d, 0xba, 0x09, 0x05, 0x69, 0x3d, 
0xa6, 0xc7, 0xae, 0x3d, 0x14, 0x06, 0x22, 0xbc, 0x59, 0x4f, 0xc0, 0x3c, 0x60, 0x40, 0xdf, 0x3d, 0x57, 0x17, 0x32, 0xbd, 0xe1, 0x9a, 0xd5, 0x3d, 0x4d, 0xec, 0x1c, 0x3e, 0xcf, 0xeb, 0xe6, 0xbc, 
0x3f, 0xb9, 0x8a, 0xbd, 0x6d, 0x7b, 0x55, 0xb9, 0x20, 0xc1, 0x42, 0xbc, 0x63, 0xf1, 0xe5, 0x3d, 0x8f, 0xd3, 0xdd, 0xbc, 0xb3, 0xc1, 0x9b, 0x3b, 0x90, 0x7f, 0x5f, 0x3d, 0x85, 0x2c, 0xbb, 0xbd, 
0xba, 0x52, 0x06, 0x3e, 0x7f, 0xb1, 0x9c, 0xbd, 0x72, 0x15, 0xef, 0x3c, 0x8f, 0xab, 0xb9, 0x3d, 0xce, 0xc8, 0xa9, 0xbd, 0x72, 0xd8, 0xa5, 0xbd, 0x4f, 0x8e, 0x2d, 0x3c, 0xeb, 0x6c, 0x0f, 0xbb, 
0x4f, 0xb2, 0xbf, 0xbc, 0xd2, 0x3c, 0x5d, 0xbc, 0x72, 0x0f, 0xc7, 0xbd, 0x79, 0x2f, 0x35, 0xbd, 0xda, 0xa1, 0x3f, 0x3d, 0x61, 0x1f, 0x9b, 0x3d, 0xf3, 0xf3, 0x8b, 0x3d, 0xc5, 0x41, 0x01, 0x3d, 
0x6f, 0x08, 0x07, 0x3e, 0x4e, 0x33, 0xd5, 0xbd, 0x62, 0x3b, 0xfd, 0xbc, 0x92, 0x08, 0x12, 0xbd, 0x58, 0x91, 0xa1, 0x3d, 0xfc, 0xa8, 0x93, 0x3d, 0x6f, 0x64, 0x28, 0x3c, 0x69, 0xd7, 0x80, 0x3d, 
0x2c, 0x6f, 0x0c, 0x3d, 0x42, 0x6e, 0x0d, 0xbd, 0xc6, 0xe6, 0xb1, 0xbd, 0x9b, 0x32, 0xd8, 0x3d, 0xc7, 0x2a, 0xe3, 0xbc, 0x8e, 0x72, 0x2e, 0xbb, 0x50, 0x40, 0x16, 0xbd, 0x37, 0x01, 0x3c, 0x3d, 
0x61, 0x96, 0x3e, 0xbd, 0x0e, 0xc7, 0x5e, 0xbd, 0x6e, 0xa8, 0x29, 0x3d, 0x25, 0x48, 0x01, 0xbc, 0x2b, 0xac, 0xf4, 0x3d, 0x95, 0x3f, 0x95, 0xbd, 0x06, 0x78, 0x44, 0x3d, 0xef, 0xc8, 0xdb, 0x3b, 
0x00, 0xea, 0x77, 0x3d, 0xf2, 0x35, 0x13, 0x3e, 0x97, 0xbd, 0xc7, 0x3d, 0x5e, 0x19, 0x09, 0x3e, 0x0c, 0xfa, 0xda, 0x3c, 0xec, 0x7b, 0xb3, 0xbd, 0xd1, 0xf3, 0x75, 0xbd, 0xd5, 0x56, 0xc7, 0x3d, 
0x4f, 0xa0, 0xdf, 0x3c, 0x83, 0x2c, 0x92, 0x3c, 0x44, 0xd0, 0x36, 0xbd, 0x65, 0x5b, 0x6e, 0x3d, 0x04, 0xd2, 0x74, 0xbd, 0xef, 0xc1, 0xc7, 0x3d, 0x77, 0x94, 0x08, 0x3e, 0xaf, 0xbc, 0x86, 0x3d, 
0x26, 0xd7, 0xe6, 0x3d, 0xe0, 0xc6, 0xb2, 0xbd, 0x50, 0x04, 0x96, 0xbc, 0x1a, 0xa1, 0x86, 0x3d, 0x98, 0xca, 0x81, 0xbd, 0xc8, 0x7e, 0x0c, 0x3d, 0x20, 0x39, 0x0a, 0xbc, 0x82, 0x5e, 0xfa, 0xbd, 
0xce, 0xb4, 0x9e, 0x3d, 0xa8, 0xfb, 0xe8, 0xbd, 0xa4, 0xc6, 0xb8, 0xbd, 0x62, 0x16, 0xb4, 0xbd, 0xc0, 0xdc, 0xbc, 0x3c, 0x7e, 0x02, 0xc0, 0xbd, 0x6c, 0x30, 0x97, 0xbd, 0x60, 0x16, 0xdd, 0x3c, 
0xd0, 0xe9, 0xdf, 0xbd, 0x10, 0xe4, 0xba, 0xbc, 0xf2, 0x05, 0xf7, 0x3d, 0xb8, 0xc8, 0xe6, 0x3c, 0x2e, 0xa7, 0xd3, 0x3d, 0xe4, 0x13, 0x3f, 0x3d, 0x12, 0x72, 0xcf, 0x3d, 0xf0, 0xef, 0x10, 0xbc, 
0xd0, 0x93, 0x7b, 0x3d, 0x98, 0x9b, 0x8f, 0xbc, 0x90, 0xa5, 0x1b, 0x3c, 0x2e, 0xe2, 0xaf, 0xbd, 0xf0, 0xee, 0x19, 0x3c, 0x6c, 0xef, 0xb2, 0xbd, 0x36, 0x06, 0xdf, 0x3d, 0x0a, 0x26, 0xfd, 0x3d, 
0x10, 0x44, 0x99, 0x3c, 0x08, 0xff, 0xd4, 0x3c, 0x6c, 0xb5, 0x21, 0x3d, 0xf0, 0xce, 0x0b, 0x3c, 0x1a, 0xa2, 0xe7, 0xbd, 0xd0, 0x26, 0x13, 0x3d, 0x2c, 0xd8, 0x09, 0x3d, 0xf8, 0x28, 0xd0, 0x3d, 
0xca, 0x73, 0xca, 0xbd, 0x04, 0xc6, 0x14, 0x3d, 0xc8, 0x7f, 0xa2, 0x3c, 0x8c, 0x11, 0x29, 0xbd, 0xf4, 0xf9, 0xf0, 0xbd, 0x08, 0x7d, 0x19, 0xbd, 0x06, 0xe2, 0xfd, 0x3d, 0xc0, 0xfa, 0x56, 0x3d, 
0x00, 0x56, 0x46, 0x3b, 0xee, 0x94, 0xa9, 0xbd, 0x64, 0xf7, 0x96, 0xbd, 0xd8, 0x32, 0xc9, 0x3d, 0x20, 0x6a, 0xe6, 0xbb, 0x08, 0x47, 0x8c, 0xbc, 0xbe, 0x81, 0xde, 0xbd, 0x90, 0xbb, 0xc1, 0xbd, 
0xda, 0x7e, 0xba, 0xbd, 0x3a, 0x37, 0x8d, 0x3d, 0xe0, 0x5a, 0x5c, 0x3d, 0x72, 0xd3, 0xf0, 0xbd, 0x38, 0xdd, 0xdc, 0x3d, 0xb6, 0x5c, 0xa4, 0xbd, 0x9e, 0xe5, 0x90, 0xbd, 0xda, 0xc9, 0x81, 0x3d, 
0xe4, 0xe2, 0x5d, 0xbd, 0x84, 0x21, 0xf2, 0xbd, 0x10, 0xec, 0xc5, 0x3d, 0x08, 0xdf, 0x5f, 0x3d, 0x80, 0x90, 0x1f, 0x3c, 0x9a, 0x8e, 0x81, 0x3d, 0x60, 0x45, 0xc4, 0x3b, 0x82, 0xb5, 0xcf, 0xbd, 
0xb4, 0xd4, 0x99, 0xbd, 0x38, 0x10, 0x96, 0xbc, 0xa0, 0x0b, 0xb7, 0xbb, 0xd8, 0xea, 0x2b, 0xbd, 0x00, 0x78, 0xba, 0xbb, 0x2c, 0x87, 0x5c, 0xbd, 0xd2, 0x47, 0xde, 0x3d, 0x28, 0x20, 0x99, 0xbc, 
0x28, 0x75, 0xb7, 0x3d, 0xa0, 0x2b, 0x93, 0xbb, 0x04, 0x6b, 0xb1, 0xbd, 0x38, 0x4a, 0x97, 0xbd, 0xe6, 0x70, 0xf9, 0xbd, 0x94, 0x12, 0xab, 0xbd, 0x08, 0xf1, 0xde, 0xbc, 0xd8, 0x11, 0x71, 0x3d, 
0x58, 0xac, 0x64, 0x3d, 0xba, 0x99, 0xb3, 0x3d, 0x08, 0x3c, 0x01, 0xbd, 0x2a, 0xfd, 0xf3, 0xbd, 0x7c, 0xef, 0x68, 0xbd, 0xa0, 0x20, 0xbc, 0xbd, 0x08, 0xf8, 0xa0, 0xbd, 0x20, 0x99, 0xe6, 0xbb, 
0x80, 0x21, 0x7f, 0xbb, 0xe2, 0x7e, 0xa5, 0x3d, 0x38, 0x87, 0xfc, 0xbc, 0x3c, 0x7c, 0xf7, 0x3d, 0x40, 0xb0, 0xe4, 0x3b, 0xd8, 0x08, 0x19, 0xbd, 0xf8, 0x66, 0x3d, 0xbd, 0x00, 0x0f, 0x6e, 0x3d, 
0xb0, 0x55, 0xf5, 0xbd, 0x8a, 0x0f, 0xa6, 0xbd, 0xb0, 0xd7, 0x7f, 0xbd, 0x7e, 0x3d, 0xe2, 0x3d, 0xfc, 0x7d, 0x7b, 0x3d, 0xd2, 0xfc, 0x86, 0x3d, 0x9c, 0xfd, 0xbb, 0x3d, 0xae, 0xe3, 0xe5, 0x3d, 
0x5c, 0x22, 0x77, 0xbd, 0x10, 0x89, 0xd0, 0xbd, 0x40, 0x92, 0xa1, 0x3c, 0x4e, 0x5f, 0x8b, 0xbd, 0x34, 0xd6, 0x46, 0x3d, 0x60, 0x7e, 0x10, 0x3d, 0xc8, 0x28, 0xe9, 0xbd, 0x0c, 0xe6, 0xcc, 0x3d, 
0x62, 0x7d, 0xbc, 0xbd, 0x7e, 0xe4, 0x81, 0x3d, 0xac, 0xd2, 0x36, 0xbd, 0x00, 0x53, 0x28, 0x3c, 0x46, 0x9e, 0xf7, 0x3d, 0x00, 0x4a, 0xce, 0x3c, 0x40, 0xc3, 0x14, 0x3b, 0xde, 0xf2, 0xb6, 0x3d, 
0xf0, 0xae, 0xfc, 0xbc, 0xa8, 0x7d, 0x48, 0x3d, 0x30, 0xed, 0xe0, 0x3d, 0x38, 0x3f, 0xd6, 0xbd, 0x82, 0xe9, 0xaf, 0xbd, 0xf0, 0xae, 0xa3, 0xbd, 0x72, 0x56, 0xed, 0xbd, 0x38, 0x05, 0xbd, 0xbd, 
0x68, 0xe2, 0xea, 0x3d, 0x78, 0x3e, 0xed, 0x3c, 0x0e, 0xe9, 0xe0, 0x3d, 0xe8, 0x0e, 0x95, 0xbc, 0x88, 0x06, 0xd5, 0xbd, 0x2e, 0x05, 0xb5, 0x3d, 0xe4, 0xd5, 0xf0, 0xbd, 0x80, 0x48, 0xd3, 0x3b, 
0xa4, 0x61, 0x21, 0x3d, 0x0c, 0x25, 0x2a, 0xbd, 0xa0, 0x42, 0xcd, 0x3d, 0x3c, 0x0a, 0x08, 0x3d, 0xa8, 0x10, 0x37, 0xbd, 0x9c, 0xd4, 0x26, 0x3d, 0xc2, 0x5a, 0x8a, 0xbd, 0x80, 0x6e, 0xbd, 0xbb, 
0xc0, 0xad, 0xca, 0x3c, 0x90, 0xb4, 0xab, 0xbc, 0x18, 0x77, 0xfe, 0xbd, 0xc8, 0x1b, 0xe7, 0xbd, 0x64, 0x1c, 0x26, 0xbd, 0xf8, 0xcd, 0x78, 0x3d, 0x00, 0xb8, 0xb1, 0x3d, 0x64, 0x6d, 0xb5, 0xbd, 
0xbc, 0xe3, 0x47, 0x3d, 0x5c, 0x84, 0x2f, 0xbd, 0x26, 0x30, 0xa8, 0xbd, 0xa8, 0xd5, 0xf4, 0xbd, 0x7a, 0xcc, 0xe4, 0x3d, 0xe8, 0x38, 0xf9, 0xbd, 0xd6, 0xe2, 0xcb, 0xbd, 0x5c, 0xd0, 0x3f, 0xbd, 
0xe8, 0x47, 0xe7, 0xbd, 0x6e, 0xbe, 0xa8, 0xbd, 0xb8, 0xf2, 0x84, 0x3c, 0xc0, 0x48, 0x51, 0x3d, 0x08, 0xbd, 0xc9, 0x3c, 0x68, 0x16, 0xd2, 0x3d, 0xec, 0xfd, 0x81, 0x3d, 0xf0, 0xc9, 0xc2, 0xbd, 
0xfe, 0x95, 0xf5, 0x3d, 0xfc, 0x97, 0x1d, 0xbd, 0xe0, 0xe9, 0x6a, 0x3c, 0xbc, 0x81, 0xce, 0xbd, 0xa2, 0x65, 0xe9, 0x3d, 0x0a, 0xd5, 0xb8, 0xbd, 0xb2, 0x18, 0xbb, 0x3d, 0x5c, 0x8c, 0xba, 0x3d, 
0xa0, 0xb9, 0x31, 0xbd, 0x80, 0xea, 0x56, 0x3b, 0x3c, 0x2f, 0x49, 0x3d, 0xb2, 0x3f, 0xa1, 0xbd, 0xe6, 0x7a, 0xe7, 0xbd, 0x0a, 0xa6, 0xd2, 0xbd, 0xd0, 0xfa, 0x58, 0x3c, 0x70, 0x65, 0x9b, 0xbc, 
0xbc, 0x7f, 0x7e, 0x3d, 0x00, 0x64, 0x06, 0x3a, 0x60, 0xf6, 0xf9, 0x3d, 0x68, 0x6f, 0x81, 0xbc, 0x84, 0x91, 0xf9, 0x3d, 0x40, 0xed, 0x18, 0x3c, 0xb6, 0xb4, 0xed, 0xbd, 0xa8, 0xeb, 0x81, 0x3c, 
0x28, 0x74, 0x3f, 0xbd, 0x20, 0xb2, 0xbd, 0xbb, 0xdc, 0x8a, 0x06, 0x3d, 0xe8, 0xa8, 0x16, 0x3d, 0x98, 0x4c, 0xa1, 0xbd, 0xea, 0xea, 0xa6, 0x3d, 0x98, 0x4b, 0xc6, 0xbc, 0x3c, 0xfc, 0x4b, 0xbd, 
0xa6, 0xf0, 0x99, 0x3d, 0xc8, 0x3c, 0x97, 0xbc, 0x20, 0xdd, 0x98, 0x3d, 0x30, 0x1e, 0xc3, 0xbd, 0x1e, 0x9c, 0xe8, 0x3d, 0x08, 0x29, 0x2f, 0xbd, 0xc4, 0x90, 0x4c, 0xbd, 0xae, 0xe4, 0xc6, 0x3d, 
0x90, 0xc3, 0x51, 0x3d, 0x0c, 0x09, 0x4e, 0xbd, 0x20, 0x02, 0xd0, 0xbb, 0xd0, 0x62, 0x63, 0xbc, 0xf2, 0xca, 0xb7, 0x3d, 0x7e, 0x2b, 0xf1, 0x3d, 0x58, 0x82, 0x4c, 0x3d, 0xf4, 0x01, 0xaf, 0x3d, 
0x40, 0x3d, 0x84, 0x3b, 0xc4, 0x44, 0x75, 0x3d, 0x18, 0xe2, 0xdb, 0xbd, 0x88, 0xc5, 0x6d, 0x3d, 0x40, 0xfc, 0x54, 0x3b, 0x44, 0x16, 0xab, 0xbd, 0x38, 0xbb, 0x25, 0x3d, 0x22, 0xad, 0xce, 0xbd, 
0x0a, 0x03, 0xec, 0x3d, 0x24, 0xe5, 0x85, 0xbd, 0xf0, 0x66, 0xbb, 0x3d, 0x60, 0x82, 0xc0, 0x3b, 0x3c, 0x09, 0xf6, 0xbd, 0x38, 0xb2, 0x11, 0xbd, 0xc8, 0x91, 0xa2, 0xbc, 0x06, 0x77, 0xfe, 0xbd, 
0x20, 0x52, 0x35, 0xbc, 0x00, 0xb8, 0xd4, 0x38, 0x78, 0x3f, 0xff, 0xbd, 0x7e, 0xfe, 0x9f, 0xbd, 0xae, 0xda, 0xe0, 0xbd, 0x60, 0x58, 0x6f, 0x3d, 0xf0, 0x56, 0x4a, 0x3c, 0xa0, 0x05, 0x2b, 0xbd, 
0x64, 0xd6, 0x81, 0xbd, 0x3c, 0x78, 0x8b, 0x3d, 0x04, 0x8e, 0x78, 0x3d, 0xb0, 0x85, 0xe6, 0xbd, 0xa4, 0x0e, 0xdd, 0xbd, 0x7a, 0x4a, 0x95, 0x3d, 0xb0, 0x68, 0xb7, 0xbc, 0xc8, 0xc5, 0xc1, 0xbd, 
0x2e, 0xe3, 0xa3, 0x3d, 0xbb, 0x7c, 0xcd, 0x3d, 0x4a, 0x71, 0xea, 0x3a, 0x2f, 0xb1, 0xb6, 0xbc, 0x48, 0xd7, 0x4a, 0xbd, 0xc0, 0x48, 0xe7, 0x3d, 0x36, 0xdd, 0x39, 0x3d, 0x8f, 0x8e, 0xa1, 0xbd, 
0x3b, 0x77, 0xab, 0xbc, 0xf5, 0x52, 0x9a, 0x3d, 0x24, 0x14, 0xc8, 0x3d, 0x22, 0x76, 0x7e, 0x3d, 0x09, 0x3f, 0xb3, 0x3d, 0xfe, 0x8f, 0x0f, 0xbd, 0x22, 0x29, 0x31, 0x3d, 0xfb, 0xbc, 0xab, 0x3d, 
0x63, 0xb6, 0x02, 0xbc, 0xf8, 0xa5, 0xca, 0x3d, 0xe0, 0xed, 0x00, 0x3d, 0xbe, 0x54, 0x83, 0x3d, 0xff, 0x79, 0xe5, 0x3d, 0x6e, 0xcd, 0x02, 0x3e, 0xc7, 0x6d, 0xc9, 0x3d, 0x1a, 0xc2, 0x9d, 0xbc, 
0x22, 0xc6, 0x70, 0x3d, 0x89, 0x6a, 0x4a, 0xbd, 0xf6, 0xd9, 0x06, 0x3e, 0xba, 0xa2, 0xb5, 0xbd, 0xe8, 0x7a, 0x6f, 0xbc, 0x8a, 0x4d, 0x0b, 0x3e, 0x59, 0xfe, 0x05, 0x3e, 0xf8, 0x0a, 0xe2, 0x3c, 
0xf6, 0xd7, 0xd3, 0x3c, 0x12, 0x59, 0x0d, 0x3e, 0xa4, 0xc2, 0x56, 0x3c, 0xe4, 0x9d, 0x98, 0x3d, 0xe7, 0xf9, 0x7f, 0x3d, 0x9c, 0x31, 0xf5, 0x3d, 0x42, 0xe3, 0xa4, 0x3c, 0xb0, 0xf9, 0x88, 0x3d, 
0x85, 0x1b, 0xcf, 0x3d, 0xa6, 0xee, 0x22, 0x3e, 0xde, 0x58, 0xaf, 0xbd, 0x3a, 0xf0, 0x59, 0x3d, 0x34, 0x49, 0x20, 0x3d, 0x37, 0x6a, 0x2c, 0x3d, 0x99, 0xe1, 0x51, 0xbd, 0x8c, 0x9f, 0xb2, 0x3d, 
0x33, 0xe5, 0x5b, 0xbd, 0xa4, 0x6d, 0x0f, 0x3c, 0x71, 0x95, 0x1f, 0x3e, 0xa3, 0xee, 0x4f, 0xbd, 0xb0, 0x7b, 0xae, 0xbd, 0xff, 0xb9, 0xf0, 0x3b, 0xcf, 0x65, 0x78, 0xbd, 0xb1, 0x4c, 0x52, 0xbd, 
0x87, 0x19, 0xa7, 0xbc, 0xf5, 0xbb, 0x04, 0xbd, 0xac, 0xe3, 0x88, 0x3d, 0x06, 0xfe, 0x13, 0x3e, 0x84, 0x67, 0x60, 0xba, 0xa4, 0x70, 0x7a, 0x3d, 0x52, 0x88, 0x9d, 0xbd, 0xb4, 0xf9, 0x15, 0x3c, 
0xc8, 0xb6, 0x5e, 0x3a, 0x94, 0x87, 0x65, 0x3d, 0x19, 0xbc, 0x1c, 0x3e, 0x1f, 0xa3, 0xf4, 0x3d, 0x12, 0x07, 0x02, 0x3e, 0x15, 0x42, 0x19, 0xbd, 0x77, 0x6f, 0x77, 0xbb, 0x7a, 0xa7, 0xc3, 0xbd, 
0xa0, 0x5a, 0x08, 0x3c, 0xca, 0x4a, 0x55, 0x3e, 0x46, 0x0a, 0xc9, 0x3d, 0xf6, 0xe4, 0xbf, 0xbd, 0x44, 0xd6, 0x32, 0xbd, 0xa0, 0x33, 0x91, 0xbc, 0x92, 0x5f, 0xb4, 0xbd, 0x9f, 0x6a, 0x4f, 0x3e, 
0x3e, 0xaa, 0x07, 0x3e, 0x34, 0xdd, 0xda, 0xbd, 0xac, 0x78, 0x44, 0xbd, 0xad, 0x7f, 0x6b, 0xbd, 0x05, 0x04, 0x80, 0x3e, 0x39, 0x92, 0x81, 0xbd, 0x95, 0xdc, 0xfc, 0x3c, 0x88, 0xf9, 0x20, 0x3d, 
0xe4, 0xd1, 0x92, 0x3d, 0xf8, 0x40, 0x97, 0x3e, 0xb6, 0x94, 0x28, 0x3e, 0x00, 0xfb, 0xf7, 0x3d, 0xde, 0x7c, 0x55, 0xbe, 0x54, 0x73, 0x1f, 0x3e, 0x04, 0xcf, 0xbc, 0xbd, 0x6a, 0x11, 0x8a, 0x3e, 
0x52, 0x88, 0x6d, 0x3e, 0x38, 0x4e, 0x3b, 0x3d, 0x3b, 0x8c, 0x7e, 0xbe, 0x61, 0x50, 0x9c, 0xbe, 0x81, 0x71, 0xbc, 0xbe, 0x70, 0x09, 0x05, 0x3e, 0x26, 0x1c, 0xb2, 0xbe, 0x30, 0x53, 0x5d, 0xbe, 
0x14, 0x96, 0x5a, 0x3e, 0x89, 0x87, 0xc4, 0xbe, 0x9f, 0xf0, 0xca, 0xbd, 0xdc, 0xb3, 0xe5, 0xbd, 0xe6, 0x2c, 0x5b, 0xbe, 0x44, 0x6a, 0x53, 0x3e, 0x80, 0x82, 0x30, 0x3e, 0x44, 0x05, 0x93, 0xbe, 
0x27, 0x3c, 0x5b, 0x3e, 0x48, 0x64, 0x21, 0xbe, };
